/*
 * Copyright (c) 2023, Alliance for Open Media. All rights reserved
 *
 * This source code is subject to the terms of the BSD 2 Clause License and
 * the Alliance for Open Media Patent License 1.0. If the BSD 2 Clause License
 * was not distributed with this source code in the LICENSE file, you can
 * obtain it at www.aomedia.org/license/software. If the Alliance for Open
 * Media Patent License 1.0 was not distributed with this source code in the
 * PATENTS file, you can obtain it at www.aomedia.org/license/patent.
 */

unsigned char a3_qp96_128_160_luma_BLOCK_16X16_intra_tflite[] = {
  0x1c, 0x00, 0x00, 0x00, 0x54, 0x46, 0x4c, 0x33, 0x14, 0x00, 0x20, 0x00, 0x1c,
  0x00, 0x18, 0x00, 0x14, 0x00, 0x10, 0x00, 0x0c, 0x00, 0x00, 0x00, 0x08, 0x00,
  0x04, 0x00, 0x14, 0x00, 0x00, 0x00, 0x1c, 0x00, 0x00, 0x00, 0x88, 0x00, 0x00,
  0x00, 0xe0, 0x00, 0x00, 0x00, 0x80, 0x1d, 0x00, 0x00, 0x90, 0x1d, 0x00, 0x00,
  0xb8, 0x23, 0x00, 0x00, 0x03, 0x00, 0x00, 0x00, 0x01, 0x00, 0x00, 0x00, 0x04,
  0x00, 0x00, 0x00, 0x32, 0xe2, 0xff, 0xff, 0x0c, 0x00, 0x00, 0x00, 0x1c, 0x00,
  0x00, 0x00, 0x40, 0x00, 0x00, 0x00, 0x0f, 0x00, 0x00, 0x00, 0x73, 0x65, 0x72,
  0x76, 0x69, 0x6e, 0x67, 0x5f, 0x64, 0x65, 0x66, 0x61, 0x75, 0x6c, 0x74, 0x00,
  0x01, 0x00, 0x00, 0x00, 0x04, 0x00, 0x00, 0x00, 0x94, 0xff, 0xff, 0xff, 0x0a,
  0x00, 0x00, 0x00, 0x04, 0x00, 0x00, 0x00, 0x0c, 0x00, 0x00, 0x00, 0x6f, 0x75,
  0x74, 0x70, 0x75, 0x74, 0x5f, 0x6c, 0x61, 0x79, 0x65, 0x72, 0x00, 0x00, 0x00,
  0x00, 0x01, 0x00, 0x00, 0x00, 0x04, 0x00, 0x00, 0x00, 0x86, 0xe3, 0xff, 0xff,
  0x04, 0x00, 0x00, 0x00, 0x05, 0x00, 0x00, 0x00, 0x69, 0x6e, 0x70, 0x75, 0x74,
  0x00, 0x00, 0x00, 0x02, 0x00, 0x00, 0x00, 0x34, 0x00, 0x00, 0x00, 0x04, 0x00,
  0x00, 0x00, 0xdc, 0xff, 0xff, 0xff, 0x0d, 0x00, 0x00, 0x00, 0x04, 0x00, 0x00,
  0x00, 0x13, 0x00, 0x00, 0x00, 0x43, 0x4f, 0x4e, 0x56, 0x45, 0x52, 0x53, 0x49,
  0x4f, 0x4e, 0x5f, 0x4d, 0x45, 0x54, 0x41, 0x44, 0x41, 0x54, 0x41, 0x00, 0x08,
  0x00, 0x0c, 0x00, 0x08, 0x00, 0x04, 0x00, 0x08, 0x00, 0x00, 0x00, 0x0c, 0x00,
  0x00, 0x00, 0x04, 0x00, 0x00, 0x00, 0x13, 0x00, 0x00, 0x00, 0x6d, 0x69, 0x6e,
  0x5f, 0x72, 0x75, 0x6e, 0x74, 0x69, 0x6d, 0x65, 0x5f, 0x76, 0x65, 0x72, 0x73,
  0x69, 0x6f, 0x6e, 0x00, 0x0e, 0x00, 0x00, 0x00, 0x9c, 0x1c, 0x00, 0x00, 0x94,
  0x1c, 0x00, 0x00, 0x04, 0x1c, 0x00, 0x00, 0xac, 0x1b, 0x00, 0x00, 0x98, 0x1b,
  0x00, 0x00, 0x08, 0x09, 0x00, 0x00, 0xf8, 0x00, 0x00, 0x00, 0xa8, 0x00, 0x00,
  0x00, 0xa0, 0x00, 0x00, 0x00, 0x98, 0x00, 0x00, 0x00, 0x90, 0x00, 0x00, 0x00,
  0x88, 0x00, 0x00, 0x00, 0x68, 0x00, 0x00, 0x00, 0x04, 0x00, 0x00, 0x00, 0x32,
  0xe4, 0xff, 0xff, 0x04, 0x00, 0x00, 0x00, 0x54, 0x00, 0x00, 0x00, 0x0c, 0x00,
  0x00, 0x00, 0x08, 0x00, 0x0e, 0x00, 0x08, 0x00, 0x04, 0x00, 0x08, 0x00, 0x00,
  0x00, 0x10, 0x00, 0x00, 0x00, 0x24, 0x00, 0x00, 0x00, 0x00, 0x00, 0x06, 0x00,
  0x08, 0x00, 0x04, 0x00, 0x06, 0x00, 0x00, 0x00, 0x04, 0x00, 0x00, 0x00, 0x00,
  0x00, 0x00, 0x00, 0x00, 0x00, 0x0a, 0x00, 0x10, 0x00, 0x0c, 0x00, 0x08, 0x00,
  0x04, 0x00, 0x0a, 0x00, 0x00, 0x00, 0x02, 0x00, 0x00, 0x00, 0x02, 0x00, 0x00,
  0x00, 0x04, 0x00, 0x00, 0x00, 0x06, 0x00, 0x00, 0x00, 0x32, 0x2e, 0x31, 0x36,
  0x2e, 0x30, 0x00, 0x00, 0x92, 0xe4, 0xff, 0xff, 0x04, 0x00, 0x00, 0x00, 0x10,
  0x00, 0x00, 0x00, 0x31, 0x2e, 0x31, 0x34, 0x2e, 0x30, 0x00, 0x00, 0x00, 0x00,
  0x00, 0x00, 0x00, 0x00, 0x00, 0x00, 0x04, 0xde, 0xff, 0xff, 0x08, 0xde, 0xff,
  0xff, 0x0c, 0xde, 0xff, 0xff, 0x10, 0xde, 0xff, 0xff, 0xbe, 0xe4, 0xff, 0xff,
  0x04, 0x00, 0x00, 0x00, 0x40, 0x00, 0x00, 0x00, 0x61, 0x2a, 0x83, 0xbe, 0xb9,
  0x61, 0xd7, 0x3e, 0x0c, 0x33, 0xba, 0x3e, 0x19, 0x75, 0x5a, 0xbf, 0x59, 0x97,
  0x64, 0xbf, 0xb1, 0x05, 0xe7, 0x0c, 0x3a, 0x7d, 0xe0, 0x0c, 0xa7, 0xe5, 0x0d,
  0x3f, 0xf1, 0x98, 0x1e, 0x3f, 0x7a, 0x47, 0xdb, 0xbe, 0x97, 0x59, 0x05, 0xbf,
  0x5e, 0x49, 0x08, 0x3f, 0xa6, 0xd5, 0xc5, 0x3e, 0xc7, 0x15, 0xde, 0x0c, 0x98,
  0x5e, 0x44, 0xbf, 0x5f, 0xc9, 0xa2, 0xbe, 0x0a, 0xe5, 0xff, 0xff, 0x04, 0x00,
  0x00, 0x00, 0x00, 0x08, 0x00, 0x00, 0xa6, 0x10, 0xd4, 0xbb, 0x6b, 0x89, 0x71,
  0x3c, 0xaf, 0x38, 0xe9, 0x3d, 0xf1, 0x51, 0xa1, 0x3d, 0xa3, 0xd3, 0x8d, 0x3d,
  0x89, 0x18, 0x89, 0x3d, 0x5c, 0x45, 0xbc, 0x3c, 0xcb, 0xc6, 0x83, 0x3d, 0x5d,
  0x5a, 0x7f, 0x3d, 0xd2, 0x5b, 0x17, 0x3d, 0x19, 0x50, 0x32, 0x3d, 0x79, 0x20,
  0x43, 0x3d, 0x60, 0x33, 0x13, 0x3d, 0x84, 0x2d, 0xf1, 0x3c, 0x69, 0x64, 0x8b,
  0x3d, 0x0a, 0x2a, 0x0a, 0x3d, 0xd6, 0x22, 0xf8, 0x3d, 0x70, 0x37, 0x9d, 0x3d,
  0xa1, 0x6e, 0x22, 0x3d, 0x72, 0x79, 0x91, 0x3d, 0x1e, 0xd0, 0xe8, 0x3c, 0xc2,
  0x0e, 0x5f, 0x3d, 0x72, 0xfd, 0xad, 0x0c, 0xbd, 0xd8, 0x55, 0x3c, 0x70, 0x9e,
  0xf8, 0x3d, 0x31, 0xf9, 0x7f, 0xbc, 0xa0, 0x31, 0xe8, 0x8c, 0xa3, 0x9e, 0x5d,
  0x3d, 0x57, 0xac, 0x81, 0x3d, 0xe1, 0x10, 0x35, 0x3d, 0x6b, 0x71, 0x72, 0xbc,
  0x1f, 0x6c, 0xaf, 0x3b, 0xfa, 0xfa, 0x78, 0x3c, 0xbe, 0x98, 0x84, 0xbc, 0x3a,
  0x71, 0x36, 0x3d, 0x1c, 0xca, 0xc8, 0xbd, 0x3a, 0x0f, 0xcf, 0xbc, 0x19, 0x8a,
  0xfa, 0xbd, 0xcb, 0xd0, 0x89, 0xbd, 0x69, 0xc9, 0xd4, 0xbd, 0x17, 0xaa, 0x57,
  0x3e, 0x8a, 0x6c, 0x8b, 0xbd, 0x6f, 0x53, 0x19, 0x3e, 0xf0, 0x78, 0xd1, 0xbd,
  0x80, 0xc7, 0xe7, 0xbd, 0xfe, 0x45, 0x83, 0x3c, 0xaf, 0xb1, 0xa7, 0xbd, 0xe9,
  0x37, 0x16, 0x3b, 0xc3, 0xd2, 0xff, 0x3c, 0xe7, 0x29, 0x49, 0xbb, 0x43, 0x86,
  0x72, 0x3d, 0x08, 0x28, 0xc9, 0xbd, 0x7e, 0x5e, 0x72, 0xbd, 0xdd, 0xe4, 0xd2,
  0xbd, 0xe0, 0xa2, 0xe1, 0x0c, 0xbc, 0x3c, 0x82, 0x3d, 0x40, 0x56, 0x92, 0xbd,
  0xfb, 0x9d, 0xeb, 0x3d, 0x86, 0x94, 0xdf, 0x8c, 0x2a, 0xbd, 0x7f, 0x3d, 0x3d,
  0x79, 0x86, 0xbd, 0xf4, 0xc1, 0x02, 0xbe, 0x36, 0xf0, 0xf5, 0x3d, 0x8b, 0xbd,
  0xdf, 0x3d, 0x56, 0x96, 0x87, 0x3c, 0x28, 0x55, 0xaa, 0xbc, 0xc6, 0xfa, 0x82,
  0xbc, 0xc3, 0xb0, 0x12, 0xbd, 0x63, 0xbc, 0xcb, 0xbd, 0xe8, 0x01, 0xde, 0xbd,
  0x78, 0xc1, 0x69, 0xbd, 0x82, 0x1a, 0xc9, 0xbd, 0x71, 0xa9, 0x1a, 0x3e, 0xe8,
  0xae, 0x86, 0xbd, 0x05, 0x4a, 0xff, 0x3d, 0xae, 0x94, 0xb5, 0xbd, 0xd6, 0xa1,
  0xc9, 0xbd, 0x27, 0xd4, 0x95, 0x3c, 0x95, 0x8b, 0xa5, 0xbd, 0x8e, 0x83, 0x91,
  0xbb, 0x6d, 0x69, 0xae, 0x3d, 0x4d, 0xca, 0xab, 0x3c, 0x8c, 0x7a, 0xb4, 0x3d,
  0x90, 0xf9, 0xb1, 0xbd, 0x75, 0x80, 0x3e, 0xbd, 0x54, 0xd6, 0xd2, 0xbd, 0x2b,
  0x5a, 0xda, 0x8c, 0xfd, 0xe0, 0x46, 0x3d, 0x14, 0xdf, 0x77, 0xbd, 0x27, 0xa7,
  0xd4, 0x3d, 0xd6, 0xfa, 0xdf, 0x8c, 0x57, 0x21, 0x6e, 0x3d, 0xe0, 0x88, 0x83,
  0xbd, 0xb0, 0x2d, 0xda, 0xbd, 0x24, 0x9e, 0xce, 0x3d, 0xdd, 0xaa, 0xb4, 0x3d,
  0x58, 0x5e, 0x4e, 0xbe, 0xb6, 0x56, 0x94, 0xbd, 0x94, 0xce, 0xca, 0x3d, 0xd9,
  0xd8, 0xe6, 0x3d, 0x3b, 0xff, 0x7e, 0xbd, 0x83, 0xb3, 0x60, 0x3e, 0x51, 0xef,
  0xb8, 0x3d, 0x73, 0x57, 0x07, 0x3e, 0xe7, 0xb9, 0x2b, 0xbe, 0x8c, 0x23, 0xd9,
  0x3d, 0xed, 0xc1, 0x9a, 0xbd, 0xd4, 0x2a, 0x9d, 0xbd, 0x23, 0x7d, 0x2f, 0x3e,
  0x0e, 0xb7, 0x93, 0xbe, 0x38, 0xbd, 0xb2, 0x3e, 0x6a, 0xe0, 0xb1, 0x3d, 0x7b,
  0xa3, 0x98, 0x3d, 0x10, 0xcc, 0x9a, 0xbd, 0x12, 0x88, 0x37, 0x3e, 0xf3, 0xfb,
  0x18, 0x3d, 0xeb, 0xe0, 0x3b, 0x3d, 0x8e, 0x93, 0x0f, 0x3e, 0x8a, 0x80, 0x7f,
  0x8c, 0xe0, 0x58, 0x2c, 0xbe, 0x0c, 0x4c, 0x79, 0x3c, 0x85, 0xba, 0x83, 0xbe,
  0x73, 0xa8, 0xe2, 0x0c, 0xbd, 0x82, 0x8a, 0xbd, 0x24, 0x06, 0x56, 0x3e, 0x06,
  0xd6, 0x58, 0xbd, 0x45, 0x3d, 0x8a, 0xbe, 0x96, 0xd5, 0x79, 0xbe, 0xe8, 0x18,
  0x8a, 0xbe, 0x91, 0xd9, 0x84, 0xbe, 0x28, 0xba, 0x17, 0xbd, 0x63, 0x02, 0xeb,
  0x3d, 0x32, 0xfb, 0x24, 0xbe, 0xec, 0xf2, 0x0f, 0x3e, 0x5d, 0xd7, 0xc4, 0x3d,
  0x0b, 0x87, 0x44, 0x3d, 0x2d, 0xd4, 0x9e, 0xbe, 0xf5, 0x3d, 0xfe, 0x3c, 0x7f,
  0xab, 0x95, 0xbd, 0x4d, 0x12, 0x63, 0xbc, 0x99, 0xb4, 0x40, 0x3e, 0x1a, 0xd1,
  0x7a, 0xbe, 0xa7, 0x00, 0x7a, 0x3e, 0xfc, 0x46, 0x53, 0x3e, 0x26, 0x69, 0x5a,
  0x3e, 0xd4, 0x68, 0xc2, 0xbd, 0x30, 0xef, 0x24, 0x3d, 0xd0, 0x7e, 0x97, 0x3e,
  0x31, 0x5d, 0x9f, 0x3d, 0x61, 0x42, 0xde, 0x3c, 0x0a, 0x59, 0x0c, 0x0c, 0x63,
  0x5e, 0x57, 0xbe, 0xa4, 0x6b, 0x52, 0x3e, 0x2a, 0xec, 0x23, 0xbe, 0x1e, 0x90,
  0xa4, 0x0c, 0x22, 0x04, 0x24, 0x3d, 0x74, 0xbe, 0x50, 0x3e, 0xe3, 0x89, 0x1f,
  0xbd, 0x22, 0xf2, 0x93, 0xbe, 0x62, 0x0d, 0xb3, 0xbd, 0xa5, 0x8d, 0x9b, 0x8c,
  0x83, 0xb5, 0xe0, 0x8c, 0x0c, 0xdc, 0xe9, 0x8c, 0x3a, 0x3f, 0xdb, 0x8c, 0xe6,
  0x25, 0xde, 0x8c, 0x86, 0x74, 0xdf, 0x8c, 0x1a, 0x07, 0x55, 0x0c, 0xbb, 0x50,
  0x02, 0x8d, 0xd8, 0x35, 0xe0, 0x8c, 0xe4, 0xf4, 0xe6, 0x8c, 0xae, 0xd7, 0xde,
  0x0c, 0xd5, 0x92, 0xde, 0x8c, 0xec, 0x0d, 0xdf, 0x0c, 0x59, 0xbb, 0xe6, 0x8c,
  0x6d, 0x1b, 0x94, 0x8c, 0x6f, 0xa5, 0xe0, 0x8c, 0x0e, 0xa8, 0xe8, 0x8c, 0x90,
  0x7d, 0xcb, 0x8c, 0xe8, 0xf5, 0xdf, 0x8c, 0xc6, 0xce, 0xa0, 0x8c, 0x47, 0x1c,
  0xce, 0x0c, 0xda, 0x4d, 0xe2, 0x8c, 0xd0, 0x7e, 0x9c, 0x8b, 0x37, 0xf6, 0x21,
  0x8d, 0xca, 0x28, 0xd9, 0x8c, 0xd6, 0xfb, 0xb4, 0x0c, 0xb0, 0xa0, 0x1a, 0x8d,
  0xba, 0x2e, 0xdb, 0x8c, 0xde, 0xb9, 0xd4, 0x8c, 0xf9, 0xdd, 0xe0, 0x0c, 0xef,
  0x5c, 0xbd, 0x8c, 0x58, 0x82, 0xb7, 0x8c, 0x02, 0x27, 0xe1, 0x0c, 0x93, 0xd9,
  0xe5, 0x8c, 0xcd, 0x5d, 0xe3, 0x8c, 0x66, 0x61, 0xe0, 0x8c, 0x8a, 0x2f, 0xe5,
  0x8c, 0x0e, 0x35, 0xd7, 0x8c, 0xaa, 0x2e, 0x2b, 0x8d, 0x0d, 0xfe, 0xe3, 0x8c,
  0x58, 0x66, 0xe7, 0x0c, 0x3e, 0x80, 0xe4, 0x8c, 0xa6, 0x14, 0xde, 0x8c, 0x35,
  0x1a, 0xe4, 0x0c, 0xcc, 0x38, 0xe4, 0x8a, 0x50, 0xa5, 0xaa, 0x88, 0x54, 0x92,
  0x41, 0x0c, 0xbe, 0x83, 0xe7, 0x8c, 0x97, 0x24, 0xe4, 0x8c, 0xf3, 0x79, 0xea,
  0x8c, 0xfb, 0xbc, 0xd0, 0x8c, 0xf1, 0xb6, 0xe1, 0x8c, 0x24, 0xfc, 0x13, 0x8c,
  0xc4, 0x74, 0xd4, 0x8c, 0x8a, 0x5c, 0xe0, 0x8c, 0x16, 0x51, 0xe9, 0x8c, 0x74,
  0xe2, 0xe3, 0x8c, 0xa3, 0xf0, 0xe6, 0x0c, 0xd2, 0x08, 0x90, 0x0c, 0xda, 0xfe,
  0xe7, 0x0c, 0x73, 0x10, 0x43, 0x8c, 0x62, 0x6e, 0xb8, 0x8c, 0x09, 0x9e, 0xfe,
  0x8c, 0x26, 0x4a, 0x36, 0x0d, 0x02, 0x43, 0x1b, 0x3e, 0x08, 0xbe, 0x08, 0xbc,
  0x8c, 0xfd, 0x26, 0x3e, 0x05, 0x1b, 0x16, 0x3e, 0x12, 0x3c, 0x78, 0xbd, 0x98,
  0x86, 0x8a, 0xbe, 0x6c, 0x77, 0x01, 0xbe, 0x9c, 0xb8, 0x0f, 0xbe, 0x81, 0xf4,
  0x74, 0x3d, 0xf3, 0xe4, 0x17, 0xbe, 0x01, 0xba, 0x38, 0x3e, 0xa6, 0x99, 0xa0,
  0xbd, 0x11, 0x76, 0x35, 0xbe, 0x78, 0xa2, 0x04, 0x3e, 0x7e, 0x89, 0x1f, 0xbe,
  0x4e, 0xfb, 0xb9, 0xbd, 0x02, 0x12, 0xb3, 0x3c, 0x9a, 0x8b, 0xe3, 0x3d, 0x45,
  0x9b, 0xf4, 0x3d, 0xde, 0x92, 0xd3, 0xbd, 0x0c, 0x92, 0xe8, 0xbd, 0x65, 0xe2,
  0x93, 0x3d, 0x59, 0x45, 0xec, 0x0c, 0xf5, 0x77, 0x81, 0x3e, 0x02, 0xb9, 0x07,
  0x3e, 0xbb, 0x50, 0x04, 0x3e, 0x01, 0x65, 0xd8, 0x8c, 0xb5, 0x34, 0x03, 0x3e,
  0x94, 0xaf, 0x02, 0xbe, 0x80, 0x7e, 0xa9, 0xbb, 0x32, 0xf2, 0xf7, 0x3d, 0x76,
  0x4e, 0x64, 0x3e, 0xbf, 0x5d, 0xe5, 0xbd, 0x97, 0x2e, 0x30, 0x3e, 0xe4, 0x7d,
  0x46, 0xbd, 0xb6, 0x4e, 0xe9, 0x3c, 0x30, 0x83, 0xe3, 0xbd, 0x0b, 0x9e, 0x8e,
  0xbe, 0x50, 0xda, 0x7c, 0xbd, 0xc7, 0x4a, 0xc5, 0xbd, 0xcc, 0x43, 0x67, 0x3c,
  0x27, 0x96, 0x4d, 0xbe, 0x1e, 0x08, 0x35, 0x3e, 0x03, 0x6c, 0x5d, 0xbe, 0x15,
  0xf9, 0x02, 0xbd, 0x99, 0x29, 0x2e, 0x3e, 0xae, 0x7a, 0x49, 0xbe, 0xe4, 0xb9,
  0x6d, 0x3b, 0x9d, 0x0a, 0xfb, 0x3c, 0x61, 0x7a, 0xfb, 0xbc, 0x64, 0x8f, 0x15,
  0xbe, 0x29, 0x44, 0xd9, 0xbd, 0x38, 0x8b, 0xf0, 0xbc, 0x50, 0x14, 0x37, 0x3e,
  0xbd, 0xcd, 0xcc, 0x8c, 0xdc, 0xee, 0x62, 0x3c, 0xce, 0xfd, 0x80, 0x3d, 0xda,
  0x98, 0x11, 0x3d, 0xdd, 0x96, 0xdd, 0x8c, 0x75, 0x64, 0xfd, 0xbd, 0x59, 0xf0,
  0xf6, 0xbd, 0x6c, 0xba, 0x78, 0x3d, 0xfd, 0xfb, 0xe3, 0x3b, 0x75, 0xa3, 0x57,
  0xbd, 0x1c, 0x77, 0xec, 0xbc, 0x7b, 0x92, 0x14, 0xbb, 0x4b, 0x9a, 0xf0, 0x3d,
  0x2b, 0x63, 0x3a, 0x3e, 0x21, 0xcd, 0x10, 0x3e, 0x04, 0x0f, 0x13, 0x3e, 0x26,
  0x5a, 0xaf, 0x3d, 0x4b, 0xbd, 0x16, 0x3e, 0x98, 0x52, 0xd8, 0xbd, 0x82, 0x60,
  0xe7, 0x3d, 0x6c, 0xeb, 0xcb, 0x3d, 0x47, 0xb6, 0x00, 0x3e, 0x3d, 0xba, 0xf9,
  0x3d, 0x9f, 0xed, 0xb1, 0x3b, 0x5d, 0xaa, 0x08, 0x3e, 0xec, 0xe7, 0xa0, 0x3d,
  0x39, 0x37, 0x39, 0x3e, 0xc9, 0x02, 0x28, 0x3e, 0x4a, 0x60, 0xf6, 0xbc, 0x37,
  0xf9, 0xce, 0x3d, 0xbb, 0x46, 0xa3, 0x3d, 0xa4, 0x98, 0x06, 0x3e, 0xd5, 0x07,
  0xd7, 0x0c, 0xfd, 0x7d, 0xed, 0xbc, 0x77, 0x7a, 0x0b, 0x3e, 0x3d, 0x69, 0x28,
  0xbe, 0x2e, 0xba, 0xab, 0x0a, 0x31, 0x68, 0x08, 0x3c, 0xd9, 0x9a, 0xe4, 0x3d,
  0x47, 0xd2, 0xc6, 0x3d, 0x6e, 0x74, 0xcc, 0xbd, 0x4b, 0x48, 0x82, 0xbd, 0x9b,
  0x8b, 0x1a, 0xbd, 0x28, 0xe5, 0xb1, 0xbd, 0x57, 0xc7, 0xac, 0xbc, 0x93, 0x8e,
  0x3f, 0xbd, 0x2e, 0x15, 0x8f, 0x3c, 0x98, 0xb6, 0xa8, 0x3d, 0x2d, 0x85, 0xf2,
  0x3d, 0x15, 0xad, 0x19, 0x3e, 0x20, 0xbd, 0x24, 0x3d, 0x41, 0xe5, 0x29, 0x3e,
  0xd5, 0xbd, 0xc0, 0xbd, 0x52, 0xe8, 0x98, 0x3d, 0x26, 0x2e, 0x39, 0x3d, 0xf4,
  0xed, 0x9b, 0xbd, 0x4d, 0xb4, 0x13, 0x3e, 0x35, 0x32, 0xfa, 0xbc, 0xd8, 0x65,
  0x32, 0x3e, 0xe3, 0xaa, 0x30, 0x3c, 0x3b, 0xa6, 0x93, 0xbd, 0x41, 0xfb, 0xf3,
  0x3d, 0xfc, 0xd8, 0xdd, 0x3d, 0x77, 0x1d, 0x1a, 0x3e, 0x58, 0x29, 0xe2, 0x8c,
  0x3d, 0x47, 0x6b, 0xbe, 0x77, 0x7a, 0x8d, 0x3d, 0x4e, 0x0c, 0xa1, 0xbd, 0x70,
  0xf1, 0xe4, 0x8c, 0x3d, 0xf3, 0xe6, 0xbd, 0x22, 0x9c, 0xf2, 0x3d, 0x61, 0x7c,
  0xb5, 0x3d, 0xe0, 0x5f, 0xdd, 0xbd, 0xcb, 0x29, 0x1c, 0xbe, 0x93, 0xfb, 0x09,
  0x3e, 0x43, 0xde, 0xea, 0x3b, 0xac, 0x2f, 0xd2, 0x3b, 0x30, 0xe7, 0xb5, 0x3d,
  0x1d, 0x56, 0x1c, 0xbd, 0x1e, 0x83, 0x4f, 0xbe, 0xf6, 0x7c, 0x07, 0xbd, 0xf5,
  0x2f, 0x60, 0xbe, 0xd4, 0x7c, 0x8d, 0xbd, 0x7f, 0x7a, 0xc5, 0x3c, 0x11, 0x0a,
  0xd2, 0xbc, 0x4e, 0xf4, 0x04, 0x3e, 0x66, 0x83, 0xd3, 0xbd, 0xe9, 0x30, 0x0e,
  0xbe, 0x4a, 0xc2, 0x9c, 0xbd, 0x22, 0xf5, 0x0c, 0x3e, 0x3f, 0x7a, 0xbf, 0xbb,
  0x3e, 0xbd, 0x4e, 0x3c, 0xcd, 0xf9, 0x26, 0xbe, 0x4d, 0x3e, 0x06, 0xbe, 0x1c,
  0x28, 0x65, 0xbd, 0x5e, 0x36, 0x8c, 0xbd, 0x86, 0x6d, 0xe7, 0x0c, 0x85, 0xef,
  0x2c, 0xbc, 0x48, 0xab, 0x02, 0xbd, 0xc8, 0x54, 0x0f, 0x3d, 0x0d, 0xce, 0xc5,
  0x8c, 0x11, 0x86, 0x9a, 0x3d, 0xa8, 0xf5, 0x61, 0xbd, 0x00, 0x76, 0x55, 0xbe,
  0x6a, 0x40, 0x9b, 0xbc, 0x23, 0x98, 0xda, 0xbc, 0xf8, 0x4d, 0x17, 0xbd, 0x00,
  0x8f, 0x79, 0xbd, 0x59, 0x70, 0xe9, 0x3c, 0x5c, 0x75, 0x81, 0xbd, 0x45, 0x71,
  0xdc, 0xbc, 0xb8, 0xc7, 0xe5, 0x3d, 0x2c, 0x1c, 0x0d, 0xbd, 0x53, 0xf9, 0xeb,
  0x3c, 0xa5, 0xa1, 0x02, 0x3e, 0xc3, 0x12, 0x59, 0x3c, 0xf1, 0x9b, 0x00, 0x3d,
  0x85, 0x3f, 0xa3, 0xbd, 0x68, 0x43, 0xb6, 0xbd, 0x22, 0xa0, 0xaf, 0x3d, 0xa3,
  0xb5, 0x07, 0x3d, 0x16, 0xef, 0x06, 0xbd, 0x00, 0x62, 0xbe, 0x3c, 0xf3, 0xf0,
  0x68, 0xbd, 0x7a, 0x99, 0xcf, 0x3d, 0x54, 0x44, 0x13, 0xbd, 0xe9, 0xe1, 0x06,
  0xbd, 0x76, 0x1e, 0xff, 0xbd, 0xca, 0x0b, 0xec, 0x8c, 0x62, 0xd5, 0xed, 0xbc,
  0xdc, 0x30, 0x25, 0xbd, 0x83, 0x41, 0x07, 0x3e, 0x66, 0xfc, 0xc2, 0x8b, 0x72,
  0xe0, 0x6b, 0xbc, 0x79, 0x06, 0xc6, 0x3c, 0x00, 0xce, 0x6f, 0xbc, 0xd0, 0xff,
  0xd9, 0x3d, 0x40, 0x75, 0x01, 0x3e, 0x1e, 0x15, 0xbd, 0x8c, 0x1b, 0xa1, 0xd9,
  0x8c, 0xcd, 0x14, 0xd5, 0x8c, 0xa4, 0x28, 0xdd, 0x8c, 0x10, 0x77, 0xde, 0x8c,
  0xf0, 0xd1, 0xb5, 0x8c, 0x48, 0xdd, 0xc3, 0x8c, 0x69, 0x60, 0xe0, 0x8c, 0xad,
  0x67, 0xdf, 0x8c, 0x62, 0x15, 0xa7, 0x8c, 0xb0, 0x2a, 0xd7, 0x8c, 0xac, 0x6f,
  0xcd, 0x8c, 0x4a, 0xe4, 0xd9, 0x0c, 0x14, 0x48, 0xde, 0x8c, 0x84, 0x32, 0xbf,
  0x0c, 0xf4, 0xa6, 0xe1, 0x0c, 0xfe, 0x16, 0xd9, 0x8c, 0x53, 0x95, 0xab, 0x0a,
  0x7c, 0xa8, 0xde, 0x8c, 0xe2, 0x50, 0xc7, 0x0c, 0x24, 0x47, 0x8a, 0x8c, 0x7e,
  0x54, 0xd7, 0x8c, 0xe1, 0xbb, 0xda, 0x0c, 0xd6, 0x42, 0xd7, 0x8c, 0x81, 0xac,
  0xc9, 0x8c, 0x22, 0x4c, 0xe3, 0x0c, 0x65, 0xe4, 0xdb, 0x8c, 0xaa, 0x28, 0xd3,
  0x8c, 0xd2, 0xcf, 0xcd, 0x8c, 0xa2, 0xd8, 0xce, 0x8c, 0x08, 0x90, 0xe4, 0x0c,
  0xb2, 0x4c, 0xdc, 0x8c, 0x7b, 0x45, 0x9c, 0xbe, 0x7d, 0x16, 0xb3, 0xbe, 0x73,
  0xed, 0x8a, 0x3d, 0xfd, 0x60, 0x3b, 0xbe, 0x97, 0xe8, 0xdd, 0xbc, 0x1a, 0x80,
  0xce, 0x3b, 0x89, 0xd4, 0x1f, 0x3e, 0x8e, 0x2d, 0x22, 0x3e, 0xeb, 0x88, 0x3e,
  0x3e, 0x90, 0x2d, 0x80, 0x3d, 0xf2, 0x24, 0x90, 0xbd, 0xfb, 0x74, 0x91, 0x3d,
  0x55, 0xf7, 0x06, 0x3e, 0x5d, 0xc9, 0x69, 0xbe, 0x22, 0x91, 0x37, 0x3e, 0xdf,
  0x1b, 0x2e, 0x3e, 0x62, 0x74, 0xdd, 0x3d, 0x60, 0x97, 0x57, 0x3c, 0x60, 0xa1,
  0xd1, 0xbd, 0xc1, 0xf2, 0x1d, 0x3e, 0xde, 0xad, 0xdc, 0x3d, 0x4e, 0x8f, 0x77,
  0x3a, 0x64, 0x78, 0xb8, 0x0b, 0xed, 0xc9, 0x7f, 0xbc, 0x53, 0x73, 0x24, 0x3d,
  0xeb, 0x5d, 0x6f, 0xbd, 0xae, 0xd8, 0x96, 0x0c, 0xfe, 0x71, 0x22, 0xba, 0x33,
  0x59, 0x17, 0x3e, 0x68, 0x32, 0x68, 0x3c, 0x3c, 0xc9, 0x2c, 0xbe, 0xb4, 0xa7,
  0x88, 0x3c, 0x51, 0x40, 0x77, 0xbb, 0x93, 0xff, 0xb7, 0xbc, 0x21, 0xb1, 0xd4,
  0x3d, 0xd8, 0x98, 0x91, 0x3d, 0x12, 0x36, 0x86, 0x3d, 0xaa, 0xa3, 0x99, 0x3d,
  0x8b, 0x92, 0xaa, 0x3c, 0xa5, 0x28, 0x60, 0x3d, 0x4a, 0x2c, 0x3d, 0x3d, 0x57,
  0x57, 0x1f, 0x3d, 0x5d, 0x31, 0xf5, 0x3c, 0xce, 0x37, 0x2b, 0x3d, 0xd8, 0x5d,
  0x0e, 0x3d, 0x08, 0x72, 0x9f, 0x3c, 0xe9, 0x87, 0xa7, 0x3d, 0x31, 0xe3, 0x50,
  0x3d, 0x8c, 0xd8, 0xe8, 0x3d, 0xa2, 0x69, 0x8a, 0x3d, 0x0e, 0x55, 0xde, 0x3c,
  0x91, 0x85, 0x87, 0x3d, 0x19, 0xc3, 0x85, 0x3c, 0xa7, 0x1f, 0x5a, 0x3d, 0xd6,
  0x45, 0xc4, 0x0c, 0x6b, 0x86, 0xb4, 0x3c, 0x1b, 0x70, 0xe4, 0x3d, 0x5d, 0x73,
  0x2e, 0xbc, 0x97, 0x14, 0xe2, 0x8c, 0xba, 0xaf, 0x49, 0x3d, 0x41, 0xde, 0x8c,
  0x3d, 0x17, 0x2c, 0x12, 0x3d, 0xb4, 0x91, 0x55, 0xbc, 0x95, 0xfb, 0xd3, 0xbb,
  0x16, 0xed, 0xff, 0xff, 0x04, 0x00, 0x00, 0x00, 0x80, 0x12, 0x00, 0x00, 0xe9,
  0x71, 0x4a, 0x3d, 0x3d, 0xcd, 0xe9, 0x3c, 0x2c, 0x6d, 0x70, 0xbd, 0xb1, 0x9a,
  0x96, 0xbd, 0x20, 0x77, 0x86, 0x3d, 0xb5, 0x78, 0xde, 0xbb, 0x13, 0x8e, 0x39,
  0x3d, 0xe6, 0x0a, 0x95, 0x3c, 0xff, 0xfd, 0xbd, 0x3c, 0xfb, 0x48, 0x56, 0xbd,
  0x0b, 0x19, 0x8d, 0xbd, 0x83, 0xfa, 0x71, 0xbd, 0xde, 0x3a, 0x9c, 0xbd, 0x98,
  0xfd, 0x3d, 0xbd, 0xca, 0x80, 0xfc, 0xba, 0xab, 0xba, 0xe1, 0x3c, 0x10, 0x4e,
  0xbe, 0x3d, 0x8b, 0xff, 0xc3, 0x3d, 0x08, 0xae, 0x8a, 0x3e, 0xba, 0x3f, 0x78,
  0xbd, 0xb8, 0x66, 0x36, 0xbe, 0x81, 0xeb, 0x7d, 0x3c, 0xc0, 0xd5, 0xed, 0x3b,
  0x91, 0x89, 0x37, 0xbd, 0x73, 0xca, 0xf3, 0x3d, 0x15, 0xda, 0xe7, 0x3c, 0x24,
  0x62, 0x33, 0x3e, 0xcf, 0x88, 0xe8, 0xbd, 0x27, 0xca, 0x0c, 0xbe, 0x5d, 0x2f,
  0xb1, 0x3c, 0x2f, 0x3e, 0x98, 0x3c, 0x3a, 0xf5, 0x06, 0xbe, 0x1c, 0x62, 0x1b,
  0x3d, 0x6f, 0x7b, 0x29, 0xbd, 0xe9, 0x50, 0x80, 0x3e, 0xff, 0xa6, 0x0d, 0xbe,
  0xba, 0x59, 0xee, 0xbd, 0xdc, 0xdf, 0xc2, 0x3d, 0xc6, 0xac, 0x65, 0x3d, 0xbd,
  0xaa, 0x0d, 0xbe, 0x9f, 0x5a, 0xf6, 0xbd, 0x16, 0x4f, 0x67, 0x3d, 0x44, 0xbb,
  0x47, 0x3c, 0x04, 0xc9, 0x92, 0x3d, 0xd2, 0x87, 0x43, 0xbd, 0x1d, 0x29, 0x04,
  0xbd, 0xe4, 0xf0, 0xd8, 0xbc, 0x7d, 0xc6, 0x74, 0xbd, 0x68, 0xa0, 0xa8, 0xbc,
  0x7a, 0xe2, 0xf0, 0xbc, 0xc4, 0xc0, 0x1c, 0xbd, 0xbc, 0xf9, 0x2b, 0xbc, 0x79,
  0x89, 0x64, 0x3c, 0x8b, 0xa0, 0xdf, 0x3d, 0x51, 0xb9, 0xa0, 0xbd, 0xe6, 0xdd,
  0x92, 0xbd, 0xe9, 0xe5, 0x02, 0x3e, 0xdf, 0xf9, 0x49, 0x3e, 0x80, 0xe9, 0xbd,
  0xbd, 0x30, 0x99, 0x01, 0xbd, 0x2d, 0x5d, 0x11, 0x3c, 0x17, 0xf5, 0x80, 0x3d,
  0xfc, 0x55, 0xb9, 0xbd, 0xae, 0x96, 0xee, 0xbd, 0xcc, 0x77, 0x03, 0x3d, 0x54,
  0x9c, 0xab, 0x3d, 0xce, 0x57, 0xad, 0xbd, 0x34, 0x3d, 0x10, 0xbd, 0xb8, 0x54,
  0xe1, 0x3c, 0x76, 0x05, 0xda, 0x3d, 0xd7, 0x1d, 0x37, 0xbd, 0xfb, 0xec, 0xba,
  0xbd, 0x12, 0x81, 0x0e, 0x3d, 0x2c, 0x34, 0x00, 0x3e, 0xb2, 0x31, 0x6d, 0x3d,
  0x4f, 0xdc, 0xfb, 0x3b, 0x9d, 0x48, 0xb4, 0x3c, 0x11, 0x35, 0xc5, 0x3c, 0x7f,
  0x7d, 0x02, 0x3c, 0x68, 0xcb, 0x47, 0x3c, 0x5c, 0x16, 0x8e, 0x3c, 0x03, 0x2d,
  0x12, 0x3d, 0x7d, 0xbb, 0x11, 0x3d, 0xdb, 0x18, 0xfe, 0x3c, 0x07, 0xce, 0x03,
  0x3d, 0xbf, 0x88, 0xee, 0x3c, 0xa4, 0x0f, 0xe5, 0x3c, 0x1c, 0xb4, 0x19, 0x3d,
  0xae, 0x30, 0x25, 0x3d, 0x7b, 0x99, 0x2b, 0x3d, 0x55, 0x15, 0x3c, 0x3d, 0x88,
  0x7c, 0x10, 0x3d, 0x88, 0xff, 0x1d, 0x3d, 0xb4, 0xdf, 0x18, 0x3d, 0x60, 0x87,
  0x1a, 0x3d, 0xff, 0x84, 0x16, 0x3d, 0x1a, 0x16, 0x1c, 0x3d, 0xb6, 0xad, 0x0a,
  0x3d, 0xc9, 0x76, 0x15, 0x3d, 0xe7, 0x40, 0x02, 0x3d, 0x26, 0x43, 0x06, 0x3d,
  0xd1, 0x3b, 0x14, 0x3d, 0xfd, 0xc1, 0x10, 0x3d, 0x66, 0xf1, 0x02, 0x3d, 0x87,
  0x77, 0x07, 0x3d, 0xc7, 0xbd, 0x08, 0x3d, 0x1d, 0xcb, 0x0a, 0x3d, 0x16, 0xf3,
  0xb7, 0x3c, 0x85, 0xed, 0xbc, 0x3c, 0xd1, 0x92, 0x0a, 0x3d, 0x58, 0xf1, 0xef,
  0x3c, 0xcd, 0xf1, 0x0b, 0xbd, 0xee, 0xc8, 0x13, 0x3c, 0xaa, 0x85, 0x5b, 0x3d,
  0x95, 0x75, 0x11, 0x3d, 0x09, 0xdd, 0x30, 0x3c, 0xc9, 0xf3, 0xd8, 0xbc, 0x4d,
  0xda, 0x5e, 0x3c, 0x3a, 0xf4, 0x93, 0x3c, 0x4a, 0x45, 0xbc, 0x3c, 0xde, 0x6e,
  0xb0, 0xbd, 0x4d, 0x44, 0x39, 0xbd, 0x6b, 0x83, 0xe3, 0xbb, 0x1c, 0x37, 0x28,
  0xbc, 0xf8, 0x1c, 0xa5, 0x3d, 0x8e, 0x91, 0x99, 0x3d, 0x73, 0xe4, 0xad, 0x3d,
  0x12, 0x24, 0xee, 0x3d, 0xdd, 0x86, 0xc9, 0x3d, 0xee, 0x40, 0x0b, 0x3e, 0x69,
  0x7d, 0xd7, 0x3d, 0xae, 0x44, 0xcd, 0x3d, 0xc5, 0x50, 0x56, 0xbd, 0x3d, 0x13,
  0x42, 0xbc, 0x08, 0x12, 0x74, 0xbd, 0x88, 0x13, 0x36, 0xbc, 0x47, 0x66, 0xc2,
  0x3b, 0x49, 0xd6, 0x6b, 0x3d, 0x9c, 0x2b, 0x80, 0xbc, 0xa6, 0x18, 0xc7, 0x3c,
  0xab, 0xe5, 0xb7, 0xbb, 0x00, 0x34, 0x58, 0xbc, 0x8f, 0x57, 0x13, 0x3d, 0x5c,
  0x06, 0x9f, 0x3d, 0x35, 0x0f, 0xe3, 0xbb, 0x62, 0xfc, 0x31, 0x3d, 0x3b, 0x0c,
  0x17, 0x3d, 0xfc, 0x2b, 0x4a, 0x3d, 0x38, 0xcd, 0xb2, 0xbb, 0xbd, 0xb2, 0x1a,
  0xbc, 0x0f, 0x7f, 0xac, 0x3c, 0x70, 0x07, 0x30, 0xbc, 0x69, 0x5e, 0xc4, 0xbb,
  0xde, 0x49, 0x9e, 0xbd, 0x90, 0x01, 0x34, 0xba, 0xd0, 0xe3, 0x36, 0x3d, 0x33,
  0xf1, 0x8f, 0x3d, 0x66, 0x76, 0x5f, 0x3d, 0xb4, 0x75, 0x5f, 0x3d, 0x6b, 0x83,
  0xa0, 0x3d, 0xfd, 0x19, 0x92, 0x3d, 0x33, 0x3a, 0x34, 0xbc, 0xec, 0xc4, 0x15,
  0x3d, 0x4a, 0xf6, 0x63, 0x3b, 0xaa, 0xf4, 0x7f, 0x3d, 0xfe, 0xdb, 0x98, 0xbc,
  0xfe, 0x61, 0x2d, 0x3d, 0x30, 0x46, 0x3c, 0x3c, 0x00, 0xc0, 0x29, 0x3d, 0x4b,
  0x9f, 0x54, 0xbd, 0x77, 0x9e, 0x92, 0x3b, 0x68, 0x3d, 0x3b, 0x3c, 0xa9, 0xdc,
  0x9f, 0x3d, 0x3f, 0xd4, 0x14, 0xbd, 0x0b, 0x97, 0xcb, 0x3c, 0x91, 0x9b, 0x39,
  0xbd, 0xaf, 0xe4, 0x4c, 0xbc, 0x09, 0xd6, 0x44, 0x3c, 0xa4, 0x5c, 0x06, 0x3d,
  0x82, 0xb5, 0x32, 0x3d, 0x1d, 0x1f, 0xac, 0x3d, 0x5d, 0xcd, 0xc5, 0x3c, 0x86,
  0xcd, 0x91, 0x3d, 0x4e, 0x0f, 0xfb, 0x3c, 0x68, 0xa9, 0x65, 0x3d, 0x97, 0x35,
  0x5d, 0x3e, 0xb3, 0xae, 0x39, 0xbb, 0x82, 0x4d, 0xbc, 0x3c, 0x18, 0x63, 0x65,
  0x3d, 0xc9, 0x0b, 0x57, 0xbd, 0x68, 0xc8, 0xd8, 0x3c, 0x95, 0x07, 0x48, 0xbc,
  0x0d, 0xcd, 0xa6, 0xbb, 0xe3, 0xe1, 0xe9, 0x3c, 0x9b, 0x92, 0x3c, 0xbc, 0x7f,
  0x4f, 0xa8, 0xbc, 0x67, 0x15, 0x6d, 0x3e, 0xd0, 0x27, 0x0c, 0x3e, 0xf8, 0xb5,
  0xc3, 0xbd, 0x8a, 0xe2, 0xbf, 0xbd, 0xa7, 0x45, 0x20, 0xbd, 0x53, 0x31, 0x34,
  0xbe, 0x26, 0x76, 0x00, 0xbc, 0xb3, 0xf8, 0x20, 0xbe, 0xba, 0x53, 0x42, 0xbd,
  0x8e, 0x42, 0x13, 0xbe, 0x1a, 0x9b, 0x29, 0xbd, 0x6f, 0x8d, 0xc9, 0xbd, 0x08,
  0xf2, 0x3d, 0xbc, 0xb5, 0x49, 0x03, 0xbe, 0x19, 0x42, 0x0e, 0xbd, 0x73, 0x0f,
  0x0d, 0xbe, 0x05, 0xda, 0x1b, 0xbd, 0xbb, 0x60, 0x09, 0xbe, 0xef, 0x21, 0x1a,
  0x3e, 0x7c, 0x31, 0xe0, 0x3c, 0xb3, 0x61, 0xb8, 0x3d, 0x28, 0x68, 0xac, 0x3b,
  0x86, 0x97, 0x14, 0x3e, 0xf6, 0x7c, 0x17, 0x3d, 0x08, 0x1d, 0x6e, 0x3e, 0x73,
  0x04, 0x49, 0x3d, 0x3a, 0xf7, 0xee, 0x3d, 0x60, 0xec, 0xb8, 0x3a, 0x98, 0xd4,
  0x78, 0x3d, 0x29, 0x95, 0x87, 0x3d, 0x72, 0x8f, 0x44, 0x3b, 0xca, 0x9e, 0x26,
  0x3d, 0x42, 0x68, 0x8a, 0x3c, 0xf9, 0x0c, 0xd9, 0xbc, 0x86, 0x23, 0xf7, 0xbc,
  0x3f, 0xc7, 0x58, 0x3c, 0x45, 0x67, 0xa7, 0x3c, 0x8a, 0x38, 0xb5, 0x3b, 0xef,
  0x0d, 0x32, 0x3c, 0xbb, 0x47, 0x70, 0xbd, 0x26, 0x98, 0x62, 0xbd, 0xca, 0xa4,
  0x66, 0xbd, 0xc1, 0xaf, 0xcc, 0xbc, 0x37, 0xad, 0xc9, 0xbc, 0x60, 0x12, 0x98,
  0xbc, 0x3d, 0xd0, 0x52, 0xbd, 0xd1, 0xa4, 0x3b, 0xbd, 0x93, 0x29, 0x04, 0xbc,
  0x45, 0x40, 0xe5, 0xbb, 0x17, 0xb0, 0xbd, 0xbd, 0xee, 0xab, 0xad, 0xbc, 0x49,
  0xed, 0x2f, 0x3c, 0xdb, 0x97, 0x87, 0x3c, 0x97, 0x1e, 0xa1, 0x3c, 0x30, 0xb2,
  0x1c, 0x3d, 0x5c, 0x76, 0xa2, 0xbc, 0x9a, 0xd4, 0xbf, 0x3c, 0x99, 0x8c, 0x05,
  0xbe, 0xd0, 0xb2, 0x72, 0xbd, 0x9a, 0x63, 0x3f, 0x3c, 0x40, 0x66, 0x92, 0x3c,
  0xbc, 0xca, 0x15, 0xbd, 0x0d, 0x45, 0x24, 0xbd, 0xb9, 0x1f, 0x90, 0x3e, 0xeb,
  0x25, 0x19, 0xbd, 0x28, 0x26, 0xd3, 0x3c, 0xec, 0x0c, 0xf9, 0xbb, 0x52, 0x9a,
  0x8e, 0xbc, 0x85, 0x59, 0x2a, 0xbc, 0x38, 0x9f, 0x29, 0x3c, 0x1b, 0x69, 0x51,
  0x3d, 0xf4, 0xe5, 0x91, 0x3c, 0x60, 0x72, 0x87, 0xbb, 0x3e, 0x55, 0xb3, 0x3c,
  0x83, 0xaf, 0xc8, 0x3d, 0xf4, 0x35, 0x7d, 0xbb, 0x5e, 0xe4, 0x7b, 0xba, 0x53,
  0xd7, 0xb6, 0xbd, 0x32, 0xbe, 0x56, 0x3d, 0xb9, 0x43, 0x26, 0xbd, 0x02, 0x81,
  0xeb, 0xbd, 0x89, 0x18, 0x01, 0xbe, 0xe0, 0x8e, 0xda, 0x3c, 0x28, 0xc2, 0x11,
  0xbd, 0xb8, 0x14, 0xe9, 0x3d, 0xc9, 0xf8, 0x0d, 0xbc, 0x9a, 0x40, 0x89, 0x3d,
  0xc2, 0x59, 0x05, 0xbd, 0xb1, 0xdc, 0x3f, 0xbd, 0x67, 0x84, 0x9a, 0xbd, 0xfe,
  0x14, 0x4b, 0x3d, 0x96, 0xc3, 0x9f, 0x3b, 0xb8, 0x0e, 0x85, 0x3d, 0x6c, 0xfe,
  0xbc, 0xbc, 0x48, 0x6a, 0xae, 0x3c, 0x7b, 0x06, 0x96, 0xbd, 0xe4, 0x49, 0x1d,
  0xbe, 0x24, 0x73, 0x2d, 0xbe, 0xc7, 0x86, 0x19, 0x3d, 0x4f, 0x86, 0xdb, 0x39,
  0x0b, 0x25, 0xc7, 0x3d, 0x4b, 0xc3, 0x28, 0xbd, 0x41, 0x63, 0x93, 0xbd, 0x71,
  0xaa, 0xfe, 0xbd, 0xdc, 0x92, 0x86, 0x3c, 0x95, 0xfe, 0xc3, 0x3c, 0x4a, 0x56,
  0x4d, 0xbd, 0xbb, 0x2c, 0x1b, 0x3e, 0x99, 0x6e, 0x0a, 0x3e, 0xb4, 0x9f, 0x88,
  0x3e, 0x23, 0x45, 0x20, 0x3e, 0x34, 0x1f, 0x84, 0x3d, 0xb3, 0x8c, 0x06, 0x3e,
  0xb7, 0x7c, 0x0c, 0xbe, 0x74, 0x2b, 0x28, 0xbd, 0xe6, 0x59, 0xcd, 0xbd, 0x4d,
  0xe3, 0x88, 0xbd, 0x45, 0xb7, 0x1e, 0xbd, 0xbe, 0x3b, 0xc3, 0xbd, 0x28, 0x83,
  0xcf, 0xbc, 0x49, 0x81, 0x1d, 0x3d, 0x88, 0x6f, 0x01, 0xbc, 0x72, 0x0a, 0x4a,
  0x3d, 0x01, 0x49, 0x5e, 0x3d, 0x63, 0x86, 0x72, 0xbc, 0x47, 0xb3, 0x05, 0x3e,
  0x71, 0x64, 0xdd, 0x3d, 0xa2, 0x3b, 0x1c, 0x3e, 0xa6, 0x87, 0xe4, 0x3d, 0x91,
  0x7c, 0x18, 0xbe, 0x9d, 0x82, 0x05, 0xbd, 0xae, 0x01, 0x36, 0xbe, 0x8a, 0x7c,
  0xf2, 0xbd, 0x44, 0x45, 0x3d, 0xbd, 0x5b, 0xb5, 0xa6, 0x3c, 0xd0, 0xea, 0x27,
  0xbd, 0x68, 0x90, 0x3d, 0x3d, 0xc6, 0x9d, 0xd7, 0x3d, 0x0e, 0xf5, 0x88, 0x3c,
  0x5d, 0x18, 0xb4, 0x3a, 0x74, 0xf9, 0x64, 0x3e, 0x6f, 0x7b, 0xb0, 0xbc, 0x37,
  0x22, 0xe8, 0xbd, 0x00, 0x9e, 0xb4, 0x3d, 0xc9, 0x5c, 0x20, 0x3c, 0xab, 0xc3,
  0x06, 0x3d, 0xe3, 0xbb, 0x6f, 0x3c, 0x9f, 0x28, 0x23, 0x3d, 0x09, 0xf3, 0xbd,
  0x3d, 0x5b, 0xe0, 0xc6, 0x3d, 0x64, 0xde, 0x57, 0x3c, 0x7e, 0x33, 0x0f, 0xbd,
  0xc7, 0x80, 0x6f, 0x3b, 0xe7, 0x16, 0x20, 0xbd, 0xed, 0x77, 0x3a, 0xbd, 0x77,
  0x53, 0xb6, 0xbd, 0xee, 0x59, 0x65, 0xbd, 0x18, 0xcb, 0xfa, 0xbd, 0x9b, 0x76,
  0xf3, 0xbb, 0xf5, 0x49, 0x8d, 0xbc, 0xb6, 0xd0, 0x0f, 0x3d, 0x41, 0xb1, 0xd3,
  0x3c, 0x0d, 0xad, 0x9f, 0xbd, 0xd4, 0x09, 0x88, 0xbd, 0xd0, 0xa1, 0x6a, 0xbd,
  0x3a, 0xa0, 0xd3, 0xbd, 0x9a, 0x02, 0xfb, 0x3d, 0x0d, 0x1f, 0x47, 0x3d, 0x27,
  0x3a, 0xd0, 0x3d, 0x2d, 0xcb, 0x21, 0x3d, 0xeb, 0x05, 0x99, 0xbc, 0x08, 0xd2,
  0x3d, 0xbd, 0x7f, 0xa8, 0x37, 0x3d, 0xbb, 0x1b, 0x90, 0xbd, 0x75, 0xc4, 0xd5,
  0x3a, 0x67, 0x04, 0x8a, 0x3d, 0x93, 0x69, 0xd8, 0x3c, 0xb1, 0xe2, 0x5c, 0x3d,
  0x36, 0x57, 0x6b, 0x3d, 0x73, 0x6a, 0xe7, 0x3c, 0xda, 0xd0, 0x22, 0x3d, 0x93,
  0x83, 0x42, 0xbd, 0x4f, 0x38, 0x8c, 0xbd, 0xe0, 0x53, 0x5c, 0xbb, 0x33, 0xad,
  0xc3, 0xba, 0xb3, 0xed, 0x08, 0xbd, 0x2a, 0xee, 0x4b, 0xbb, 0x5f, 0x53, 0x60,
  0xbd, 0xd6, 0x2c, 0x05, 0xbd, 0xc3, 0x27, 0x77, 0xbd, 0xcd, 0xfd, 0xab, 0xbd,
  0xee, 0xfe, 0x50, 0xbd, 0xa5, 0xc7, 0x78, 0xbd, 0x8d, 0xa8, 0x3c, 0x3d, 0xc4,
  0x3e, 0xbd, 0x3d, 0x9a, 0x46, 0x6e, 0x3d, 0xb3, 0xc9, 0x94, 0x3d, 0xcf, 0x5b,
  0xe9, 0x3d, 0xe7, 0x9f, 0x8d, 0x3d, 0xa6, 0x1e, 0x89, 0x3d, 0xc6, 0x47, 0x49,
  0x3d, 0x36, 0x1e, 0x58, 0x3d, 0xb8, 0xe7, 0x34, 0x3e, 0x9e, 0x9d, 0x98, 0x3d,
  0xe9, 0xe8, 0xb2, 0x3d, 0x75, 0xf4, 0x81, 0x3d, 0xa2, 0xc5, 0x7b, 0x3d, 0x7f,
  0x04, 0xdb, 0x3c, 0x82, 0xf9, 0x5a, 0x3d, 0x11, 0xa8, 0xdc, 0x3c, 0x9f, 0x0d,
  0x25, 0x3e, 0x7b, 0x8f, 0xc4, 0x3d, 0x6f, 0x3f, 0x04, 0x3c, 0xa7, 0xfd, 0x31,
  0xbd, 0xfe, 0x88, 0x24, 0xba, 0xf6, 0x72, 0x4f, 0xbc, 0x4f, 0xe2, 0xf9, 0xbd,
  0x38, 0x6a, 0xe0, 0x3c, 0x88, 0x3d, 0xec, 0x3b, 0xd1, 0xd2, 0x25, 0x3d, 0x14,
  0x93, 0xcc, 0x3c, 0x5f, 0x09, 0x1f, 0x3d, 0xf7, 0x43, 0xa2, 0x3c, 0x36, 0xca,
  0xf2, 0x3c, 0x3a, 0x70, 0xcb, 0x3d, 0x6a, 0xcf, 0xae, 0x3d, 0x7d, 0x5c, 0x76,
  0x3d, 0x05, 0x38, 0x80, 0x3d, 0x71, 0x60, 0xe0, 0x3c, 0x61, 0xf5, 0xf4, 0x3b,
  0x0a, 0x41, 0xc0, 0xbd, 0x08, 0xce, 0xb1, 0xbd, 0x39, 0x99, 0x79, 0x3c, 0xca,
  0x05, 0xeb, 0x3c, 0x34, 0x9c, 0x41, 0xbc, 0xb8, 0x18, 0xba, 0xbb, 0x6d, 0xda,
  0x9a, 0x3b, 0xd0, 0xd6, 0xba, 0x3b, 0x3e, 0x63, 0x08, 0xbe, 0x3f, 0xff, 0x0f,
  0xbe, 0x5c, 0x74, 0xa2, 0x3c, 0xbf, 0xd2, 0x50, 0x3d, 0x62, 0x61, 0xbc, 0x3b,
  0xfa, 0x81, 0xa4, 0xbc, 0x1b, 0xbe, 0x9c, 0x3d, 0x49, 0x4e, 0x65, 0x3d, 0x64,
  0xc1, 0x14, 0xbe, 0x17, 0x41, 0x22, 0xbe, 0xdf, 0x54, 0xdf, 0x3c, 0xb5, 0x7f,
  0xbf, 0x3b, 0x23, 0x35, 0x18, 0x3d, 0xbe, 0x77, 0xe7, 0xbe, 0x44, 0x6a, 0x4c,
  0x3b, 0x72, 0x67, 0x02, 0x3e, 0x67, 0xca, 0x5e, 0xbd, 0xfb, 0x20, 0x56, 0xbc,
  0xf8, 0xc8, 0xee, 0x3c, 0x0e, 0x66, 0xd9, 0xbc, 0xa1, 0x23, 0xfe, 0x3c, 0x45,
  0x3e, 0xec, 0xbb, 0xe4, 0xdf, 0x64, 0x3c, 0xb7, 0x92, 0x89, 0x3b, 0xc5, 0x26,
  0xa0, 0x3b, 0x70, 0x40, 0x95, 0xbc, 0x4d, 0x50, 0x26, 0x3d, 0x25, 0x5a, 0x3e,
  0xbc, 0x22, 0xcd, 0x8f, 0x3c, 0x0c, 0xda, 0xe0, 0xbc, 0x5f, 0x10, 0x95, 0x3c,
  0xf0, 0x5e, 0xb0, 0xbc, 0x44, 0xcb, 0x57, 0x3c, 0xa7, 0x2d, 0x05, 0xbd, 0xef,
  0xb4, 0x68, 0x3c, 0xe8, 0xda, 0xac, 0xbc, 0x89, 0x53, 0x5c, 0x3c, 0xd8, 0xa4,
  0x1b, 0xbd, 0xce, 0xd2, 0x57, 0x3d, 0x24, 0xb0, 0xca, 0x3b, 0x35, 0x8a, 0xc7,
  0x3b, 0xfa, 0x93, 0x1d, 0x3c, 0x90, 0x54, 0x88, 0xbb, 0x6d, 0xa2, 0xde, 0xbc,
  0xf4, 0x8f, 0x7f, 0x3c, 0x8d, 0x94, 0xaf, 0xbc, 0x29, 0x66, 0xac, 0xbb, 0x65,
  0xa2, 0xef, 0x3b, 0xdf, 0x98, 0x5f, 0x3b, 0xd8, 0x5c, 0xa0, 0xbd, 0xcc, 0x99,
  0x01, 0x3c, 0x6a, 0xb6, 0x61, 0x3d, 0x16, 0xca, 0x21, 0xbc, 0xa8, 0x6f, 0x99,
  0x3d, 0xb5, 0x60, 0x80, 0x3d, 0xd4, 0xfb, 0xad, 0x3b, 0x5b, 0x1f, 0x07, 0xbd,
  0xb2, 0x32, 0x83, 0xbd, 0x3c, 0xea, 0x71, 0x3c, 0x88, 0xa7, 0xaf, 0x3c, 0x25,
  0x20, 0xe4, 0x3d, 0x4e, 0x94, 0x97, 0x3e, 0xf4, 0x93, 0xd8, 0xbd, 0xb6, 0x0a,
  0x54, 0xbe, 0x84, 0x3b, 0x43, 0xbd, 0x91, 0x1a, 0xd7, 0xbc, 0xb8, 0x85, 0xbf,
  0xbc, 0x21, 0x6a, 0x33, 0xbc, 0xa2, 0x83, 0x6e, 0x3d, 0x01, 0xa9, 0x68, 0x3e,
  0xb0, 0x0a, 0xa4, 0xbd, 0xe6, 0xe4, 0x62, 0xbe, 0x1c, 0x60, 0xbb, 0x3d, 0x68,
  0xfd, 0xf5, 0x3b, 0xe4, 0x39, 0x63, 0x3d, 0x5c, 0x0b, 0x85, 0x3d, 0x91, 0x0d,
  0x86, 0x3d, 0x98, 0xab, 0x34, 0x3e, 0x29, 0x0d, 0xe2, 0xbd, 0x84, 0xca, 0x44,
  0xbe, 0x41, 0xec, 0xdc, 0xba, 0xe6, 0x04, 0xa7, 0xbc, 0x4d, 0xbe, 0xda, 0xbd,
  0x2b, 0xc9, 0xdb, 0xbc, 0x3f, 0x91, 0xc5, 0x3e, 0xc6, 0x96, 0x6d, 0xba, 0xdb,
  0x43, 0x96, 0x3b, 0xef, 0x13, 0xdf, 0xbc, 0x29, 0xa0, 0x22, 0xbd, 0x58, 0xe6,
  0x19, 0x3d, 0x4e, 0x76, 0xf3, 0x3c, 0xd2, 0x08, 0x2c, 0xbe, 0xfd, 0x6e, 0x4e,
  0xbe, 0x68, 0x6d, 0x1e, 0x3c, 0x63, 0x46, 0xc0, 0xbc, 0x8c, 0x7c, 0x55, 0x3d,
  0x74, 0xe1, 0xae, 0xbc, 0x1d, 0x8e, 0x96, 0x3b, 0xed, 0x2b, 0x59, 0xbd, 0xe9,
  0xf8, 0x13, 0xbd, 0x74, 0x80, 0xb5, 0xbd, 0x4c, 0x44, 0x26, 0xbd, 0x23, 0xc6,
  0x9f, 0xbd, 0x0d, 0x3e, 0xa4, 0xbd, 0x05, 0x98, 0xac, 0xbd, 0x83, 0x1c, 0xc3,
  0x3d, 0x3f, 0x21, 0x03, 0x3c, 0x71, 0x7e, 0x98, 0x3d, 0x5e, 0x7b, 0x63, 0x3c,
  0x26, 0x57, 0xae, 0x3d, 0x35, 0x1f, 0x00, 0x3c, 0xb4, 0xed, 0xad, 0x3c, 0xc0,
  0x06, 0x03, 0xbd, 0xeb, 0xa4, 0x5e, 0x3d, 0x2c, 0x83, 0x65, 0x3d, 0xd2, 0x7a,
  0x24, 0x3d, 0x03, 0x46, 0xdb, 0xbc, 0xbc, 0xe8, 0x19, 0x3d, 0x0e, 0x71, 0x2a,
  0xbd, 0x06, 0x2c, 0xcb, 0xbc, 0x59, 0xb2, 0x4e, 0xbd, 0x3e, 0xb2, 0x7e, 0x3d,
  0x67, 0x26, 0x4e, 0x3c, 0x02, 0x03, 0x1b, 0x3e, 0x5b, 0x55, 0x65, 0x3d, 0xea,
  0x70, 0xb5, 0xbc, 0xd9, 0x3b, 0x75, 0x3e, 0xb7, 0x0c, 0x38, 0xbd, 0x11, 0x9c,
  0xa5, 0xbb, 0x9f, 0xdb, 0x17, 0xbd, 0x52, 0xba, 0x40, 0xbd, 0xe6, 0x42, 0xf4,
  0x3c, 0x16, 0x6e, 0x30, 0xbc, 0x96, 0x03, 0x33, 0xbc, 0xb0, 0x3e, 0x17, 0x3e,
  0xea, 0xab, 0x32, 0x3c, 0x7b, 0x2a, 0xf0, 0x3c, 0xb2, 0x5c, 0x8b, 0xbc, 0x63,
  0x6e, 0x5c, 0x3d, 0xb1, 0xbc, 0xf5, 0x3c, 0xd9, 0xaa, 0x33, 0xbd, 0x0f, 0x2f,
  0xf8, 0xbd, 0x4e, 0xa5, 0x69, 0x3c, 0xff, 0xb8, 0xe2, 0xba, 0x84, 0x7f, 0xff,
  0xbb, 0xcd, 0xae, 0x38, 0xbd, 0xc7, 0x24, 0x84, 0x3d, 0x9b, 0x89, 0x9a, 0x3a,
  0xb7, 0xfb, 0xcf, 0xbb, 0x70, 0x7f, 0xe7, 0xbd, 0x53, 0x5a, 0x8c, 0x3d, 0x33,
  0x2d, 0x82, 0xbc, 0xc8, 0x50, 0xca, 0x3c, 0x52, 0x4a, 0x0a, 0xbd, 0x8b, 0x66,
  0x9e, 0x3d, 0xe8, 0xa4, 0x49, 0x3d, 0x81, 0x55, 0x29, 0x3c, 0x00, 0x55, 0x15,
  0xbe, 0x7c, 0x71, 0x34, 0x3e, 0x93, 0x4a, 0x94, 0x3d, 0xef, 0xe6, 0x72, 0x3d,
  0x1b, 0x9c, 0xa3, 0x3d, 0xe9, 0x6f, 0x22, 0x3d, 0x91, 0x46, 0x80, 0x3e, 0x9b,
  0xb0, 0x30, 0x3f, 0xc8, 0x2f, 0xfe, 0x3c, 0xac, 0xc6, 0xde, 0x3c, 0x9e, 0xb5,
  0x17, 0x3d, 0xe7, 0x7b, 0x7d, 0x3d, 0x2a, 0x9a, 0x93, 0x3d, 0x94, 0x8d, 0x52,
  0x3d, 0xd1, 0x34, 0xec, 0xbc, 0xf9, 0x72, 0x65, 0xbc, 0xe0, 0xc1, 0x20, 0x3c,
  0xda, 0xf6, 0x11, 0x3b, 0xae, 0x46, 0x9d, 0xbc, 0xd8, 0x3c, 0x8d, 0xba, 0x9f,
  0x36, 0x46, 0xbd, 0x60, 0x1f, 0x05, 0xbd, 0x34, 0xb5, 0xe5, 0xbc, 0x0f, 0xa0,
  0xf6, 0x3b, 0x47, 0x4b, 0xce, 0xbc, 0x9d, 0x23, 0x2f, 0xbd, 0xfa, 0x5d, 0xd6,
  0xbb, 0x02, 0x27, 0xdc, 0x3c, 0x85, 0x05, 0xda, 0xbc, 0x57, 0x54, 0x81, 0xbc,
  0x0c, 0x0d, 0x3b, 0x3c, 0x23, 0x0f, 0x73, 0x3c, 0xc4, 0xc0, 0xe5, 0x3c, 0xb9,
  0xc8, 0x02, 0xbd, 0x37, 0xf6, 0xd2, 0xbb, 0xee, 0x8a, 0xf0, 0xbc, 0x84, 0x8c,
  0x80, 0x3d, 0xb9, 0x91, 0x2a, 0x3c, 0xb4, 0xe5, 0x73, 0x3d, 0xb4, 0xbd, 0x13,
  0x3c, 0x00, 0xd8, 0x89, 0xba, 0xf6, 0x12, 0x1d, 0xbd, 0xc0, 0xb1, 0x2d, 0x3c,
  0xd6, 0xbb, 0xc9, 0xbc, 0x03, 0xb5, 0xa0, 0x3c, 0x28, 0x47, 0x18, 0x3d, 0x05,
  0x59, 0x71, 0x3d, 0x5b, 0xfc, 0x60, 0x3d, 0x73, 0xc7, 0x51, 0x3d, 0xb9, 0xff,
  0xad, 0x3c, 0x69, 0x12, 0x9d, 0x3c, 0x11, 0xed, 0x54, 0x3c, 0x12, 0xa8, 0x14,
  0x3d, 0x4f, 0xf9, 0x70, 0x3b, 0x8c, 0x0b, 0x62, 0x3d, 0x5b, 0x20, 0x09, 0xbd,
  0x2e, 0x9a, 0xb6, 0x3c, 0x8f, 0x07, 0x48, 0x3d, 0x90, 0xfb, 0x9a, 0x3d, 0x38,
  0x40, 0x06, 0x3c, 0x59, 0x4a, 0xe1, 0x3c, 0xa0, 0x2d, 0xc5, 0x3c, 0xc8, 0xad,
  0x8f, 0x3d, 0x04, 0x91, 0xbb, 0xbc, 0x46, 0x37, 0xef, 0x3c, 0x04, 0x7a, 0xca,
  0x39, 0x57, 0x70, 0xf3, 0x3c, 0x00, 0x47, 0x81, 0xbb, 0x7c, 0x27, 0xf9, 0x3c,
  0x69, 0x80, 0x16, 0x3c, 0x61, 0xc2, 0x4f, 0x3d, 0xc6, 0xb7, 0x9a, 0xbb, 0xb6,
  0xa4, 0xd0, 0x3c, 0x22, 0x54, 0x0d, 0xbc, 0x5d, 0xb0, 0x3d, 0x3d, 0x5e, 0x61,
  0x35, 0xbe, 0xa7, 0xaf, 0x1c, 0x3b, 0xbf, 0x4f, 0xe1, 0xbc, 0x7c, 0x94, 0x3b,
  0x3d, 0x57, 0x06, 0xff, 0xba, 0xb8, 0x54, 0x1c, 0x3d, 0xa8, 0x8a, 0x82, 0xbc,
  0xa9, 0x26, 0xec, 0x3d, 0x95, 0xa8, 0xbe, 0x3d, 0xea, 0x87, 0xc2, 0x3c, 0x93,
  0x89, 0xcc, 0x3c, 0x4a, 0x87, 0x35, 0x3d, 0xd3, 0x5b, 0x2e, 0x3d, 0xb9, 0x18,
  0x04, 0xbc, 0xfb, 0xc8, 0x9d, 0xbc, 0x70, 0x8e, 0x0b, 0xb9, 0xae, 0xc1, 0xde,
  0xba, 0x55, 0x22, 0x8a, 0x3c, 0xb6, 0x8f, 0x48, 0x3c, 0x55, 0x21, 0xb2, 0x3d,
  0x8d, 0xe8, 0xc1, 0x3d, 0x48, 0xdc, 0xef, 0x3a, 0xad, 0xb7, 0xb7, 0xbc, 0x72,
  0x94, 0x93, 0xbc, 0xec, 0x6f, 0x38, 0xbc, 0x45, 0x99, 0xcb, 0xba, 0xa9, 0xc5,
  0x33, 0x3c, 0x30, 0x9c, 0x5a, 0x3d, 0x18, 0x74, 0xd3, 0x3d, 0x36, 0xcc, 0x50,
  0x3d, 0x49, 0x00, 0x71, 0xbc, 0xf7, 0x71, 0x54, 0x3d, 0xce, 0x25, 0xd4, 0x3c,
  0x22, 0x70, 0xe4, 0x3b, 0x4c, 0x76, 0xfd, 0xbb, 0x42, 0x6b, 0xf4, 0x3d, 0x54,
  0xc4, 0xb7, 0x3d, 0x1f, 0x90, 0x58, 0x3e, 0xc1, 0xf1, 0x08, 0xbd, 0x40, 0xb6,
  0x8f, 0x3d, 0xa9, 0xe9, 0x51, 0xbd, 0x7d, 0x76, 0x64, 0xbd, 0x80, 0x48, 0xbc,
  0xbb, 0x2c, 0x80, 0x54, 0x3c, 0x0f, 0x18, 0x1a, 0x3e, 0x2e, 0x67, 0x89, 0x37,
  0x95, 0x51, 0xd2, 0x3d, 0x52, 0x79, 0x85, 0x3d, 0xb3, 0xcc, 0xe9, 0x3d, 0x2a,
  0x5f, 0x34, 0x3d, 0xd2, 0x0b, 0xae, 0xbd, 0x15, 0xb2, 0xb2, 0xbd, 0xa7, 0xc2,
  0xa4, 0x3d, 0xd3, 0x91, 0xf6, 0xbd, 0x30, 0xb1, 0xce, 0x3d, 0x62, 0x4a, 0x9b,
  0xbd, 0xf3, 0x9b, 0xa2, 0x3d, 0x6f, 0xed, 0x68, 0xbd, 0x94, 0x51, 0xfa, 0xbb,
  0x61, 0x98, 0x49, 0xbd, 0xa5, 0x7a, 0xa7, 0x3d, 0x91, 0xf3, 0x1a, 0xbd, 0x6d,
  0x89, 0x03, 0x3e, 0xaa, 0x99, 0x81, 0x3b, 0xc4, 0x39, 0xb3, 0x3d, 0x5f, 0xf1,
  0x68, 0xbd, 0xce, 0xbc, 0x37, 0xbe, 0x18, 0x2e, 0x46, 0xbe, 0xc6, 0x82, 0x2d,
  0x3c, 0x5c, 0x81, 0xd1, 0xbd, 0x8f, 0x8f, 0x33, 0xbd, 0x69, 0xc0, 0x20, 0xbe,
  0x13, 0x5a, 0x61, 0x3d, 0x8b, 0x96, 0xf5, 0xbd, 0x3a, 0xa1, 0xcc, 0x3d, 0x37,
  0x55, 0x30, 0x3c, 0xcf, 0x4c, 0x80, 0x3c, 0xc9, 0xe8, 0xe2, 0x3c, 0x0d, 0xf8,
  0x2e, 0x3c, 0x31, 0x39, 0x8a, 0xbc, 0x0c, 0x95, 0x74, 0x3d, 0x77, 0xe9, 0x00,
  0xbd, 0x94, 0x0d, 0x07, 0xbd, 0xff, 0x96, 0xdd, 0xbc, 0x5f, 0x1e, 0xdb, 0xbc,
  0xc2, 0xa9, 0x84, 0xbc, 0xc9, 0x96, 0xb7, 0xbc, 0xd9, 0x00, 0x3e, 0x3c, 0x0f,
  0xc7, 0xba, 0x3c, 0x4d, 0x2a, 0xb4, 0xbc, 0xd6, 0x0a, 0xa8, 0xbc, 0x07, 0xb9,
  0x7d, 0x3b, 0x20, 0x9a, 0x3b, 0x3a, 0x16, 0x90, 0xef, 0xbc, 0xb4, 0x82, 0x8c,
  0xbc, 0x9d, 0xf4, 0x60, 0x3b, 0x88, 0x38, 0x25, 0x3c, 0xd6, 0x79, 0x37, 0xbd,
  0x8b, 0x51, 0x00, 0xbd, 0x77, 0x60, 0x28, 0xbb, 0x07, 0xb5, 0x91, 0xbb, 0x3f,
  0x0f, 0x55, 0xbd, 0x24, 0x37, 0xf5, 0xbc, 0x7e, 0x21, 0x23, 0x3c, 0xe8, 0x26,
  0xee, 0x3c, 0x86, 0x9e, 0x8a, 0xbd, 0xbd, 0x3d, 0x5c, 0xbd, 0x2f, 0x68, 0x71,
  0x3c, 0x81, 0x02, 0x3b, 0x3c, 0x3a, 0xd8, 0xb8, 0xbd, 0xb3, 0x7e, 0x8e, 0xbd,
  0x17, 0x4f, 0xa0, 0x3d, 0x83, 0x7b, 0x5a, 0x3d, 0xcd, 0xcc, 0xdc, 0x3d, 0x26,
  0x00, 0xd0, 0x3d, 0x77, 0xc1, 0xe5, 0xb9, 0x06, 0x12, 0xd4, 0x3d, 0x05, 0x77,
  0x3e, 0x3d, 0xdc, 0xbf, 0x43, 0xbd, 0x6e, 0x7a, 0x0b, 0xbd, 0xc4, 0x6b, 0x93,
  0xbd, 0x83, 0x78, 0xa1, 0xbc, 0x03, 0x3d, 0x86, 0xbd, 0xc3, 0x3c, 0x64, 0xbd,
  0x55, 0xcc, 0xc9, 0x3d, 0xf5, 0x3b, 0x67, 0x3d, 0x78, 0x0f, 0x5e, 0xbd, 0xe9,
  0x2c, 0xda, 0xbd, 0xe4, 0xd1, 0x44, 0x3e, 0x7c, 0xb3, 0xe3, 0x3d, 0xb9, 0x1f,
  0xe6, 0x3c, 0x55, 0x8d, 0xed, 0x3b, 0x46, 0x0d, 0x96, 0x3b, 0xc6, 0x7f, 0xc9,
  0xba, 0x37, 0x52, 0x57, 0xbd, 0xf3, 0x2a, 0xbf, 0xbd, 0x1d, 0x04, 0x58, 0x3d,
  0x6f, 0x52, 0x6d, 0x3c, 0x37, 0x5c, 0x3b, 0x3d, 0x2d, 0x0e, 0xe1, 0x3c, 0x86,
  0x8d, 0x64, 0xbb, 0xee, 0x13, 0x18, 0xbd, 0xe6, 0x31, 0x52, 0xbd, 0x72, 0x71,
  0x0f, 0xbe, 0x3c, 0x30, 0x8b, 0x3d, 0x72, 0x7b, 0x31, 0x3c, 0x4e, 0xf0, 0x7f,
  0x3d, 0x08, 0x62, 0xbf, 0x3c, 0xef, 0xfa, 0xe0, 0x8c, 0x7a, 0xe8, 0xd3, 0x8c,
  0x45, 0x34, 0xe1, 0x0c, 0x95, 0x22, 0xe1, 0x0c, 0xc0, 0xd6, 0xde, 0x8c, 0xcf,
  0xec, 0xdd, 0x8c, 0xee, 0x37, 0xdd, 0x8c, 0x46, 0x7d, 0xe0, 0x8c, 0x71, 0x81,
  0xdf, 0x0c, 0x92, 0x4b, 0xe1, 0x0c, 0xc4, 0xfd, 0xdc, 0x8c, 0x82, 0x56, 0xdf,
  0x8c, 0xd9, 0xba, 0xdb, 0x8c, 0x95, 0xd6, 0xc8, 0x8c, 0xf2, 0x1c, 0xcd, 0x8c,
  0x85, 0x6d, 0xc6, 0x8c, 0xc7, 0x8e, 0xc2, 0x8c, 0xd0, 0xaa, 0xe0, 0x8c, 0xa5,
  0x50, 0xe3, 0x0c, 0x9b, 0xbf, 0xe5, 0x8c, 0x53, 0xc5, 0xda, 0x0c, 0xca, 0x93,
  0xdc, 0x8c, 0xbe, 0x8e, 0xd8, 0x8c, 0x01, 0x1b, 0xca, 0x8c, 0x38, 0xe6, 0xc3,
  0x8c, 0xf6, 0xe5, 0xe0, 0x0c, 0x3d, 0x0c, 0xe0, 0x0c, 0x63, 0x27, 0xdc, 0x8c,
  0x7c, 0x55, 0xe2, 0x8c, 0x6b, 0x7b, 0xd6, 0x8c, 0xd4, 0x27, 0xdb, 0x8c, 0xc8,
  0x1a, 0xd3, 0x8c, 0x3d, 0xef, 0xcd, 0x8c, 0xbd, 0x57, 0xdd, 0x0c, 0x98, 0xfc,
  0xe1, 0x0c, 0xf1, 0x81, 0xe3, 0x0c, 0xba, 0xa4, 0xe2, 0x0c, 0x19, 0x88, 0x04,
  0x3d, 0xc7, 0x81, 0x38, 0x3d, 0xb7, 0x39, 0x0c, 0x3c, 0x63, 0x31, 0x33, 0xbd,
  0x38, 0xcf, 0xfa, 0x3c, 0xc5, 0xa6, 0x16, 0x3d, 0x74, 0x67, 0xcf, 0x3d, 0x56,
  0xc1, 0x0a, 0x3b, 0x96, 0xc5, 0x95, 0xbb, 0x0f, 0x03, 0x47, 0xbc, 0x88, 0x69,
  0xc9, 0xbc, 0x0b, 0x42, 0x26, 0xbd, 0x3b, 0x98, 0x08, 0xbd, 0xc7, 0xf1, 0x9c,
  0xbd, 0x5d, 0xa5, 0x5a, 0xbc, 0xf9, 0xb0, 0x50, 0x3d, 0xb0, 0xcc, 0x47, 0x3e,
  0x02, 0x52, 0xc1, 0xbb, 0x13, 0xc0, 0x14, 0x3d, 0x0b, 0x64, 0xbe, 0xbd, 0x8e,
  0x28, 0x12, 0xbe, 0x55, 0x21, 0x18, 0x3d, 0x35, 0xee, 0x2d, 0x3d, 0x24, 0x75,
  0x8a, 0x3d, 0x30, 0x9e, 0x52, 0x3e, 0x6d, 0x83, 0x4d, 0xbc, 0xfa, 0x0a, 0x71,
  0x3c, 0x69, 0xf4, 0x75, 0xbd, 0x66, 0xc8, 0xdb, 0xbd, 0x4d, 0xbf, 0x53, 0x3c,
  0xd3, 0x33, 0xdc, 0x3d, 0xd4, 0xc6, 0x50, 0xbd, 0x2c, 0x0c, 0x03, 0x3e, 0x1c,
  0xb7, 0xd4, 0xbd, 0x4b, 0xc1, 0x2d, 0xbd, 0x16, 0xf0, 0xc3, 0xbd, 0x52, 0xcb,
  0xac, 0xbd, 0xec, 0xc7, 0xac, 0x3d, 0x42, 0xdd, 0xae, 0xbc, 0x63, 0xb4, 0x8b,
  0x3c, 0x8a, 0x09, 0x54, 0x3d, 0xac, 0xa9, 0xa4, 0xbb, 0x07, 0xb9, 0x71, 0x3d,
  0x00, 0x09, 0x87, 0xbd, 0x25, 0x94, 0x8c, 0x3d, 0x91, 0xfc, 0x54, 0x3d, 0x22,
  0xff, 0x74, 0x3d, 0x67, 0x69, 0x76, 0x3d, 0x72, 0xf7, 0xd2, 0x3d, 0xc6, 0xb7,
  0xa1, 0x3d, 0x3a, 0xf3, 0xe5, 0x3d, 0x00, 0xd7, 0xe7, 0x3d, 0x67, 0xd9, 0x8e,
  0x3d, 0x55, 0x6a, 0x90, 0x3d, 0xf5, 0x97, 0x8a, 0x3d, 0x13, 0x7e, 0xae, 0x3d,
  0xe4, 0x32, 0x9c, 0x3d, 0xbb, 0x09, 0x42, 0x3d, 0x64, 0x30, 0xcb, 0x3c, 0x40,
  0x63, 0x64, 0x3d, 0xf1, 0x5a, 0xd5, 0xbc, 0xb4, 0xd7, 0x07, 0xbd, 0x47, 0x3c,
  0x9b, 0x3c, 0x87, 0xf2, 0x4e, 0x3c, 0xdf, 0xb1, 0x84, 0xbc, 0x4b, 0x30, 0x6f,
  0xbd, 0xf6, 0x31, 0xac, 0x3c, 0xe3, 0xa1, 0xd3, 0x3c, 0x58, 0x0c, 0xb7, 0x3c,
  0x05, 0x5f, 0x38, 0xbc, 0x31, 0x0d, 0xa2, 0xbc, 0xae, 0x46, 0xb4, 0xbc, 0x1b,
  0x6c, 0xec, 0x3c, 0xfb, 0x49, 0xf7, 0xbc, 0x61, 0x4a, 0xe8, 0xbd, 0x97, 0xf0,
  0xe2, 0xbd, 0xe0, 0x35, 0x52, 0xbd, 0x04, 0x78, 0x33, 0xbd, 0xdc, 0x5d, 0x0a,
  0xbd, 0x13, 0x07, 0x68, 0xbb, 0x4e, 0xc6, 0x35, 0xbd, 0x03, 0xe8, 0x09, 0x3e,
  0x43, 0xc7, 0x02, 0x3e, 0x4f, 0x79, 0x4f, 0x3e, 0x62, 0x84, 0x04, 0x3e, 0x84,
  0x7b, 0x64, 0x3d, 0x8e, 0x1b, 0x16, 0x3d, 0x00, 0x0f, 0xea, 0xbd, 0x02, 0xc9,
  0x54, 0xbe, 0xf9, 0x8f, 0x91, 0xbd, 0x04, 0xdf, 0x7b, 0xbd, 0xca, 0x18, 0x61,
  0xbb, 0x3e, 0xcc, 0x81, 0x3d, 0x3f, 0xbc, 0x00, 0xbe, 0xd6, 0xbd, 0x35, 0xbe,
  0xa7, 0xbc, 0x9b, 0x3d, 0x07, 0x4e, 0xa2, 0xbd, 0x29, 0x68, 0x93, 0x3c, 0x0c,
  0x8b, 0x18, 0x3d, 0x52, 0x91, 0xcc, 0x3d, 0xbe, 0x04, 0xdc, 0x3d, 0x4b, 0xd2,
  0xb9, 0x3d, 0x6a, 0x3a, 0xa4, 0xbc, 0x7a, 0x79, 0xd6, 0xbc, 0x4e, 0x77, 0xe7,
  0xbd, 0x61, 0x57, 0x94, 0x3d, 0xdb, 0x7f, 0x76, 0x3c, 0xaf, 0x2f, 0xd1, 0x3b,
  0x14, 0x60, 0x96, 0x3d, 0xc8, 0x92, 0x76, 0xbd, 0xc7, 0x23, 0xbb, 0xbd, 0x7c,
  0xa6, 0xe2, 0x8c, 0x19, 0x1f, 0xc5, 0x0c, 0x26, 0x3f, 0xea, 0x0c, 0x58, 0xd1,
  0xd8, 0x0c, 0xda, 0xd3, 0xc6, 0x0c, 0xdc, 0x69, 0xe0, 0x0c, 0xc4, 0x74, 0xe6,
  0x8c, 0x4b, 0x4e, 0xe4, 0x8c, 0x6d, 0x3c, 0xe6, 0x8c, 0x49, 0x84, 0xe2, 0x0c,
  0x01, 0x54, 0xe5, 0x0c, 0xdf, 0x4d, 0xdf, 0x8c, 0xf5, 0xb6, 0xe4, 0x8c, 0x7d,
  0x66, 0xde, 0x8c, 0x19, 0x5c, 0xe4, 0x0c, 0xff, 0x81, 0xe3, 0x0c, 0x20, 0xfd,
  0xe3, 0x8c, 0x67, 0x60, 0xe8, 0x0c, 0x79, 0x1e, 0xf5, 0x8c, 0x2b, 0xc4, 0xe3,
  0x0c, 0x5e, 0x30, 0xec, 0x8c, 0x75, 0x82, 0xe0, 0x8c, 0xf6, 0xb6, 0xe4, 0x8c,
  0xbc, 0x9c, 0xe8, 0x0c, 0x8c, 0x1a, 0xe3, 0x8c, 0x40, 0xa1, 0xdf, 0x0c, 0x34,
  0x7c, 0xe2, 0x8c, 0xf7, 0xeb, 0xdf, 0x8c, 0xc8, 0x64, 0xe4, 0x0c, 0x4a, 0xfb,
  0xe5, 0x8c, 0x2a, 0xc1, 0xee, 0x0c, 0xdf, 0x58, 0xe4, 0x0c, 0x60, 0x19, 0xe3,
  0x0c, 0xd5, 0xda, 0xe5, 0x0c, 0xc3, 0x0d, 0xe6, 0x8c, 0x98, 0x4f, 0xe6, 0x8c,
  0x03, 0xa9, 0xe8, 0x0c, 0x9b, 0x24, 0x7f, 0xbc, 0xbc, 0xe7, 0x51, 0x3c, 0x65,
  0x45, 0xd6, 0x3c, 0xb2, 0x34, 0x5c, 0xbb, 0x39, 0xf5, 0x7e, 0x3c, 0x6b, 0xf6,
  0x8c, 0x3d, 0x68, 0x51, 0xf1, 0x3c, 0xd2, 0x95, 0x5a, 0x3d, 0xa6, 0xb3, 0x3f,
  0x3d, 0x0b, 0x33, 0x5e, 0x3d, 0x3a, 0x7e, 0x4d, 0x3d, 0x70, 0x13, 0x99, 0x3d,
  0x9d, 0x3c, 0xa9, 0x3d, 0x77, 0x4a, 0x0f, 0xbd, 0x00, 0xa8, 0x17, 0xbd, 0xff,
  0xec, 0xa6, 0x3d, 0x25, 0x5c, 0x9a, 0x3d, 0x8b, 0x85, 0x2f, 0xbd, 0x7a, 0x90,
  0xf5, 0xbc, 0xa9, 0x33, 0x09, 0xbc, 0x61, 0x36, 0x49, 0xbb, 0xc2, 0xb6, 0xd4,
  0xbc, 0xd4, 0x81, 0x0b, 0xbd, 0x83, 0xaa, 0x9a, 0x3d, 0xc5, 0xc8, 0x7f, 0x3d,
  0xf0, 0x0b, 0xd0, 0x3b, 0xfb, 0x8b, 0xb0, 0x3c, 0xca, 0x5e, 0x13, 0xbc, 0x82,
  0x62, 0x6e, 0xbb, 0x46, 0x7a, 0xe0, 0xbc, 0x4e, 0xcb, 0xd2, 0xbc, 0x71, 0x49,
  0xf6, 0x3d, 0x00, 0xc7, 0x0c, 0x3e, 0xb0, 0x98, 0x27, 0x3d, 0xce, 0x6c, 0x70,
  0x3d, 0x55, 0x51, 0x7e, 0x3c, 0x18, 0x40, 0x27, 0x3d, 0x5e, 0x18, 0x92, 0x3e,
  0xdc, 0x0e, 0x44, 0xbc, 0x21, 0x29, 0x63, 0x3d, 0xf1, 0xaf, 0x0e, 0x3d, 0xe5,
  0x25, 0x7c, 0xbc, 0xdf, 0x89, 0xf4, 0xbb, 0x86, 0xf7, 0xf7, 0x3c, 0x17, 0xc8,
  0xc2, 0x3c, 0xa8, 0xee, 0x16, 0xbd, 0x97, 0x86, 0x33, 0x3d, 0xf2, 0x8b, 0xdc,
  0x3c, 0xa0, 0xf2, 0xdf, 0x3c, 0xb6, 0xd1, 0x8b, 0x3a, 0xd6, 0xb8, 0x97, 0xbc,
  0x2a, 0x8b, 0xcb, 0x3c, 0xeb, 0x1a, 0x8c, 0x3d, 0x6d, 0x39, 0x4c, 0x3d, 0xac,
  0x55, 0x0e, 0x3d, 0xc5, 0x28, 0xb7, 0x3b, 0x0d, 0xdc, 0x97, 0x3b, 0x4f, 0x0b,
  0x68, 0xbc, 0x78, 0x04, 0x3f, 0xbd, 0x93, 0x57, 0xa1, 0xbc, 0x19, 0xf1, 0xa0,
  0xbc, 0x20, 0xe9, 0xae, 0xbc, 0x47, 0x3d, 0x17, 0x3d, 0x3e, 0x43, 0x1a, 0xbc,
  0x03, 0xa5, 0xca, 0x3b, 0x56, 0x91, 0xaf, 0xbc, 0xb3, 0x20, 0x3d, 0xbe, 0x65,
  0x1e, 0x83, 0xbd, 0x1b, 0x19, 0xc7, 0xbd, 0x74, 0x06, 0x9c, 0xbd, 0xf1, 0xa3,
  0xbe, 0xbd, 0x4e, 0x0a, 0xf4, 0xbd, 0x2a, 0x68, 0x37, 0x3d, 0x3c, 0x26, 0x50,
  0xbc, 0x65, 0xf4, 0x10, 0x3d, 0x9d, 0x1f, 0x17, 0x3c, 0xd2, 0x6e, 0x63, 0xbd,
  0x83, 0xae, 0x5b, 0x3d, 0xf2, 0xb1, 0x40, 0xbc, 0x97, 0x92, 0xee, 0xbd, 0x85,
  0x73, 0xae, 0x3d, 0x69, 0x16, 0x34, 0x3d, 0xbd, 0x7d, 0x9b, 0x3d, 0xb3, 0x7c,
  0xf7, 0x3c, 0x10, 0xb8, 0x87, 0x3d, 0x1f, 0xf3, 0x8b, 0x3d, 0xd2, 0x61, 0x7b,
  0x3d, 0x50, 0x86, 0xc6, 0xbb, 0x1e, 0x05, 0x9b, 0xbb, 0x26, 0xa0, 0x0a, 0xbe,
  0xe2, 0xe7, 0xe9, 0xbd, 0x1f, 0xb1, 0x63, 0x3d, 0x6e, 0x98, 0x6e, 0x3d, 0xf4,
  0x2e, 0x75, 0x3d, 0x46, 0x0b, 0x70, 0x3d, 0x57, 0x94, 0x59, 0xbd, 0x15, 0xeb,
  0x26, 0xbc, 0x09, 0x84, 0xab, 0xbd, 0x0b, 0xff, 0x8e, 0xbd, 0x46, 0x51, 0xf8,
  0xbc, 0x24, 0x80, 0x74, 0xbc, 0xf0, 0x37, 0x02, 0x3d, 0x67, 0xcd, 0xc0, 0x3c,
  0x54, 0xf9, 0x3b, 0xbb, 0xb1, 0x25, 0x26, 0xbc, 0xea, 0x1c, 0x9f, 0xbd, 0x7d,
  0xd3, 0xae, 0xbd, 0x0e, 0x5a, 0x3b, 0xbb, 0x5e, 0x1a, 0x11, 0x3c, 0x9f, 0x3a,
  0xa0, 0x3d, 0x81, 0x89, 0x03, 0x3d, 0x9d, 0x19, 0x02, 0xbe, 0x50, 0x3e, 0x0d,
  0xbe, 0x72, 0xca, 0xe2, 0x3e, 0x56, 0xb6, 0x28, 0x3e, 0x0c, 0xad, 0xa9, 0xbd,
  0xcd, 0xa5, 0x35, 0xbd, 0xe1, 0x5c, 0x92, 0xbc, 0xd9, 0x80, 0x94, 0x3d, 0x94,
  0x4b, 0x24, 0x3d, 0xc6, 0x3c, 0xd2, 0x3c, 0x80, 0x84, 0x9d, 0xbc, 0x94, 0x22,
  0x22, 0xbd, 0xff, 0xe5, 0xe9, 0xbb, 0x1d, 0x53, 0x84, 0xbd, 0x16, 0x2c, 0x0d,
  0x3d, 0x4d, 0x78, 0xcc, 0xbb, 0xc7, 0x09, 0x5e, 0xbc, 0x50, 0x72, 0xbb, 0xbc,
  0x25, 0xd6, 0x33, 0x3d, 0x5e, 0xe9, 0xf6, 0xbc, 0xa1, 0xdf, 0x3d, 0x3c, 0x2f,
  0x17, 0x62, 0x3c, 0x57, 0x40, 0x2d, 0x3c, 0xbc, 0x09, 0xf3, 0x3c, 0x4b, 0x0a,
  0x6a, 0x3c, 0x4d, 0xf7, 0xba, 0x3c, 0xcb, 0x66, 0x4f, 0x3d, 0xfb, 0x73, 0xb7,
  0x3c, 0xa3, 0x28, 0x54, 0x3c, 0x7f, 0xa3, 0x8a, 0xbc, 0x84, 0x8c, 0x2d, 0x3d,
  0xf6, 0x25, 0x05, 0xbd, 0x23, 0x59, 0xcd, 0x3c, 0xa4, 0x70, 0xb7, 0xbd, 0x38,
  0x6b, 0xc2, 0xbc, 0x60, 0xa3, 0x49, 0xbd, 0x1c, 0x39, 0xd9, 0x3c, 0x9d, 0xb8,
  0x43, 0xbd, 0x49, 0x2b, 0xbb, 0xbc, 0x8a, 0x84, 0xb1, 0xbc, 0xaf, 0x0d, 0x0a,
  0xbd, 0x3e, 0x58, 0xa0, 0xbc, 0x06, 0xbe, 0xe0, 0xbc, 0x2d, 0xde, 0x08, 0xbd,
  0x70, 0x1b, 0x89, 0x3d, 0xdb, 0xdb, 0x02, 0x3d, 0xc3, 0x15, 0xab, 0x3d, 0x5d,
  0xf0, 0x95, 0x3d, 0x9e, 0xa4, 0x85, 0x3d, 0xa2, 0x57, 0x50, 0x3d, 0x29, 0xf3,
  0x39, 0x3d, 0xbd, 0x90, 0x45, 0x3e, 0x54, 0x2b, 0x5e, 0xbd, 0x9d, 0xe5, 0xbc,
  0xbc, 0x44, 0xe7, 0x15, 0xbe, 0x77, 0x57, 0x7b, 0xbe, 0xb9, 0x88, 0x9f, 0xbd,
  0x87, 0x3a, 0xaa, 0xbd, 0x80, 0xdc, 0x18, 0x3e, 0x59, 0x94, 0x78, 0x3e, 0xf4,
  0x75, 0xbf, 0x3d, 0x46, 0x33, 0x4e, 0x3d, 0x73, 0x23, 0x0c, 0xbd, 0x65, 0x3e,
  0x29, 0xbe, 0xb6, 0x81, 0xf9, 0x3c, 0x68, 0xd7, 0xe7, 0xba, 0x4b, 0x5f, 0xac,
  0x3d, 0x0c, 0x67, 0x3e, 0x3e, 0x54, 0xfe, 0xed, 0xbc, 0x76, 0xa1, 0xae, 0x3c,
  0x3f, 0x02, 0x06, 0xbe, 0x88, 0xf9, 0x78, 0xbe, 0xdf, 0x40, 0x23, 0xbd, 0x92,
  0x26, 0x9d, 0xbd, 0xa2, 0xff, 0xff, 0xff, 0x04, 0x00, 0x00, 0x00, 0x04, 0x00,
  0x00, 0x00, 0x4a, 0x00, 0xac, 0xbc, 0xb2, 0xff, 0xff, 0xff, 0x04, 0x00, 0x00,
  0x00, 0x40, 0x00, 0x00, 0x00, 0x5c, 0xc5, 0xf2, 0x3f, 0xe8, 0x5c, 0x4e, 0x3e,
  0x92, 0x28, 0xf2, 0x3d, 0x89, 0xc3, 0x7d, 0xbd, 0x64, 0xe2, 0xb3, 0xbd, 0x26,
  0xf7, 0x3c, 0xbd, 0x2b, 0x0e, 0x3d, 0xbc, 0xe5, 0xfb, 0x82, 0x3e, 0xb8, 0x9c,
  0x30, 0x3f, 0x14, 0x1a, 0x6f, 0x3e, 0x8c, 0x06, 0x40, 0x3e, 0x38, 0x09, 0x21,
  0x3f, 0xd7, 0x20, 0x65, 0xbe, 0x47, 0x6c, 0x35, 0xbd, 0x50, 0xe7, 0x5e, 0x3d,
  0x59, 0xff, 0x15, 0x40, 0x00, 0x00, 0x06, 0x00, 0x08, 0x00, 0x04, 0x00, 0x06,
  0x00, 0x00, 0x00, 0x04, 0x00, 0x00, 0x00, 0x80, 0x00, 0x00, 0x00, 0xa0, 0xe6,
  0xc8, 0x3e, 0x5d, 0xd7, 0x04, 0x3f, 0x7e, 0xea, 0xab, 0x3f, 0xc5, 0xe8, 0x80,
  0x3e, 0x9a, 0x1b, 0x8b, 0xbe, 0xc9, 0xde, 0xef, 0x3d, 0x88, 0x25, 0x8f, 0x3f,
  0xfa, 0x2a, 0x03, 0x3f, 0xd3, 0xf7, 0xac, 0x3d, 0xd4, 0x25, 0x0e, 0x3d, 0x5b,
  0xc5, 0xcf, 0x3e, 0x0a, 0x2d, 0x15, 0x3e, 0xd3, 0x35, 0x01, 0x3e, 0xab, 0x7e,
  0x90, 0x3d, 0x0f, 0xd3, 0x3e, 0x3f, 0xdf, 0x8a, 0x86, 0x3e, 0x41, 0xdf, 0xf2,
  0x3f, 0x44, 0x62, 0x49, 0x3e, 0xfe, 0x73, 0x5b, 0xbf, 0xa5, 0xab, 0x73, 0x3e,
  0xd8, 0xcc, 0xab, 0x3f, 0x33, 0xb2, 0x03, 0x3f, 0xc0, 0x64, 0x02, 0xbd, 0x67,
  0xde, 0x82, 0x3e, 0xcc, 0xa0, 0x14, 0x3e, 0xfd, 0x4b, 0x98, 0xbe, 0x21, 0x1f,
  0x44, 0xbd, 0x8b, 0x42, 0x96, 0x3e, 0xb0, 0xb3, 0x5f, 0x3f, 0xcb, 0x28, 0x49,
  0xbd, 0x47, 0xcf, 0xd5, 0xbe, 0x7f, 0x56, 0xb0, 0xbe, 0xe8, 0xf9, 0xff, 0xff,
  0xec, 0xf9, 0xff, 0xff, 0x0f, 0x00, 0x00, 0x00, 0x4d, 0x4c, 0x49, 0x52, 0x20,
  0x43, 0x6f, 0x6e, 0x76, 0x65, 0x72, 0x74, 0x65, 0x64, 0x2e, 0x00, 0x01, 0x00,
  0x00, 0x00, 0x14, 0x00, 0x00, 0x00, 0x00, 0x00, 0x0e, 0x00, 0x18, 0x00, 0x14,
  0x00, 0x10, 0x00, 0x0c, 0x00, 0x08, 0x00, 0x04, 0x00, 0x0e, 0x00, 0x00, 0x00,
  0x14, 0x00, 0x00, 0x00, 0x1c, 0x00, 0x00, 0x00, 0x08, 0x01, 0x00, 0x00, 0x0c,
  0x01, 0x00, 0x00, 0x10, 0x01, 0x00, 0x00, 0x04, 0x00, 0x00, 0x00, 0x6d, 0x61,
  0x69, 0x6e, 0x00, 0x00, 0x00, 0x00, 0x04, 0x00, 0x00, 0x00, 0xb0, 0x00, 0x00,
  0x00, 0x68, 0x00, 0x00, 0x00, 0x34, 0x00, 0x00, 0x00, 0x10, 0x00, 0x00, 0x00,
  0x00, 0x00, 0x0a, 0x00, 0x10, 0x00, 0x0c, 0x00, 0x08, 0x00, 0x04, 0x00, 0x0a,
  0x00, 0x00, 0x00, 0x0c, 0x00, 0x00, 0x00, 0x10, 0x00, 0x00, 0x00, 0x01, 0x00,
  0x00, 0x00, 0x01, 0x00, 0x00, 0x00, 0x0a, 0x00, 0x00, 0x00, 0x01, 0x00, 0x00,
  0x00, 0x09, 0x00, 0x00, 0x00, 0x9a, 0xff, 0xff, 0xff, 0x10, 0x00, 0x00, 0x00,
  0x00, 0x00, 0x00, 0x08, 0x0c, 0x00, 0x00, 0x00, 0x10, 0x00, 0x00, 0x00, 0x94,
  0xfa, 0xff, 0xff, 0x01, 0x00, 0x00, 0x00, 0x09, 0x00, 0x00, 0x00, 0x03, 0x00,
  0x00, 0x00, 0x08, 0x00, 0x00, 0x00, 0x06, 0x00, 0x00, 0x00, 0x03, 0x00, 0x00,
  0x00, 0xca, 0xff, 0xff, 0xff, 0x10, 0x00, 0x00, 0x00, 0x00, 0x00, 0x00, 0x08,
  0x10, 0x00, 0x00, 0x00, 0x14, 0x00, 0x00, 0x00, 0xba, 0xff, 0xff, 0xff, 0x00,
  0x00, 0x00, 0x03, 0x01, 0x00, 0x00, 0x00, 0x08, 0x00, 0x00, 0x00, 0x03, 0x00,
  0x00, 0x00, 0x07, 0x00, 0x00, 0x00, 0x05, 0x00, 0x00, 0x00, 0x02, 0x00, 0x00,
  0x00, 0x00, 0x00, 0x0e, 0x00, 0x16, 0x00, 0x00, 0x00, 0x10, 0x00, 0x0c, 0x00,
  0x0b, 0x00, 0x04, 0x00, 0x0e, 0x00, 0x00, 0x00, 0x18, 0x00, 0x00, 0x00, 0x00,
  0x00, 0x00, 0x08, 0x18, 0x00, 0x00, 0x00, 0x1c, 0x00, 0x00, 0x00, 0x00, 0x00,
  0x06, 0x00, 0x08, 0x00, 0x07, 0x00, 0x06, 0x00, 0x00, 0x00, 0x00, 0x00, 0x00,
  0x03, 0x01, 0x00, 0x00, 0x00, 0x07, 0x00, 0x00, 0x00, 0x03, 0x00, 0x00, 0x00,
  0x00, 0x00, 0x00, 0x00, 0x04, 0x00, 0x00, 0x00, 0x01, 0x00, 0x00, 0x00, 0x01,
  0x00, 0x00, 0x00, 0x0a, 0x00, 0x00, 0x00, 0x01, 0x00, 0x00, 0x00, 0x00, 0x00,
  0x00, 0x00, 0x0b, 0x00, 0x00, 0x00, 0x94, 0x04, 0x00, 0x00, 0x1c, 0x04, 0x00,
  0x00, 0xa4, 0x03, 0x00, 0x00, 0x40, 0x03, 0x00, 0x00, 0xec, 0x02, 0x00, 0x00,
  0x98, 0x02, 0x00, 0x00, 0x40, 0x02, 0x00, 0x00, 0x98, 0x01, 0x00, 0x00, 0xf0,
  0x00, 0x00, 0x00, 0x60, 0x00, 0x00, 0x00, 0x04, 0x00, 0x00, 0x00, 0xae, 0xfb,
  0xff, 0xff, 0x00, 0x00, 0x00, 0x01, 0x14, 0x00, 0x00, 0x00, 0x1c, 0x00, 0x00,
  0x00, 0x1c, 0x00, 0x00, 0x00, 0x0b, 0x00, 0x00, 0x00, 0x34, 0x00, 0x00, 0x00,
  0x02, 0x00, 0x00, 0x00, 0xff, 0xff, 0xff, 0xff, 0x01, 0x00, 0x00, 0x00, 0x98,
  0xfb, 0xff, 0xff, 0x19, 0x00, 0x00, 0x00, 0x53, 0x74, 0x61, 0x74, 0x65, 0x66,
  0x75, 0x6c, 0x50, 0x61, 0x72, 0x74, 0x69, 0x74, 0x69, 0x6f, 0x6e, 0x65, 0x64,
  0x43, 0x61, 0x6c, 0x6c, 0x3a, 0x30, 0x00, 0x00, 0x00, 0x02, 0x00, 0x00, 0x00,
  0x01, 0x00, 0x00, 0x00, 0x01, 0x00, 0x00, 0x00, 0x06, 0xfc, 0xff, 0xff, 0x00,
  0x00, 0x00, 0x01, 0x14, 0x00, 0x00, 0x00, 0x1c, 0x00, 0x00, 0x00, 0x1c, 0x00,
  0x00, 0x00, 0x0a, 0x00, 0x00, 0x00, 0x68, 0x00, 0x00, 0x00, 0x02, 0x00, 0x00,
  0x00, 0xff, 0xff, 0xff, 0xff, 0x01, 0x00, 0x00, 0x00, 0xf0, 0xfb, 0xff, 0xff,
  0x4c, 0x00, 0x00, 0x00, 0x41, 0x56, 0x32, 0x5f, 0x50, 0x61, 0x72, 0x74, 0x69,
  0x74, 0x69, 0x6f, 0x6e, 0x5f, 0x44, 0x4e, 0x4e, 0x2f, 0x6f, 0x75, 0x74, 0x70,
  0x75, 0x74, 0x5f, 0x6c, 0x61, 0x79, 0x65, 0x72, 0x2f, 0x4d, 0x61, 0x74, 0x4d,
  0x75, 0x6c, 0x3b, 0x41, 0x56, 0x32, 0x5f, 0x50, 0x61, 0x72, 0x74, 0x69, 0x74,
  0x69, 0x6f, 0x6e, 0x5f, 0x44, 0x4e, 0x4e, 0x2f, 0x6f, 0x75, 0x74, 0x70, 0x75,
  0x74, 0x5f, 0x6c, 0x61, 0x79, 0x65, 0x72, 0x2f, 0x42, 0x69, 0x61, 0x73, 0x41,
  0x64, 0x64, 0x00, 0x00, 0x00, 0x00, 0x02, 0x00, 0x00, 0x00, 0x01, 0x00, 0x00,
  0x00, 0x01, 0x00, 0x00, 0x00, 0x92, 0xfc, 0xff, 0xff, 0x00, 0x00, 0x00, 0x01,
  0x14, 0x00, 0x00, 0x00, 0x1c, 0x00, 0x00, 0x00, 0x1c, 0x00, 0x00, 0x00, 0x09,
  0x00, 0x00, 0x00, 0x80, 0x00, 0x00, 0x00, 0x02, 0x00, 0x00, 0x00, 0xff, 0xff,
  0xff, 0xff, 0x10, 0x00, 0x00, 0x00, 0x7c, 0xfc, 0xff, 0xff, 0x67, 0x00, 0x00,
  0x00, 0x41, 0x56, 0x32, 0x5f, 0x50, 0x61, 0x72, 0x74, 0x69, 0x74, 0x69, 0x6f,
  0x6e, 0x5f, 0x44, 0x4e, 0x4e, 0x2f, 0x64, 0x65, 0x6e, 0x73, 0x65, 0x5f, 0x31,
  0x2f, 0x4d, 0x61, 0x74, 0x4d, 0x75, 0x6c, 0x3b, 0x41, 0x56, 0x32, 0x5f, 0x50,
  0x61, 0x72, 0x74, 0x69, 0x74, 0x69, 0x6f, 0x6e, 0x5f, 0x44, 0x4e, 0x4e, 0x2f,
  0x64, 0x65, 0x6e, 0x73, 0x65, 0x5f, 0x31, 0x5f, 0x72, 0x65, 0x6c, 0x75, 0x2f,
  0x52, 0x65, 0x6c, 0x75, 0x36, 0x3b, 0x41, 0x56, 0x32, 0x5f, 0x50, 0x61, 0x72,
  0x74, 0x69, 0x74, 0x69, 0x6f, 0x6e, 0x5f, 0x44, 0x4e, 0x4e, 0x2f, 0x64, 0x65,
  0x6e, 0x73, 0x65, 0x5f, 0x31, 0x2f, 0x42, 0x69, 0x61, 0x73, 0x41, 0x64, 0x64,
  0x00, 0x02, 0x00, 0x00, 0x00, 0x01, 0x00, 0x00, 0x00, 0x10, 0x00, 0x00, 0x00,
  0x36, 0xfd, 0xff, 0xff, 0x00, 0x00, 0x00, 0x01, 0x14, 0x00, 0x00, 0x00, 0x1c,
  0x00, 0x00, 0x00, 0x1c, 0x00, 0x00, 0x00, 0x08, 0x00, 0x00, 0x00, 0x80, 0x00,
  0x00, 0x00, 0x02, 0x00, 0x00, 0x00, 0xff, 0xff, 0xff, 0xff, 0x20, 0x00, 0x00,
  0x00, 0x20, 0xfd, 0xff, 0xff, 0x67, 0x00, 0x00, 0x00, 0x41, 0x56, 0x32, 0x5f,
  0x50, 0x61, 0x72, 0x74, 0x69, 0x74, 0x69, 0x6f, 0x6e, 0x5f, 0x44, 0x4e, 0x4e,
  0x2f, 0x64, 0x65, 0x6e, 0x73, 0x65, 0x5f, 0x30, 0x2f, 0x4d, 0x61, 0x74, 0x4d,
  0x75, 0x6c, 0x3b, 0x41, 0x56, 0x32, 0x5f, 0x50, 0x61, 0x72, 0x74, 0x69, 0x74,
  0x69, 0x6f, 0x6e, 0x5f, 0x44, 0x4e, 0x4e, 0x2f, 0x64, 0x65, 0x6e, 0x73, 0x65,
  0x5f, 0x30, 0x5f, 0x72, 0x65, 0x6c, 0x75, 0x2f, 0x52, 0x65, 0x6c, 0x75, 0x36,
  0x3b, 0x41, 0x56, 0x32, 0x5f, 0x50, 0x61, 0x72, 0x74, 0x69, 0x74, 0x69, 0x6f,
  0x6e, 0x5f, 0x44, 0x4e, 0x4e, 0x2f, 0x64, 0x65, 0x6e, 0x73, 0x65, 0x5f, 0x30,
  0x2f, 0x42, 0x69, 0x61, 0x73, 0x41, 0x64, 0x64, 0x00, 0x02, 0x00, 0x00, 0x00,
  0x01, 0x00, 0x00, 0x00, 0x20, 0x00, 0x00, 0x00, 0x4e, 0xfe, 0xff, 0xff, 0x00,
  0x00, 0x00, 0x01, 0x10, 0x00, 0x00, 0x00, 0x10, 0x00, 0x00, 0x00, 0x07, 0x00,
  0x00, 0x00, 0x34, 0x00, 0x00, 0x00, 0xb4, 0xfd, 0xff, 0xff, 0x25, 0x00, 0x00,
  0x00, 0x41, 0x56, 0x32, 0x5f, 0x50, 0x61, 0x72, 0x74, 0x69, 0x74, 0x69, 0x6f,
  0x6e, 0x5f, 0x44, 0x4e, 0x4e, 0x2f, 0x6f, 0x75, 0x74, 0x70, 0x75, 0x74, 0x5f,
  0x6c, 0x61, 0x79, 0x65, 0x72, 0x2f, 0x4d, 0x61, 0x74, 0x4d, 0x75, 0x6c, 0x00,
  0x00, 0x00, 0x02, 0x00, 0x00, 0x00, 0x01, 0x00, 0x00, 0x00, 0x10, 0x00, 0x00,
  0x00, 0xa2, 0xfe, 0xff, 0xff, 0x00, 0x00, 0x00, 0x01, 0x10, 0x00, 0x00, 0x00,
  0x10, 0x00, 0x00, 0x00, 0x06, 0x00, 0x00, 0x00, 0x30, 0x00, 0x00, 0x00, 0x08,
  0xfe, 0xff, 0xff, 0x20, 0x00, 0x00, 0x00, 0x41, 0x56, 0x32, 0x5f, 0x50, 0x61,
  0x72, 0x74, 0x69, 0x74, 0x69, 0x6f, 0x6e, 0x5f, 0x44, 0x4e, 0x4e, 0x2f, 0x64,
  0x65, 0x6e, 0x73, 0x65, 0x5f, 0x31, 0x2f, 0x4d, 0x61, 0x74, 0x4d, 0x75, 0x6c,
  0x00, 0x00, 0x00, 0x00, 0x02, 0x00, 0x00, 0x00, 0x10, 0x00, 0x00, 0x00, 0x20,
  0x00, 0x00, 0x00, 0xf2, 0xfe, 0xff, 0xff, 0x00, 0x00, 0x00, 0x01, 0x10, 0x00,
  0x00, 0x00, 0x10, 0x00, 0x00, 0x00, 0x05, 0x00, 0x00, 0x00, 0x30, 0x00, 0x00,
  0x00, 0x58, 0xfe, 0xff, 0xff, 0x20, 0x00, 0x00, 0x00, 0x41, 0x56, 0x32, 0x5f,
  0x50, 0x61, 0x72, 0x74, 0x69, 0x74, 0x69, 0x6f, 0x6e, 0x5f, 0x44, 0x4e, 0x4e,
  0x2f, 0x64, 0x65, 0x6e, 0x73, 0x65, 0x5f, 0x30, 0x2f, 0x4d, 0x61, 0x74, 0x4d,
  0x75, 0x6c, 0x00, 0x00, 0x00, 0x00, 0x02, 0x00, 0x00, 0x00, 0x20, 0x00, 0x00,
  0x00, 0x25, 0x00, 0x00, 0x00, 0x42, 0xff, 0xff, 0xff, 0x00, 0x00, 0x00, 0x01,
  0x10, 0x00, 0x00, 0x00, 0x10, 0x00, 0x00, 0x00, 0x04, 0x00, 0x00, 0x00, 0x44,
  0x00, 0x00, 0x00, 0xa8, 0xfe, 0xff, 0xff, 0x35, 0x00, 0x00, 0x00, 0x41, 0x56,
  0x32, 0x5f, 0x50, 0x61, 0x72, 0x74, 0x69, 0x74, 0x69, 0x6f, 0x6e, 0x5f, 0x44,
  0x4e, 0x4e, 0x2f, 0x6f, 0x75, 0x74, 0x70, 0x75, 0x74, 0x5f, 0x6c, 0x61, 0x79,
  0x65, 0x72, 0x2f, 0x42, 0x69, 0x61, 0x73, 0x41, 0x64, 0x64, 0x2f, 0x52, 0x65,
  0x61, 0x64, 0x56, 0x61, 0x72, 0x69, 0x61, 0x62, 0x6c, 0x65, 0x4f, 0x70, 0x00,
  0x00, 0x00, 0x01, 0x00, 0x00, 0x00, 0x01, 0x00, 0x00, 0x00, 0xa2, 0xff, 0xff,
  0xff, 0x00, 0x00, 0x00, 0x01, 0x10, 0x00, 0x00, 0x00, 0x10, 0x00, 0x00, 0x00,
  0x03, 0x00, 0x00, 0x00, 0x40, 0x00, 0x00, 0x00, 0x08, 0xff, 0xff, 0xff, 0x30,
  0x00, 0x00, 0x00, 0x41, 0x56, 0x32, 0x5f, 0x50, 0x61, 0x72, 0x74, 0x69, 0x74,
  0x69, 0x6f, 0x6e, 0x5f, 0x44, 0x4e, 0x4e, 0x2f, 0x64, 0x65, 0x6e, 0x73, 0x65,
  0x5f, 0x31, 0x2f, 0x42, 0x69, 0x61, 0x73, 0x41, 0x64, 0x64, 0x2f, 0x52, 0x65,
  0x61, 0x64, 0x56, 0x61, 0x72, 0x69, 0x61, 0x62, 0x6c, 0x65, 0x4f, 0x70, 0x00,
  0x00, 0x00, 0x00, 0x01, 0x00, 0x00, 0x00, 0x10, 0x00, 0x00, 0x00, 0x00, 0x00,
  0x16, 0x00, 0x18, 0x00, 0x14, 0x00, 0x00, 0x00, 0x10, 0x00, 0x0c, 0x00, 0x08,
  0x00, 0x00, 0x00, 0x00, 0x00, 0x00, 0x00, 0x07, 0x00, 0x16, 0x00, 0x00, 0x00,
  0x00, 0x00, 0x00, 0x01, 0x10, 0x00, 0x00, 0x00, 0x10, 0x00, 0x00, 0x00, 0x02,
  0x00, 0x00, 0x00, 0x40, 0x00, 0x00, 0x00, 0x7c, 0xff, 0xff, 0xff, 0x30, 0x00,
  0x00, 0x00, 0x41, 0x56, 0x32, 0x5f, 0x50, 0x61, 0x72, 0x74, 0x69, 0x74, 0x69,
  0x6f, 0x6e, 0x5f, 0x44, 0x4e, 0x4e, 0x2f, 0x64, 0x65, 0x6e, 0x73, 0x65, 0x5f,
  0x30, 0x2f, 0x42, 0x69, 0x61, 0x73, 0x41, 0x64, 0x64, 0x2f, 0x52, 0x65, 0x61,
  0x64, 0x56, 0x61, 0x72, 0x69, 0x61, 0x62, 0x6c, 0x65, 0x4f, 0x70, 0x00, 0x00,
  0x00, 0x00, 0x01, 0x00, 0x00, 0x00, 0x20, 0x00, 0x00, 0x00, 0x00, 0x00, 0x16,
  0x00, 0x1c, 0x00, 0x18, 0x00, 0x00, 0x00, 0x14, 0x00, 0x10, 0x00, 0x0c, 0x00,
  0x00, 0x00, 0x00, 0x00, 0x08, 0x00, 0x07, 0x00, 0x16, 0x00, 0x00, 0x00, 0x00,
  0x00, 0x00, 0x01, 0x14, 0x00, 0x00, 0x00, 0x20, 0x00, 0x00, 0x00, 0x20, 0x00,
  0x00, 0x00, 0x01, 0x00, 0x00, 0x00, 0x34, 0x00, 0x00, 0x00, 0x02, 0x00, 0x00,
  0x00, 0xff, 0xff, 0xff, 0xff, 0x25, 0x00, 0x00, 0x00, 0x04, 0x00, 0x04, 0x00,
  0x04, 0x00, 0x00, 0x00, 0x17, 0x00, 0x00, 0x00, 0x73, 0x65, 0x72, 0x76, 0x69,
  0x6e, 0x67, 0x5f, 0x64, 0x65, 0x66, 0x61, 0x75, 0x6c, 0x74, 0x5f, 0x69, 0x6e,
  0x70, 0x75, 0x74, 0x3a, 0x30, 0x00, 0x02, 0x00, 0x00, 0x00, 0x01, 0x00, 0x00,
  0x00, 0x25, 0x00, 0x00, 0x00, 0x02, 0x00, 0x00, 0x00, 0x20, 0x00, 0x00, 0x00,
  0x04, 0x00, 0x00, 0x00, 0xf4, 0xff, 0xff, 0xff, 0x0e, 0x00, 0x00, 0x00, 0x00,
  0x00, 0x00, 0x0e, 0x0c, 0x00, 0x0c, 0x00, 0x0b, 0x00, 0x00, 0x00, 0x00, 0x00,
  0x04, 0x00, 0x0c, 0x00, 0x00, 0x00, 0x09, 0x00, 0x00, 0x00, 0x00, 0x00, 0x00,
  0x09
};

// unsigned int a3_qp96_128_160_luma_BLOCK_16X16_intra_tflite_len = 9244;
