/*
 * Copyright (c) 2023, Alliance for Open Media. All rights reserved
 *
 * This source code is subject to the terms of the BSD 2 Clause License and
 * the Alliance for Open Media Patent License 1.0. If the BSD 2 Clause License
 * was not distributed with this source code in the LICENSE file, you can
 * obtain it at www.aomedia.org/license/software. If the Alliance for Open
 * Media Patent License 1.0 was not distributed with this source code in the
 * PATENTS file, you can obtain it at www.aomedia.org/license/patent.
 */

unsigned char a3_qp96_128_160_luma_BLOCK_128X128_intra_tflite[] = {
  0x1c, 0x00, 0x00, 0x00, 0x54, 0x46, 0x4c, 0x33, 0x14, 0x00, 0x20, 0x00, 0x1c,
  0x00, 0x18, 0x00, 0x14, 0x00, 0x10, 0x00, 0x0c, 0x00, 0x00, 0x00, 0x08, 0x00,
  0x04, 0x00, 0x14, 0x00, 0x00, 0x00, 0x1c, 0x00, 0x00, 0x00, 0x88, 0x00, 0x00,
  0x00, 0xe0, 0x00, 0x00, 0x00, 0x80, 0x1d, 0x00, 0x00, 0x90, 0x1d, 0x00, 0x00,
  0xb8, 0x23, 0x00, 0x00, 0x03, 0x00, 0x00, 0x00, 0x01, 0x00, 0x00, 0x00, 0x04,
  0x00, 0x00, 0x00, 0x32, 0xe2, 0xff, 0xff, 0x0c, 0x00, 0x00, 0x00, 0x1c, 0x00,
  0x00, 0x00, 0x40, 0x00, 0x00, 0x00, 0x0f, 0x00, 0x00, 0x00, 0x73, 0x65, 0x72,
  0x76, 0x69, 0x6e, 0x67, 0x5f, 0x64, 0x65, 0x66, 0x61, 0x75, 0x6c, 0x74, 0x00,
  0x01, 0x00, 0x00, 0x00, 0x04, 0x00, 0x00, 0x00, 0x94, 0xff, 0xff, 0xff, 0x0a,
  0x00, 0x00, 0x00, 0x04, 0x00, 0x00, 0x00, 0x0c, 0x00, 0x00, 0x00, 0x6f, 0x75,
  0x74, 0x70, 0x75, 0x74, 0x5f, 0x6c, 0x61, 0x79, 0x65, 0x72, 0x00, 0x00, 0x00,
  0x00, 0x01, 0x00, 0x00, 0x00, 0x04, 0x00, 0x00, 0x00, 0x86, 0xe3, 0xff, 0xff,
  0x04, 0x00, 0x00, 0x00, 0x05, 0x00, 0x00, 0x00, 0x69, 0x6e, 0x70, 0x75, 0x74,
  0x00, 0x00, 0x00, 0x02, 0x00, 0x00, 0x00, 0x34, 0x00, 0x00, 0x00, 0x04, 0x00,
  0x00, 0x00, 0xdc, 0xff, 0xff, 0xff, 0x0d, 0x00, 0x00, 0x00, 0x04, 0x00, 0x00,
  0x00, 0x13, 0x00, 0x00, 0x00, 0x43, 0x4f, 0x4e, 0x56, 0x45, 0x52, 0x53, 0x49,
  0x4f, 0x4e, 0x5f, 0x4d, 0x45, 0x54, 0x41, 0x44, 0x41, 0x54, 0x41, 0x00, 0x08,
  0x00, 0x0c, 0x00, 0x08, 0x00, 0x04, 0x00, 0x08, 0x00, 0x00, 0x00, 0x0c, 0x00,
  0x00, 0x00, 0x04, 0x00, 0x00, 0x00, 0x13, 0x00, 0x00, 0x00, 0x6d, 0x69, 0x6e,
  0x5f, 0x72, 0x75, 0x6e, 0x74, 0x69, 0x6d, 0x65, 0x5f, 0x76, 0x65, 0x72, 0x73,
  0x69, 0x6f, 0x6e, 0x00, 0x0e, 0x00, 0x00, 0x00, 0x9c, 0x1c, 0x00, 0x00, 0x94,
  0x1c, 0x00, 0x00, 0x04, 0x1c, 0x00, 0x00, 0xac, 0x1b, 0x00, 0x00, 0x98, 0x1b,
  0x00, 0x00, 0x08, 0x09, 0x00, 0x00, 0xf8, 0x00, 0x00, 0x00, 0xa8, 0x00, 0x00,
  0x00, 0xa0, 0x00, 0x00, 0x00, 0x98, 0x00, 0x00, 0x00, 0x90, 0x00, 0x00, 0x00,
  0x88, 0x00, 0x00, 0x00, 0x68, 0x00, 0x00, 0x00, 0x04, 0x00, 0x00, 0x00, 0x32,
  0xe4, 0xff, 0xff, 0x04, 0x00, 0x00, 0x00, 0x54, 0x00, 0x00, 0x00, 0x0c, 0x00,
  0x00, 0x00, 0x08, 0x00, 0x0e, 0x00, 0x08, 0x00, 0x04, 0x00, 0x08, 0x00, 0x00,
  0x00, 0x10, 0x00, 0x00, 0x00, 0x24, 0x00, 0x00, 0x00, 0x00, 0x00, 0x06, 0x00,
  0x08, 0x00, 0x04, 0x00, 0x06, 0x00, 0x00, 0x00, 0x04, 0x00, 0x00, 0x00, 0x00,
  0x00, 0x00, 0x00, 0x00, 0x00, 0x0a, 0x00, 0x10, 0x00, 0x0c, 0x00, 0x08, 0x00,
  0x04, 0x00, 0x0a, 0x00, 0x00, 0x00, 0x02, 0x00, 0x00, 0x00, 0x02, 0x00, 0x00,
  0x00, 0x04, 0x00, 0x00, 0x00, 0x06, 0x00, 0x00, 0x00, 0x32, 0x2e, 0x31, 0x36,
  0x2e, 0x30, 0x00, 0x00, 0x92, 0xe4, 0xff, 0xff, 0x04, 0x00, 0x00, 0x00, 0x10,
  0x00, 0x00, 0x00, 0x31, 0x2e, 0x31, 0x34, 0x2e, 0x30, 0x00, 0x00, 0x00, 0x00,
  0x00, 0x00, 0x00, 0x00, 0x00, 0x00, 0x04, 0xde, 0xff, 0xff, 0x08, 0xde, 0xff,
  0xff, 0x0c, 0xde, 0xff, 0xff, 0x10, 0xde, 0xff, 0xff, 0xbe, 0xe4, 0xff, 0xff,
  0x04, 0x00, 0x00, 0x00, 0x40, 0x00, 0x00, 0x00, 0x11, 0x0a, 0xec, 0xbe, 0x50,
  0xa5, 0x05, 0x3f, 0x18, 0x6b, 0x27, 0xbf, 0x9c, 0x2e, 0xfc, 0x3e, 0x60, 0x94,
  0x98, 0x3e, 0x48, 0xc6, 0xa3, 0xbb, 0xf5, 0x9f, 0x99, 0xbe, 0x3b, 0x38, 0x47,
  0xbf, 0xb1, 0xc0, 0xc6, 0xbe, 0x85, 0x02, 0xcc, 0xbc, 0x8d, 0x14, 0x42, 0xbe,
  0x68, 0x0c, 0xe6, 0x3e, 0xf5, 0x2c, 0xc3, 0x3e, 0x2f, 0x48, 0x85, 0xbe, 0x28,
  0xd4, 0xc0, 0x3e, 0x55, 0x3a, 0x30, 0x3c, 0x0a, 0xe5, 0xff, 0xff, 0x04, 0x00,
  0x00, 0x00, 0x00, 0x08, 0x00, 0x00, 0xae, 0xf1, 0xa0, 0x3d, 0x49, 0x27, 0x68,
  0x3e, 0xc1, 0x1c, 0xd3, 0x3d, 0x15, 0x0f, 0x6c, 0xbe, 0x3a, 0xab, 0x58, 0x3e,
  0x30, 0xa3, 0xc0, 0x3d, 0x5d, 0xcb, 0x96, 0x3e, 0xb8, 0xb9, 0x06, 0xbe, 0x64,
  0x8e, 0x3e, 0xbe, 0xa6, 0x02, 0x30, 0xbe, 0x3a, 0x1c, 0x9e, 0xbe, 0xe0, 0xbd,
  0xf8, 0x3e, 0x7a, 0x42, 0x8a, 0x3e, 0x71, 0xa2, 0x9d, 0xbe, 0x11, 0x30, 0xbb,
  0xbd, 0xc3, 0x68, 0x5e, 0x3e, 0xdf, 0xae, 0x4d, 0x3e, 0xa3, 0xfb, 0x7e, 0xbc,
  0xb3, 0x3e, 0xfd, 0xbe, 0xfe, 0x65, 0xf2, 0xbd, 0x55, 0x8f, 0x63, 0xbd, 0x28,
  0x2d, 0x34, 0x3e, 0xfd, 0xb6, 0x89, 0xbd, 0xdb, 0x84, 0x75, 0xbe, 0xa0, 0x5b,
  0xab, 0x3e, 0x27, 0x89, 0xb3, 0xbd, 0xa9, 0xc5, 0x59, 0xbd, 0x81, 0xcd, 0x81,
  0x3e, 0xce, 0x9d, 0x04, 0xbe, 0xc1, 0x38, 0x1a, 0xbe, 0xbf, 0x67, 0xe4, 0xba,
  0x19, 0x74, 0x79, 0xbe, 0x93, 0x37, 0x8b, 0x3e, 0x12, 0x74, 0xc5, 0xbd, 0x1a,
  0xad, 0x39, 0x3e, 0x51, 0x95, 0xf9, 0x3c, 0xe2, 0xec, 0xa5, 0x3e, 0x42, 0xe4,
  0x92, 0xbd, 0x51, 0xef, 0x52, 0xbe, 0xfb, 0xab, 0x7a, 0x3e, 0x0c, 0xb6, 0x98,
  0xbe, 0x8f, 0x22, 0x38, 0x3e, 0x53, 0xfa, 0x41, 0xbe, 0x0f, 0x2a, 0x2d, 0x3e,
  0x8c, 0x13, 0xe9, 0x3b, 0xe7, 0x7b, 0xb1, 0x3d, 0x83, 0xff, 0xac, 0x3e, 0xf4,
  0xea, 0x16, 0x3e, 0xc5, 0xfb, 0xe1, 0x3d, 0x63, 0xd1, 0x0d, 0xbd, 0x1e, 0x80,
  0x91, 0x3e, 0x28, 0x12, 0xc0, 0xbe, 0xc1, 0x8c, 0xc5, 0xbe, 0xbf, 0x59, 0x5b,
  0xbe, 0x4c, 0xff, 0x9b, 0x3e, 0x0f, 0x8f, 0xd2, 0x3e, 0x90, 0xe8, 0x0d, 0xbf,
  0x40, 0x49, 0x48, 0xbe, 0xbd, 0xdc, 0x37, 0xbd, 0x2d, 0x57, 0x1a, 0xbe, 0xe8,
  0x55, 0x30, 0x3e, 0xa3, 0x0a, 0xad, 0x3c, 0x02, 0x63, 0x4f, 0xbc, 0x35, 0xed,
  0x86, 0xbe, 0x41, 0x67, 0xb0, 0xbe, 0xcd, 0xda, 0xc7, 0xbd, 0xee, 0x57, 0xda,
  0x3d, 0xe0, 0x41, 0x95, 0x3c, 0xc7, 0xcf, 0x73, 0x3d, 0xc1, 0x19, 0x99, 0x3e,
  0x04, 0x59, 0xb4, 0x3e, 0x06, 0x91, 0x05, 0xbe, 0x37, 0x86, 0xa1, 0xbe, 0x34,
  0x4e, 0x50, 0x3e, 0x07, 0x05, 0x68, 0xbe, 0xda, 0xcb, 0x8e, 0x3d, 0xc1, 0xb4,
  0xd9, 0x3e, 0x70, 0xc2, 0x4e, 0xbe, 0xf3, 0xa8, 0xaa, 0xbe, 0x60, 0xbf, 0x86,
  0xbe, 0xf9, 0x56, 0xc3, 0xbd, 0xd2, 0x9f, 0x1c, 0x3b, 0x73, 0x0f, 0x4c, 0xbd,
  0x5d, 0x21, 0x5a, 0x3c, 0x87, 0x3c, 0xc7, 0xbe, 0x0b, 0xa4, 0xa7, 0x3e, 0xfb,
  0xfd, 0x35, 0x3e, 0x00, 0x92, 0x13, 0xbd, 0x0f, 0xbd, 0x1f, 0x3e, 0xd4, 0x6d,
  0x5c, 0x3e, 0xeb, 0xa9, 0x78, 0xbc, 0x5b, 0x60, 0x83, 0xbe, 0xca, 0x08, 0xa5,
  0x3e, 0xf5, 0xe5, 0xa9, 0xbd, 0xc8, 0xdd, 0x5c, 0x3e, 0xd4, 0xa1, 0x87, 0x3d,
  0xa8, 0x5d, 0xb0, 0x3e, 0xd7, 0x75, 0x84, 0x3e, 0x99, 0x02, 0x94, 0xbe, 0x9e,
  0x62, 0xe7, 0xbc, 0x1e, 0x34, 0xc2, 0x3e, 0x8b, 0x19, 0x90, 0x3e, 0x39, 0xb6,
  0x7e, 0x3e, 0x77, 0x03, 0x02, 0xbe, 0xe8, 0x4e, 0x72, 0xbe, 0xb5, 0xd1, 0xb6,
  0xbd, 0xc4, 0x8f, 0x7f, 0xbe, 0x3f, 0x6d, 0x4c, 0xbe, 0x2d, 0x84, 0x86, 0xbe,
  0x0c, 0x23, 0x87, 0x3e, 0xbf, 0xb5, 0x5d, 0xbe, 0xc6, 0x91, 0xa6, 0xbd, 0x6b,
  0x5a, 0xe5, 0xbd, 0x5a, 0x8f, 0x49, 0x3d, 0x47, 0x76, 0x66, 0x3e, 0x81, 0x34,
  0x9a, 0xbe, 0xfe, 0x55, 0xb3, 0xbc, 0x48, 0x7d, 0x49, 0xbe, 0x3f, 0xe2, 0x3b,
  0x3e, 0xbf, 0xe0, 0xe8, 0x3e, 0xae, 0xeb, 0x9e, 0xbe, 0x92, 0x1d, 0x83, 0xbe,
  0x23, 0x9d, 0x4b, 0xbd, 0x36, 0x18, 0x96, 0xbe, 0xa0, 0x32, 0xb4, 0x3e, 0x34,
  0x28, 0xd5, 0xbc, 0x08, 0x00, 0x58, 0x3d, 0x07, 0x4d, 0xfd, 0x3e, 0xb8, 0x2c,
  0xdb, 0xbd, 0x6d, 0x66, 0x74, 0xbe, 0x6b, 0x14, 0x49, 0x3e, 0xe8, 0x0a, 0x19,
  0x3c, 0x50, 0xad, 0x20, 0xbe, 0xd3, 0x89, 0xc2, 0x3e, 0xea, 0x07, 0xdd, 0x3d,
  0x02, 0x50, 0x1f, 0x3e, 0x0c, 0xc7, 0x70, 0xbe, 0xeb, 0xc1, 0x8f, 0x3e, 0xe0,
  0xac, 0x8b, 0xbd, 0x1c, 0x65, 0xf8, 0x3b, 0xad, 0x2a, 0x8d, 0x3e, 0xc6, 0x6a,
  0xd3, 0x3e, 0xa3, 0xf9, 0x3a, 0xbe, 0xf8, 0x79, 0x41, 0xbd, 0x91, 0x27, 0x12,
  0xbc, 0x0d, 0x31, 0xd7, 0x3c, 0x58, 0x68, 0xa0, 0xbe, 0xf1, 0x7a, 0x91, 0xbd,
  0xc6, 0xec, 0xab, 0x3d, 0xa5, 0x66, 0x52, 0xbd, 0x3d, 0x84, 0xc2, 0x3d, 0xbb,
  0x98, 0xd6, 0x3e, 0x8c, 0x15, 0xf1, 0xbd, 0x53, 0xcf, 0xfc, 0x3d, 0x66, 0x8a,
  0x2c, 0x3d, 0x92, 0xec, 0xb8, 0x3e, 0x20, 0xd8, 0xa3, 0xbe, 0xdf, 0x71, 0x0d,
  0xbe, 0x2a, 0x55, 0x08, 0xbf, 0x20, 0x25, 0x1e, 0x3c, 0x13, 0xfb, 0x7e, 0x35,
  0xb5, 0xf8, 0x5e, 0xb9, 0x76, 0xa6, 0xca, 0xb8, 0x34, 0x53, 0x42, 0xba, 0xef,
  0xe2, 0x08, 0xb9, 0x8f, 0x7b, 0x21, 0xb3, 0xef, 0xe3, 0xfa, 0xb2, 0xe1, 0x14,
  0x2d, 0xb9, 0x94, 0xd3, 0xc9, 0xb1, 0xd8, 0xd4, 0x6e, 0xb9, 0x91, 0x6a, 0x4c,
  0xbb, 0x97, 0x37, 0x23, 0xa4, 0xbd, 0xb1, 0x42, 0xb9, 0x89, 0x6d, 0xd4, 0x0a,
  0x8e, 0x91, 0xc2, 0xb1, 0x81, 0x21, 0x02, 0xa8, 0xf8, 0x72, 0x30, 0xa0, 0x60,
  0xdc, 0xa6, 0x8a, 0xfd, 0xbc, 0x32, 0x38, 0x5d, 0x2a, 0xc3, 0x38, 0x00, 0xb1,
  0x05, 0xba, 0x48, 0xe2, 0x36, 0x0e, 0xbf, 0x3c, 0x23, 0xba, 0xc9, 0x59, 0x93,
  0x9c, 0x73, 0x4d, 0xa1, 0xb5, 0x99, 0xfd, 0x40, 0xb7, 0x98, 0xf6, 0xf7, 0x0a,
  0x68, 0x46, 0x45, 0xbb, 0x33, 0x10, 0x6f, 0xb4, 0x30, 0xb1, 0x6b, 0x0a, 0x94,
  0xba, 0xba, 0x0a, 0x0a, 0x4d, 0x69, 0xb0, 0x98, 0x4d, 0x7a, 0x3e, 0x25, 0xbe,
  0x63, 0xbe, 0xee, 0xd9, 0x16, 0x3d, 0x49, 0x73, 0xc0, 0xbd, 0x26, 0x7f, 0x4b,
  0xbe, 0x25, 0xf8, 0x43, 0xbe, 0xc3, 0x3d, 0x76, 0x3e, 0x57, 0xa3, 0xa6, 0xbe,
  0x70, 0x71, 0x96, 0xbd, 0xc8, 0x10, 0x29, 0xbe, 0x9e, 0x13, 0xe7, 0x3b, 0x20,
  0x17, 0x15, 0xbe, 0x08, 0x19, 0xb7, 0xbe, 0xf7, 0x07, 0x31, 0xbe, 0x35, 0xc9,
  0x73, 0x3e, 0xac, 0xa5, 0xb8, 0x3e, 0x59, 0xe0, 0x89, 0x3e, 0xe1, 0xd3, 0xd6,
  0xbb, 0x9b, 0x97, 0xbd, 0xbd, 0x29, 0x70, 0x13, 0x3e, 0x9c, 0xc1, 0xb0, 0x3e,
  0x8f, 0x53, 0x33, 0x3d, 0x77, 0xc4, 0x03, 0x3c, 0xc3, 0xe2, 0xc9, 0xbe, 0x91,
  0xad, 0x90, 0x3c, 0xe5, 0x5f, 0xd0, 0xbe, 0x1e, 0xd0, 0xcc, 0xbc, 0xd4, 0x67,
  0x7a, 0x3e, 0x1e, 0x42, 0x70, 0xbd, 0x56, 0x94, 0x62, 0x3a, 0x3e, 0xae, 0xda,
  0x3e, 0x00, 0x21, 0x67, 0xbe, 0xfd, 0xdb, 0x75, 0xbd, 0xd7, 0x87, 0x0d, 0xbf,
  0x97, 0xf6, 0x95, 0x3e, 0xad, 0x68, 0x30, 0x3e, 0x68, 0x41, 0xae, 0x3e, 0xef,
  0xe6, 0x8d, 0xbe, 0x2f, 0x70, 0xab, 0xbc, 0x96, 0x72, 0x64, 0x3e, 0xe8, 0x83,
  0x90, 0x3d, 0x15, 0x23, 0xbe, 0xbd, 0xcd, 0x6b, 0x7b, 0xbe, 0x30, 0xa2, 0x5f,
  0xba, 0x9b, 0x8c, 0x2b, 0x3d, 0x5c, 0x5d, 0xf4, 0xbe, 0x06, 0x21, 0xe5, 0xbe,
  0xf3, 0x9f, 0x47, 0xbd, 0x8e, 0x1e, 0xf7, 0xba, 0x9f, 0x5f, 0x49, 0x3c, 0x21,
  0x08, 0x26, 0x3e, 0xe1, 0x98, 0x8f, 0x3e, 0xc2, 0x96, 0xcd, 0x3c, 0x62, 0xfe,
  0x2e, 0xbe, 0x82, 0x63, 0xc4, 0xbe, 0xf0, 0xa2, 0x44, 0xb8, 0x78, 0x28, 0x81,
  0xbd, 0x28, 0x05, 0xe2, 0x3d, 0xd6, 0x77, 0x6a, 0xbc, 0x54, 0xa0, 0x50, 0xbe,
  0x54, 0x10, 0x81, 0xbd, 0x1f, 0x50, 0xde, 0x3b, 0x6c, 0xa5, 0x26, 0xbc, 0xb6,
  0xa4, 0x66, 0xbe, 0x23, 0xd3, 0xab, 0xbd, 0xde, 0xba, 0xa2, 0xbe, 0x4f, 0xe9,
  0x55, 0x3e, 0x47, 0xb9, 0x2c, 0xbd, 0x6d, 0xdc, 0xa9, 0xbe, 0x59, 0x5f, 0x25,
  0x3e, 0xc4, 0xcf, 0x90, 0x3e, 0xca, 0x83, 0x44, 0xbe, 0x3f, 0x4b, 0x13, 0x3e,
  0xbc, 0x15, 0x3e, 0x3e, 0x6a, 0x47, 0xb9, 0x3d, 0x48, 0x39, 0x36, 0x3e, 0x05,
  0x45, 0x31, 0x3d, 0x50, 0x85, 0xd0, 0xbe, 0x8a, 0xb1, 0x81, 0x3c, 0xf0, 0x94,
  0x84, 0x3e, 0xde, 0xff, 0x9a, 0xbd, 0x56, 0xd4, 0x5b, 0xbc, 0xd0, 0xf8, 0x03,
  0x3d, 0x92, 0xd8, 0x44, 0x3d, 0x6f, 0x4a, 0xd7, 0x3c, 0x55, 0x00, 0x08, 0x3e,
  0x38, 0x44, 0x85, 0x3e, 0x21, 0x09, 0xf8, 0xbe, 0xa4, 0x86, 0x09, 0x3f, 0xd3,
  0x23, 0x37, 0xbe, 0x42, 0xdb, 0x0e, 0xbd, 0x08, 0xe1, 0x22, 0xbe, 0x97, 0x60,
  0x23, 0xbe, 0x81, 0x8a, 0x2d, 0x3d, 0xfa, 0x56, 0x23, 0x3f, 0xb8, 0xc5, 0x56,
  0x3e, 0x23, 0xa8, 0x9a, 0x3b, 0xa9, 0x4f, 0x8f, 0xbc, 0x9a, 0x02, 0x33, 0xbd,
  0x41, 0x87, 0xfa, 0xbc, 0x91, 0x98, 0x98, 0xbb, 0xc1, 0x94, 0xc0, 0x3a, 0x4d,
  0x07, 0xc1, 0xbc, 0xd1, 0x4d, 0x32, 0xbd, 0xd1, 0x12, 0x53, 0x3c, 0x17, 0x27,
  0x47, 0x3c, 0x8e, 0x7f, 0x9f, 0x3b, 0x01, 0x4c, 0x9f, 0x3c, 0xd4, 0x4c, 0x43,
  0xbd, 0xe6, 0xc2, 0xcf, 0xb7, 0x10, 0x37, 0x27, 0x3b, 0xf3, 0xd2, 0xf4, 0x3c,
  0xa5, 0x19, 0x4b, 0x3d, 0xc2, 0x20, 0x8a, 0x31, 0xd1, 0xb8, 0x85, 0x3c, 0x62,
  0x2e, 0x8d, 0xbb, 0x2e, 0xb9, 0xa0, 0x3c, 0x6b, 0x6b, 0x58, 0x39, 0xa1, 0x78,
  0x2a, 0xbd, 0x88, 0x74, 0x15, 0xbd, 0x3e, 0x61, 0x1c, 0x3d, 0x39, 0xb9, 0x99,
  0xbc, 0x18, 0xe7, 0xd1, 0xb9, 0x86, 0xda, 0x26, 0xbc, 0x62, 0xc7, 0x8c, 0xbc,
  0x90, 0x31, 0xc2, 0x9d, 0xd7, 0xd0, 0xb0, 0x3d, 0x8b, 0xc0, 0xb4, 0x3b, 0x2f,
  0x94, 0x49, 0x3d, 0x48, 0x62, 0xba, 0xbe, 0x5d, 0x52, 0x55, 0xbd, 0x5c, 0x14,
  0xa2, 0x3d, 0x5a, 0x45, 0xb1, 0xbd, 0x2a, 0xe5, 0x71, 0xbe, 0xff, 0x51, 0xb4,
  0xbb, 0xcf, 0x09, 0x43, 0xbd, 0xb9, 0x95, 0x3c, 0x3a, 0x08, 0x11, 0xb3, 0x3d,
  0x85, 0xf2, 0x27, 0x3d, 0x55, 0xd2, 0xf5, 0xbc, 0x2b, 0xc2, 0x84, 0xbe, 0x3c,
  0x3c, 0x5d, 0x3c, 0x4c, 0x38, 0x0f, 0xbe, 0x8e, 0x9a, 0x85, 0xbd, 0xf0, 0xb7,
  0x3d, 0xbc, 0x9c, 0x29, 0x8f, 0x39, 0xb9, 0x47, 0xbd, 0x3e, 0x1f, 0x3b, 0xca,
  0x3c, 0xf7, 0x3c, 0x7f, 0xbd, 0xb8, 0x3a, 0x2d, 0xbd, 0xd1, 0xe8, 0xce, 0xba,
  0xd0, 0x73, 0x00, 0xbe, 0x86, 0x7e, 0x2e, 0x3e, 0x2f, 0x85, 0xa1, 0x3d, 0xe9,
  0x62, 0x34, 0x3c, 0x7e, 0x8c, 0x7a, 0x3d, 0xb3, 0x1a, 0xc7, 0xbc, 0xca, 0x08,
  0x12, 0xa4, 0xd6, 0xcf, 0xa7, 0xbd, 0x59, 0x55, 0x21, 0x3e, 0xea, 0x0c, 0xfc,
  0xbe, 0xca, 0x66, 0x8d, 0xbe, 0x41, 0xae, 0x64, 0x3e, 0xf7, 0xbd, 0x68, 0x3e,
  0xfc, 0x17, 0xbc, 0x3e, 0x08, 0x80, 0x66, 0xbe, 0x19, 0x85, 0xc7, 0xbc, 0x6f,
  0xd6, 0x18, 0x3e, 0x8d, 0x87, 0x84, 0xbd, 0x1e, 0xc4, 0x0a, 0xbe, 0xef, 0xa5,
  0x18, 0x3e, 0x8b, 0x9c, 0x0d, 0xbe, 0x2f, 0x0d, 0x7f, 0x3c, 0x2a, 0xad, 0x85,
  0x3d, 0x08, 0x51, 0x4e, 0xbe, 0x9a, 0xfe, 0x8a, 0xbe, 0x39, 0xbc, 0x83, 0xbe,
  0x7d, 0x87, 0x51, 0xbb, 0xdf, 0x9d, 0x95, 0xbe, 0xe7, 0xd7, 0xa6, 0x3e, 0xe1,
  0x57, 0x12, 0x3d, 0xc0, 0xa2, 0x04, 0x3d, 0x9a, 0x4a, 0xbe, 0xbe, 0xf6, 0xca,
  0xfb, 0xbc, 0x30, 0x4a, 0x8b, 0x3e, 0xd8, 0xbf, 0x23, 0x3f, 0x7d, 0xbf, 0xe1,
  0x3c, 0x68, 0x85, 0xe8, 0xbd, 0x74, 0x69, 0x99, 0xbe, 0xd9, 0x63, 0xc7, 0x3d,
  0xaa, 0x94, 0x38, 0x3e, 0x00, 0x27, 0x5c, 0xbe, 0xe3, 0x0d, 0x00, 0xbe, 0x99,
  0xa3, 0x03, 0x3e, 0x55, 0x53, 0x3f, 0xbe, 0x2a, 0x83, 0x95, 0x3e, 0x4c, 0x92,
  0x3c, 0xbe, 0xe6, 0x7f, 0x92, 0x3e, 0x38, 0x4d, 0x82, 0xbe, 0xd3, 0x2f, 0x11,
  0xbe, 0xac, 0xd8, 0x54, 0xbe, 0x56, 0x51, 0xf3, 0x3d, 0x7b, 0xe0, 0x9e, 0xbe,
  0x7d, 0xdf, 0x32, 0xbe, 0x85, 0xd9, 0xaf, 0x3e, 0x68, 0x0a, 0x1b, 0x3f, 0x91,
  0xc6, 0x86, 0x3e, 0xa7, 0x99, 0x92, 0x3e, 0x67, 0xf6, 0x32, 0x3d, 0x5a, 0x9c,
  0xc5, 0xbb, 0x5d, 0x06, 0x5f, 0x3e, 0x88, 0x6b, 0x83, 0x3e, 0xeb, 0xa7, 0x9e,
  0x3d, 0x84, 0x12, 0x10, 0x3e, 0xb9, 0xb8, 0xc1, 0xbd, 0xca, 0xef, 0x6b, 0x3d,
  0x57, 0xd3, 0x02, 0xbe, 0x50, 0x43, 0xa1, 0x3e, 0x5c, 0x0d, 0xa1, 0x3c, 0x34,
  0x87, 0xaa, 0xbe, 0xeb, 0x9e, 0x4a, 0xbe, 0xf8, 0xad, 0x11, 0xbd, 0x84, 0xa4,
  0x71, 0x3d, 0xca, 0x9e, 0xed, 0xbd, 0x15, 0x6f, 0x0e, 0xbc, 0x77, 0x42, 0xc3,
  0xbd, 0x58, 0xc5, 0x9a, 0x3d, 0x1d, 0x57, 0x50, 0x3c, 0xb5, 0xfd, 0xef, 0x3d,
  0x00, 0x64, 0x17, 0x3d, 0x88, 0x65, 0x0b, 0x3e, 0x05, 0x02, 0x8d, 0xbc, 0x7a,
  0x4a, 0xc8, 0xbc, 0x13, 0x03, 0x72, 0x3c, 0x89, 0xdf, 0x26, 0xbe, 0x66, 0x08,
  0x4a, 0x3e, 0x95, 0xc1, 0xa9, 0xbd, 0x7a, 0xd9, 0xb0, 0x3c, 0xc3, 0x6b, 0x3a,
  0xbe, 0x57, 0x66, 0x5a, 0x3e, 0xe2, 0x1b, 0x70, 0xbe, 0x43, 0x3c, 0xc8, 0x38,
  0x7d, 0x62, 0xe8, 0xbd, 0x9d, 0x65, 0x4f, 0xbd, 0xa7, 0xcd, 0x32, 0xbd, 0x65,
  0x07, 0x0f, 0xbb, 0xb1, 0x8e, 0x89, 0xbc, 0x56, 0x6d, 0x42, 0xbd, 0x6e, 0xa4,
  0x41, 0x3e, 0x8f, 0xda, 0x14, 0xbd, 0xa8, 0xa6, 0x51, 0x3b, 0x62, 0xc8, 0x4e,
  0xbe, 0x52, 0x12, 0x9c, 0xbd, 0x5a, 0xdc, 0xa1, 0x3b, 0xbd, 0x90, 0x94, 0x3e,
  0xe6, 0x1d, 0x77, 0x3e, 0x36, 0xf8, 0x53, 0x3b, 0x4d, 0x92, 0xb9, 0x3e, 0x53,
  0x00, 0xd1, 0x3e, 0x95, 0xfd, 0xa7, 0x3d, 0xed, 0x1b, 0x8a, 0xbe, 0xc8, 0x4d,
  0x71, 0xbe, 0x2c, 0xc8, 0x9b, 0x3e, 0x88, 0x33, 0x5a, 0x3d, 0xf8, 0x76, 0x8a,
  0xbe, 0x92, 0xe1, 0x88, 0xbe, 0x91, 0xa4, 0x9f, 0x3e, 0x9a, 0xc4, 0xab, 0x3e,
  0xc3, 0x35, 0xb5, 0x3e, 0xc5, 0x87, 0xb7, 0x3e, 0xaa, 0x87, 0x4f, 0xbe, 0xee,
  0x88, 0x2f, 0xbe, 0xaf, 0xb1, 0xd0, 0xbe, 0xe5, 0x68, 0xfc, 0x3b, 0x1f, 0x7c,
  0x82, 0xbe, 0xf4, 0xc0, 0x47, 0x3e, 0x6d, 0xd3, 0x88, 0xbc, 0xc2, 0x18, 0xca,
  0x3d, 0xcb, 0xc8, 0xb3, 0x3e, 0xa2, 0x56, 0x87, 0x3e, 0x45, 0x38, 0x73, 0x3e,
  0x52, 0x52, 0x9d, 0xbd, 0x0f, 0x0b, 0x08, 0x3d, 0x02, 0x94, 0x11, 0xbe, 0x5a,
  0x34, 0x16, 0xbe, 0x10, 0xbc, 0xd6, 0x3d, 0xab, 0xb5, 0x1c, 0xbd, 0x82, 0x5e,
  0x21, 0xbe, 0x80, 0x3a, 0xa0, 0xbb, 0x17, 0x14, 0x1b, 0xbc, 0x59, 0x97, 0x16,
  0xbb, 0x5b, 0xb8, 0x1b, 0xbb, 0xf0, 0xbd, 0x97, 0xbb, 0x86, 0xa8, 0x33, 0x39,
  0xe0, 0x0c, 0x86, 0xba, 0x39, 0x58, 0xc6, 0xb9, 0x3d, 0x4d, 0xc7, 0x3b, 0xbe,
  0x4b, 0x63, 0xb9, 0x6e, 0x4e, 0x9a, 0xbd, 0x0c, 0xab, 0x92, 0xbb, 0xb1, 0x19,
  0x04, 0xbc, 0x51, 0x93, 0xe8, 0xaa, 0x7b, 0xcf, 0x63, 0xbc, 0x5e, 0x87, 0x0b,
  0xbc, 0xc1, 0x06, 0xd3, 0xbb, 0x1a, 0xcb, 0x78, 0x8b, 0xc9, 0xb1, 0xbe, 0x3b,
  0xb5, 0xb8, 0xf7, 0xb9, 0x89, 0x29, 0x70, 0xbc, 0x55, 0x2a, 0x07, 0x2d, 0x76,
  0x9e, 0x93, 0x3c, 0xf2, 0xdc, 0x5c, 0x3a, 0x9e, 0xd0, 0xe3, 0x3b, 0x0d, 0x8a,
  0x63, 0x34, 0x3a, 0x7a, 0x94, 0x0b, 0xb0, 0xf5, 0x8e, 0xbc, 0xb5, 0x27, 0x6e,
  0xba, 0x56, 0xd9, 0xe6, 0x0a, 0x8a, 0xbd, 0xac, 0x3a, 0x03, 0x87, 0x86, 0x3a,
  0x16, 0xed, 0xff, 0xff, 0x04, 0x00, 0x00, 0x00, 0x80, 0x12, 0x00, 0x00, 0x74,
  0x98, 0xa1, 0xbe, 0xf2, 0xa3, 0x28, 0x3d, 0xd1, 0xef, 0x37, 0xbe, 0xe9, 0xc1,
  0x11, 0x3e, 0xdf, 0xec, 0x6f, 0xbe, 0xb6, 0x58, 0x93, 0x3e, 0x24, 0xb1, 0xa8,
  0x3e, 0x9b, 0x8c, 0xff, 0xbd, 0x93, 0xd2, 0x84, 0xbe, 0xd0, 0xe1, 0x06, 0xbd,
  0xd4, 0xd5, 0x6d, 0xbd, 0x05, 0x58, 0x04, 0xbe, 0x6d, 0x4f, 0xba, 0x3d, 0x59,
  0x2a, 0xab, 0x3d, 0x9c, 0x43, 0x6e, 0xbe, 0x3f, 0xdf, 0x05, 0x3e, 0xd0, 0xde,
  0x8a, 0xbd, 0x45, 0x90, 0x56, 0xbe, 0xb9, 0x4a, 0x2f, 0x3e, 0xcb, 0x43, 0x47,
  0xbe, 0x4d, 0x7f, 0x73, 0xbe, 0xce, 0x5d, 0x33, 0x3e, 0x31, 0x37, 0xee, 0x3d,
  0x49, 0x00, 0x7a, 0x3c, 0x41, 0x68, 0x39, 0xbe, 0xc1, 0xdb, 0xdb, 0x3d, 0xd0,
  0xe0, 0x0c, 0x3e, 0x7b, 0x84, 0x57, 0x3e, 0xa6, 0x54, 0x1f, 0xbe, 0xed, 0x31,
  0x5a, 0x3e, 0x3f, 0x2f, 0x32, 0xbe, 0x39, 0xa1, 0x7e, 0x3e, 0xc8, 0xe8, 0x39,
  0xbe, 0x66, 0x09, 0x0e, 0x3e, 0x20, 0x19, 0x0b, 0xbd, 0xa6, 0x26, 0x28, 0x3e,
  0xd5, 0x55, 0x76, 0x3e, 0x82, 0xfe, 0x09, 0xbf, 0xcb, 0x2c, 0x3b, 0x3e, 0x82,
  0x52, 0xf6, 0x3d, 0x43, 0x2f, 0x0d, 0x3e, 0x4c, 0xed, 0xf5, 0x3d, 0x2a, 0xe7,
  0x32, 0x3e, 0xed, 0xc4, 0xcd, 0x3d, 0x67, 0xd0, 0xbf, 0x3c, 0x4a, 0x68, 0x82,
  0xbe, 0xaa, 0x22, 0x05, 0xbe, 0x9d, 0x1a, 0x94, 0xbd, 0x0d, 0x71, 0x9f, 0xbd,
  0xe1, 0x8b, 0x80, 0x3d, 0xf0, 0xeb, 0x25, 0x3d, 0xb8, 0x28, 0x02, 0x3e, 0x2d,
  0x28, 0x4f, 0xbe, 0x18, 0x63, 0x97, 0x3d, 0xa3, 0xdc, 0x67, 0x3d, 0x3a, 0x93,
  0x48, 0x3d, 0xbc, 0x6f, 0x9f, 0x3c, 0xba, 0x7f, 0x8e, 0x3e, 0x07, 0x41, 0xfd,
  0x3d, 0x88, 0x1d, 0xb9, 0xbc, 0xb4, 0x5e, 0xdf, 0x3d, 0xcf, 0xb8, 0xb7, 0x3d,
  0x2a, 0x28, 0xf0, 0xbd, 0x40, 0x53, 0x36, 0x3d, 0x2c, 0x7f, 0x87, 0x3e, 0x9c,
  0x37, 0x42, 0x3e, 0x5d, 0x07, 0xda, 0xbd, 0x72, 0x1d, 0x39, 0xbe, 0x24, 0xa3,
  0x45, 0x3e, 0xb7, 0x92, 0x01, 0xbd, 0x62, 0x16, 0x31, 0x3e, 0x39, 0x77, 0x78,
  0xbe, 0x73, 0x55, 0x5f, 0x3d, 0x77, 0xec, 0x8d, 0x3e, 0xad, 0xf7, 0x91, 0xbd,
  0x61, 0xbf, 0x0c, 0x3f, 0xa8, 0x2d, 0xd7, 0xbd, 0x11, 0x27, 0x10, 0xbe, 0xe3,
  0x62, 0xeb, 0x3e, 0x17, 0x45, 0xa5, 0xbd, 0x02, 0xcd, 0x31, 0x3b, 0x54, 0xd3,
  0x40, 0x3e, 0xd9, 0xf1, 0x9e, 0x3e, 0x15, 0x4c, 0x30, 0x3d, 0xf7, 0x5f, 0x7c,
  0x3c, 0xda, 0x54, 0xe3, 0x3d, 0xe1, 0x9b, 0x14, 0x3e, 0x79, 0x17, 0x26, 0xbe,
  0x8d, 0x76, 0x5d, 0x3d, 0x64, 0x2c, 0x91, 0xbe, 0x6d, 0x1b, 0x42, 0x3e, 0x39,
  0x8f, 0x36, 0x3d, 0x25, 0xd2, 0x7e, 0xbc, 0x43, 0x9d, 0x1c, 0xbe, 0x29, 0x4f,
  0x45, 0x3c, 0x4b, 0xa3, 0xbf, 0xbc, 0xd5, 0x7d, 0x82, 0x3d, 0x3b, 0x9a, 0x1f,
  0xbd, 0xa0, 0x0f, 0xe6, 0x3d, 0x7e, 0x00, 0x7d, 0x3d, 0x9d, 0x0a, 0x5c, 0xbe,
  0xbd, 0x39, 0xdc, 0xbb, 0xf8, 0xe2, 0xff, 0x3d, 0xe3, 0x95, 0x91, 0x3c, 0x39,
  0x5e, 0x79, 0x3e, 0xe2, 0x11, 0x78, 0xbe, 0xc7, 0x95, 0x34, 0x3d, 0x7d, 0x66,
  0xab, 0xbe, 0x07, 0xaa, 0x0b, 0x3e, 0x9d, 0x59, 0xd6, 0x3d, 0xda, 0x52, 0x30,
  0x3e, 0xd5, 0xe9, 0xd0, 0xbe, 0x66, 0x64, 0x0d, 0x3f, 0xf0, 0xd8, 0x8e, 0xbb,
  0x2c, 0xf4, 0xaa, 0xbd, 0xee, 0x80, 0x86, 0x3e, 0xf8, 0x45, 0x33, 0xbe, 0x90,
  0x3c, 0xc5, 0xbb, 0x6b, 0xcd, 0x41, 0x3e, 0x6a, 0x66, 0x31, 0xbe, 0x29, 0x0f,
  0x2f, 0x3e, 0xdf, 0xcf, 0x6c, 0x3c, 0x38, 0x82, 0xb4, 0x3d, 0xec, 0x95, 0x4d,
  0x3e, 0xce, 0xb2, 0x75, 0x3d, 0xc5, 0xb3, 0x86, 0x3e, 0xd4, 0x69, 0x01, 0xbe,
  0x79, 0xe1, 0xf7, 0x3d, 0xf4, 0xca, 0xa6, 0x3e, 0xf2, 0x37, 0x90, 0x3e, 0x46,
  0x76, 0x6d, 0x3e, 0x1e, 0x86, 0x03, 0xbe, 0xa4, 0x63, 0x6d, 0x3e, 0x53, 0xf2,
  0x94, 0x3e, 0x05, 0x12, 0x81, 0x3e, 0x6a, 0x48, 0x19, 0xbe, 0xc3, 0xb3, 0x79,
  0x3e, 0xf6, 0xe6, 0x9a, 0x3e, 0x07, 0x95, 0x44, 0xbd, 0x21, 0xde, 0xf7, 0x3d,
  0x58, 0x53, 0x3b, 0xbe, 0xfa, 0xcd, 0x8a, 0x3e, 0xd2, 0xcd, 0x5c, 0xbe, 0xcb,
  0x45, 0x1b, 0x3d, 0x1d, 0x8c, 0x4a, 0xbe, 0x97, 0x7e, 0x69, 0x3e, 0x58, 0x25,
  0x6b, 0xbe, 0x41, 0xc2, 0xe9, 0xbd, 0x85, 0x55, 0x7c, 0xbd, 0xe5, 0x6a, 0x08,
  0x3f, 0x88, 0x2b, 0x1c, 0xbe, 0xce, 0x57, 0xa8, 0xbd, 0xb4, 0xc0, 0x64, 0x3e,
  0xe9, 0x38, 0x9d, 0x3d, 0xfd, 0xed, 0x0e, 0x3e, 0x1b, 0xaf, 0x0d, 0xbd, 0x58,
  0xed, 0x0b, 0xbe, 0x78, 0x8f, 0x53, 0xbd, 0x2a, 0xef, 0x08, 0x3e, 0x7b, 0xec,
  0x1a, 0x3e, 0x13, 0x6b, 0xb0, 0x3e, 0xd0, 0x16, 0xe0, 0xbe, 0x90, 0x75, 0xa2,
  0xbb, 0x75, 0x41, 0xed, 0xbd, 0x91, 0xe6, 0x80, 0xbe, 0x8e, 0x6f, 0x3d, 0x3d,
  0xd0, 0x5f, 0xd6, 0x3d, 0xde, 0x61, 0x45, 0xbe, 0x17, 0x7d, 0x7f, 0xbe, 0x27,
  0x53, 0x5a, 0x3d, 0x61, 0x3d, 0x16, 0x3e, 0x61, 0xa5, 0x38, 0xbd, 0x8e, 0xff,
  0x0f, 0x3e, 0x5f, 0x50, 0x52, 0x3e, 0xe1, 0x65, 0x96, 0x3e, 0xdd, 0x36, 0xa5,
  0x3d, 0xea, 0x10, 0x6e, 0x3c, 0xcb, 0x1d, 0x43, 0x3e, 0x1c, 0xca, 0x79, 0x3e,
  0x44, 0xf1, 0xe7, 0x3d, 0x95, 0x8c, 0x19, 0x3e, 0x79, 0xd0, 0xac, 0xbd, 0x58,
  0x81, 0x2c, 0xbe, 0x11, 0x82, 0x85, 0xbe, 0xea, 0x0b, 0x50, 0xbe, 0x13, 0x04,
  0xe1, 0x3b, 0xef, 0xc6, 0x19, 0x3e, 0x13, 0x41, 0x21, 0xbe, 0xd7, 0xbd, 0x6b,
  0x3e, 0x8c, 0x30, 0x09, 0x3e, 0x73, 0x21, 0xa3, 0x3e, 0xc7, 0x32, 0xa8, 0x3e,
  0x2e, 0x8a, 0x70, 0xbd, 0x11, 0xe1, 0xc1, 0xbd, 0x3d, 0xc0, 0x84, 0xbe, 0x5e,
  0x9e, 0xa6, 0xbd, 0xab, 0x3a, 0xd7, 0xbd, 0x45, 0x6c, 0x34, 0x3d, 0x0b, 0xa0,
  0x90, 0xbe, 0x74, 0xcd, 0x4b, 0xbe, 0x7b, 0xc6, 0xf3, 0x3d, 0x82, 0x83, 0x1c,
  0x3e, 0xf4, 0xad, 0x7a, 0xbe, 0xd4, 0x93, 0x9b, 0x3d, 0xe4, 0x3e, 0x0f, 0x3c,
  0xd5, 0x93, 0x42, 0xbe, 0x37, 0x23, 0x7c, 0x3d, 0x95, 0xe8, 0xb1, 0xbc, 0xb2,
  0x96, 0x68, 0xbd, 0xa3, 0x5a, 0x71, 0x3e, 0x2e, 0x36, 0x22, 0xbe, 0x0a, 0xd8,
  0x61, 0x3d, 0x3d, 0x55, 0x6b, 0x3c, 0x71, 0xbc, 0xeb, 0xbd, 0x0e, 0x10, 0x0f,
  0xbe, 0x7c, 0x71, 0xae, 0xbb, 0x81, 0x75, 0x57, 0x3e, 0x55, 0x80, 0xb1, 0x3d,
  0xe8, 0x04, 0x0c, 0x3d, 0x26, 0xe0, 0xfb, 0x3b, 0x09, 0xb4, 0x3f, 0xbe, 0xd6,
  0x7d, 0x68, 0x3c, 0x40, 0x8b, 0xfe, 0x3e, 0xd3, 0x00, 0xd4, 0x3c, 0xcb, 0xa4,
  0x4f, 0xbe, 0x8c, 0xa4, 0xc0, 0x3c, 0xc6, 0xc6, 0x81, 0xbe, 0x83, 0x45, 0x87,
  0x3e, 0xc8, 0x98, 0x42, 0x3d, 0x84, 0xbf, 0x14, 0xbe, 0xf6, 0x12, 0x83, 0xbe,
  0x06, 0x6f, 0x94, 0xbe, 0x6c, 0x0f, 0x34, 0x3e, 0x71, 0x5e, 0x74, 0x3d, 0x82,
  0xae, 0xe2, 0xbd, 0x35, 0x91, 0x2b, 0xbe, 0xbe, 0xb4, 0xcc, 0xbd, 0x55, 0x48,
  0xf2, 0x3d, 0x92, 0x44, 0x46, 0xbd, 0x03, 0xb2, 0x3b, 0x3e, 0x66, 0xac, 0x99,
  0xbe, 0xd1, 0x57, 0x91, 0x3e, 0x2e, 0x7f, 0x0f, 0x3e, 0x2c, 0xda, 0x39, 0xbe,
  0x25, 0xb4, 0x73, 0xbe, 0x83, 0x3d, 0xd4, 0x3c, 0xdb, 0x07, 0x0e, 0x3e, 0x47,
  0x88, 0xbc, 0xbe, 0x12, 0xc4, 0x33, 0xbd, 0xf1, 0x0e, 0x10, 0x3e, 0xf0, 0xbb,
  0x90, 0x3e, 0xd6, 0x06, 0x58, 0x3e, 0x32, 0x4a, 0x3c, 0xbe, 0x24, 0xbe, 0xa7,
  0xbe, 0x7a, 0x51, 0x91, 0xbc, 0x7d, 0x0b, 0x6d, 0x3d, 0xbd, 0x71, 0xa9, 0xbd,
  0xca, 0xb9, 0x19, 0xbe, 0x56, 0xfb, 0x88, 0x3e, 0x31, 0x74, 0x8b, 0xbe, 0x6c,
  0xdb, 0x34, 0x3e, 0x1a, 0xe5, 0x75, 0xbe, 0x97, 0x37, 0x93, 0x3e, 0x58, 0xf2,
  0xa4, 0x3e, 0x82, 0x3b, 0x55, 0x3e, 0x48, 0x4e, 0xbd, 0xbe, 0xe1, 0x9a, 0xc7,
  0xbd, 0x5f, 0xe6, 0x6c, 0xbe, 0x0f, 0xc4, 0x97, 0x3d, 0x5c, 0x6e, 0x15, 0xbd,
  0x3e, 0x30, 0x89, 0xbe, 0x06, 0x0b, 0x72, 0x3e, 0xd9, 0x0b, 0x0b, 0x3e, 0x62,
  0xd1, 0xa1, 0xbd, 0xe5, 0xb5, 0x77, 0xbe, 0x96, 0xb4, 0x94, 0x3e, 0xec, 0x3e,
  0x55, 0x3e, 0x58, 0xea, 0xeb, 0xbd, 0xb7, 0x81, 0xe0, 0x3d, 0xde, 0x3b, 0x06,
  0x3e, 0x3a, 0xe4, 0x7a, 0x3e, 0x9d, 0xcb, 0xd4, 0x3e, 0xff, 0xb6, 0xd2, 0xbd,
  0x94, 0xa3, 0x8b, 0x3e, 0x8b, 0xc2, 0xfb, 0xbd, 0x42, 0x90, 0xe6, 0x3d, 0xe5,
  0x6c, 0xeb, 0x3b, 0xb9, 0x45, 0x1c, 0xbe, 0x2b, 0xb1, 0xfb, 0x3d, 0x3e, 0x92,
  0x22, 0xbe, 0xe2, 0x1a, 0xc7, 0x3d, 0xdd, 0x57, 0x35, 0x3c, 0x78, 0xbb, 0xc5,
  0xbd, 0xf7, 0x5d, 0x5e, 0x3e, 0xee, 0xb5, 0x64, 0x3d, 0x61, 0x7e, 0x8b, 0xbd,
  0xa4, 0x5f, 0xc0, 0x3e, 0xbe, 0xe9, 0x40, 0xbf, 0xed, 0x0c, 0xa1, 0x3e, 0x36,
  0xb0, 0x04, 0x3e, 0xa4, 0x7d, 0x7e, 0xbe, 0x13, 0x71, 0x4e, 0xbe, 0xf6, 0x8a,
  0x5e, 0x3c, 0x5e, 0x18, 0x3f, 0xbe, 0x5d, 0x5c, 0x56, 0xbe, 0x11, 0xc2, 0x33,
  0x3e, 0xf9, 0x47, 0x37, 0x3e, 0x00, 0x07, 0x3b, 0x3d, 0xd3, 0xe3, 0x16, 0x3e,
  0xb8, 0xb0, 0x59, 0xbe, 0xc7, 0xb5, 0x9b, 0x3d, 0xbe, 0x6e, 0x86, 0x3d, 0x3b,
  0x94, 0x83, 0x3d, 0xd2, 0x79, 0x27, 0x3e, 0x5a, 0x05, 0xcd, 0xbd, 0x3f, 0x9f,
  0x29, 0xbe, 0x82, 0x87, 0xa2, 0x3d, 0x41, 0x2e, 0x44, 0x3e, 0x15, 0xb7, 0x5b,
  0x3d, 0xe0, 0x29, 0x04, 0x3e, 0x1f, 0x9f, 0xd8, 0xbd, 0x13, 0x38, 0x3c, 0x3e,
  0xb0, 0xb7, 0x67, 0x3e, 0x1a, 0x66, 0x40, 0x3e, 0x6d, 0xe7, 0xeb, 0x3d, 0x40,
  0xbb, 0x03, 0xbb, 0xb5, 0x52, 0x65, 0xbe, 0xa4, 0xa8, 0x58, 0xbe, 0xe8, 0xb8,
  0x9a, 0xbe, 0x99, 0x74, 0xc6, 0x3c, 0xb5, 0xc5, 0x96, 0xbe, 0xa3, 0x0e, 0x0e,
  0xbe, 0x4b, 0x88, 0x02, 0xbd, 0x87, 0x27, 0x0f, 0xbe, 0x3a, 0x82, 0x52, 0x3e,
  0x80, 0xa1, 0x02, 0x3e, 0x5b, 0x6d, 0x05, 0xbc, 0xdb, 0xb7, 0xb7, 0xbc, 0x5a,
  0x52, 0x9b, 0xbd, 0x0f, 0xe3, 0xa0, 0xbd, 0x9a, 0x8d, 0x7a, 0x3e, 0x8c, 0x5e,
  0x3b, 0xbe, 0xc6, 0x52, 0x18, 0xbd, 0xe5, 0x9a, 0xd1, 0xbd, 0x20, 0x3d, 0x2d,
  0x3e, 0xe9, 0x49, 0x8f, 0xbe, 0x31, 0x99, 0x59, 0x3e, 0x19, 0x67, 0x44, 0xbe,
  0x8b, 0xb9, 0x8c, 0x3b, 0xcb, 0x48, 0x78, 0x3e, 0x55, 0x12, 0xca, 0x3d, 0xab,
  0xe1, 0xa5, 0xbd, 0x3a, 0xd5, 0xde, 0x3d, 0x43, 0xa1, 0xee, 0x3d, 0xad, 0xe2,
  0x6f, 0x3e, 0x02, 0x34, 0x74, 0xbe, 0x38, 0xb6, 0xa3, 0xbb, 0x24, 0x4a, 0xba,
  0xbc, 0x72, 0x21, 0x20, 0xbd, 0xc3, 0x6e, 0x30, 0xbe, 0x1e, 0xef, 0x22, 0x3d,
  0x41, 0xab, 0x19, 0xbd, 0xe1, 0xb2, 0x68, 0x3e, 0x32, 0x26, 0xda, 0x3c, 0xc0,
  0xb6, 0xc2, 0x3d, 0xf8, 0xa8, 0x8f, 0xbe, 0x97, 0x71, 0x30, 0x3e, 0xa9, 0xd3,
  0xb4, 0x3c, 0xe5, 0x52, 0x32, 0xbe, 0xd7, 0x46, 0x95, 0xbc, 0xe5, 0x08, 0x83,
  0xbd, 0x21, 0x93, 0x9e, 0x3c, 0x50, 0x39, 0x0a, 0x3b, 0xd6, 0xb7, 0x15, 0x3b,
  0xce, 0x5b, 0x31, 0x3d, 0x51, 0x72, 0x4c, 0x3e, 0x85, 0xf7, 0x2b, 0xbe, 0x01,
  0x61, 0xb8, 0x3c, 0x68, 0xaa, 0x52, 0x3e, 0xf8, 0x3b, 0x8b, 0x3d, 0x8d, 0x8b,
  0x8e, 0x3e, 0xdf, 0xbf, 0x54, 0x3e, 0x46, 0xd1, 0x30, 0xbe, 0x44, 0xdc, 0x85,
  0x3e, 0xaa, 0xe9, 0xf0, 0xbc, 0xc2, 0x8a, 0x4f, 0x3e, 0x7d, 0xec, 0x2e, 0x3e,
  0xe1, 0x9d, 0x90, 0x3d, 0x2c, 0x35, 0x20, 0xbe, 0x5f, 0x0c, 0x89, 0xbc, 0xad,
  0x74, 0x9e, 0x3e, 0x1a, 0x1e, 0xb9, 0x3c, 0xfb, 0x83, 0x7d, 0x3e, 0x19, 0x79,
  0xc4, 0xbd, 0x75, 0x2b, 0x8b, 0x3e, 0xde, 0xd7, 0x60, 0xbe, 0x9c, 0xbe, 0x9e,
  0x3e, 0x01, 0x52, 0x3a, 0xbd, 0xb2, 0xbc, 0x84, 0xbc, 0x0f, 0xe6, 0x58, 0x3e,
  0x3d, 0x75, 0x60, 0x3c, 0x6e, 0x62, 0x4e, 0xbe, 0x31, 0xc6, 0x19, 0x3e, 0x87,
  0x81, 0x5c, 0xbe, 0xd9, 0x74, 0x4f, 0x3e, 0xb3, 0x75, 0x31, 0x3e, 0x94, 0x52,
  0x3a, 0xbe, 0x96, 0x92, 0xbd, 0x3e, 0x9e, 0xc0, 0xe3, 0xbe, 0xb0, 0x01, 0x9a,
  0x3e, 0x96, 0x84, 0xd5, 0xbd, 0x9d, 0xb5, 0xf4, 0xbd, 0xd0, 0xaa, 0xf3, 0x3d,
  0xe1, 0xa8, 0x5f, 0x3d, 0x9b, 0xd7, 0xef, 0x3d, 0xc8, 0x1f, 0x3a, 0x3e, 0x62,
  0x19, 0x41, 0xbe, 0x44, 0x32, 0x23, 0xbe, 0x33, 0xe6, 0x0e, 0xbd, 0x29, 0x26,
  0x55, 0xbe, 0x6b, 0x75, 0x55, 0xbd, 0x18, 0x8e, 0x60, 0xbe, 0xa1, 0x56, 0x12,
  0xbe, 0x4e, 0xb4, 0x1b, 0xbe, 0x84, 0xfa, 0x06, 0xbe, 0x7a, 0x74, 0x01, 0x3e,
  0x7d, 0xd1, 0xea, 0xbd, 0x89, 0x81, 0x97, 0x3e, 0x9f, 0xc6, 0x6b, 0xbd, 0x37,
  0xf4, 0x50, 0xbe, 0xf6, 0xa2, 0xde, 0xbd, 0x56, 0x65, 0x50, 0xbe, 0x9f, 0xac,
  0xaf, 0x3c, 0xba, 0xe1, 0x1d, 0x3d, 0x97, 0xda, 0xa1, 0x3a, 0x01, 0x8b, 0x5e,
  0x3e, 0x63, 0x76, 0x7b, 0xbe, 0xb6, 0xb3, 0x34, 0xbe, 0x98, 0xe2, 0x82, 0xbe,
  0xed, 0xbd, 0x82, 0xbe, 0x05, 0xd9, 0x32, 0xbe, 0xc6, 0x21, 0x6f, 0x3e, 0x46,
  0xaa, 0x30, 0x3e, 0x4d, 0x93, 0x29, 0xbd, 0x56, 0x5b, 0xa0, 0xbe, 0xf3, 0x23,
  0x34, 0x3f, 0x2f, 0x20, 0xf3, 0xbc, 0x50, 0x67, 0xa0, 0x3e, 0x21, 0x5f, 0x29,
  0x3d, 0xcc, 0x5f, 0x7e, 0xbe, 0x0c, 0x59, 0x09, 0xbd, 0xd8, 0x3f, 0x28, 0xbe,
  0x73, 0x95, 0xf2, 0x3c, 0x08, 0x7b, 0x54, 0x3d, 0x3b, 0xc6, 0x11, 0x3e, 0x77,
  0x71, 0x3f, 0x3e, 0x6e, 0x81, 0xdc, 0x3d, 0xaf, 0xcc, 0x56, 0x3d, 0x87, 0x7b,
  0x32, 0xbe, 0x1b, 0x3e, 0xb7, 0xbd, 0x76, 0x26, 0x38, 0x3e, 0xc6, 0x3a, 0xb9,
  0x3c, 0x8c, 0x63, 0xc0, 0x3d, 0xb6, 0x38, 0xa9, 0x3e, 0xf8, 0x6c, 0x98, 0x3e,
  0xc1, 0x22, 0x33, 0xbe, 0x2d, 0x5e, 0x5c, 0xbe, 0x39, 0xcc, 0x8f, 0xbe, 0x98,
  0x46, 0xf5, 0xbd, 0x1e, 0x63, 0xe8, 0x3d, 0x79, 0x29, 0x33, 0xbe, 0x05, 0x89,
  0xdd, 0xbd, 0xb0, 0x64, 0x9b, 0x3e, 0xb6, 0xd6, 0x0f, 0x3d, 0xf2, 0x27, 0x2c,
  0x3e, 0x0b, 0xe4, 0x60, 0x3e, 0xac, 0x82, 0x16, 0x3e, 0xa5, 0xe6, 0xf9, 0xbd,
  0xa6, 0xe6, 0x8c, 0x3e, 0xdf, 0x09, 0xc7, 0xbd, 0xf8, 0x41, 0x26, 0xbe, 0x2c,
  0x49, 0xa5, 0xbe, 0x1b, 0x48, 0x6b, 0x3e, 0x9e, 0x12, 0x51, 0xbe, 0xd0, 0xb5,
  0x5c, 0xbe, 0x2f, 0x5b, 0x12, 0x3f, 0x8e, 0x94, 0x7d, 0xbe, 0xc3, 0xc9, 0xb9,
  0xbd, 0xc9, 0xe7, 0xac, 0x3d, 0xc6, 0x62, 0x98, 0xbe, 0x46, 0x79, 0x60, 0xbe,
  0xac, 0xbd, 0xa5, 0xbd, 0x78, 0xe0, 0xe1, 0xbd, 0x41, 0x4c, 0x37, 0x3e, 0x3f,
  0x04, 0x7d, 0x3d, 0xe6, 0x9f, 0x00, 0xbc, 0xc1, 0x7c, 0x0e, 0x3c, 0x34, 0xf8,
  0xd6, 0x3c, 0xb4, 0x1c, 0x64, 0x3e, 0xc8, 0xaa, 0x2d, 0x3e, 0x2d, 0xaf, 0x08,
  0x3e, 0x61, 0x8b, 0x69, 0xbe, 0xb3, 0xf2, 0xf3, 0xbd, 0xe9, 0xe9, 0xec, 0x3d,
  0x1b, 0x6a, 0x9a, 0x3e, 0xd8, 0xc0, 0x3d, 0x3e, 0x2d, 0xa5, 0xe7, 0xbc, 0xe3,
  0x2a, 0x89, 0x3e, 0x0f, 0xea, 0x83, 0xbe, 0x69, 0xdb, 0xdd, 0xbd, 0x6f, 0xcb,
  0x43, 0xbe, 0xbd, 0xb9, 0x60, 0xbe, 0x70, 0x03, 0xa8, 0x3d, 0x3c, 0x9d, 0x8c,
  0x3e, 0x6c, 0xef, 0x41, 0x3e, 0x36, 0xa7, 0x9c, 0x3d, 0x0a, 0x35, 0x4a, 0x3e,
  0xdc, 0x9e, 0x64, 0x3e, 0x41, 0xd6, 0x83, 0x3e, 0xd4, 0x3c, 0x60, 0x3e, 0xa0,
  0x66, 0x8b, 0xbe, 0x4e, 0xfd, 0xf2, 0xbd, 0x10, 0xb7, 0x3f, 0x3d, 0xcd, 0x43,
  0xb2, 0xbd, 0x28, 0xf5, 0x0d, 0x3f, 0x4c, 0x49, 0xf8, 0x3d, 0x80, 0xe9, 0x7f,
  0xbe, 0xfc, 0x74, 0xc8, 0xbc, 0xad, 0x15, 0x9f, 0xbe, 0x2e, 0x37, 0x6b, 0xbe,
  0xc3, 0xb2, 0xb0, 0xbe, 0xa5, 0x87, 0x05, 0xbe, 0x35, 0xb4, 0x9d, 0x3e, 0x60,
  0x1a, 0xf4, 0x3c, 0x18, 0x61, 0x7c, 0xbe, 0x3a, 0x0c, 0x05, 0x3e, 0x1a, 0x63,
  0x55, 0x3e, 0x9b, 0xef, 0x9d, 0x3d, 0xee, 0x03, 0xe3, 0x3d, 0xbc, 0xa1, 0xaa,
  0x3c, 0x63, 0xc5, 0x6e, 0xbd, 0x15, 0xf5, 0x7e, 0xbc, 0xb5, 0xea, 0x94, 0x3d,
  0xba, 0x85, 0xf4, 0x3d, 0x75, 0x34, 0xd1, 0x3e, 0x2d, 0x2b, 0x61, 0x3e, 0x45,
  0xca, 0xd2, 0x3c, 0x7d, 0x50, 0xc6, 0x3d, 0x75, 0x73, 0x1d, 0xbd, 0xe1, 0x06,
  0x96, 0x3d, 0x55, 0xc2, 0x88, 0xbe, 0x3b, 0x90, 0x5d, 0x3e, 0xbf, 0xc2, 0x4c,
  0x3e, 0x49, 0x9f, 0x2d, 0xbd, 0x8c, 0x84, 0xa4, 0x3d, 0x29, 0x18, 0xe9, 0x3e,
  0x6d, 0xc9, 0x97, 0x3c, 0xc2, 0xef, 0x2e, 0xbe, 0xf5, 0xb1, 0xcf, 0x3d, 0xda,
  0x69, 0x27, 0xbe, 0xd1, 0xff, 0x83, 0x3e, 0x76, 0x46, 0x72, 0x3e, 0xf4, 0x93,
  0xa8, 0xbe, 0x6a, 0x89, 0x6a, 0xbe, 0x96, 0xe3, 0xb4, 0xbe, 0x0e, 0x62, 0x64,
  0xbe, 0x5f, 0xfd, 0x16, 0xbd, 0x60, 0xc5, 0xab, 0x3d, 0xec, 0x02, 0x02, 0x3e,
  0xa8, 0x87, 0xf8, 0x3d, 0xa6, 0xc5, 0xa6, 0xbb, 0x23, 0xe4, 0x6e, 0x3e, 0xc3,
  0x3c, 0xe5, 0xbc, 0xf7, 0xd1, 0x1e, 0xbd, 0x31, 0x8b, 0x35, 0x3e, 0x05, 0xc6,
  0x0a, 0x3e, 0x7d, 0x8f, 0x01, 0xbe, 0xa3, 0xc4, 0x7d, 0xbd, 0x99, 0xba, 0x74,
  0xbe, 0x29, 0x83, 0xe9, 0xbd, 0x23, 0x55, 0x20, 0xbd, 0xd2, 0xf3, 0x3a, 0x3d,
  0xb3, 0xb1, 0x5a, 0xbe, 0x3c, 0xf6, 0xa3, 0xbd, 0x30, 0xc5, 0x9b, 0xbd, 0xf1,
  0x87, 0x01, 0x3c, 0x88, 0xeb, 0xe2, 0xbd, 0x48, 0xb8, 0x1a, 0x3e, 0x39, 0x5c,
  0x4c, 0xbe, 0x2d, 0x7d, 0x05, 0x3c, 0xf4, 0xbf, 0x3d, 0x3e, 0x22, 0x76, 0x2c,
  0x3d, 0x97, 0xaa, 0x82, 0x3e, 0x6f, 0x1e, 0x7f, 0xbe, 0x26, 0x0d, 0x8a, 0x3d,
  0x0f, 0x3f, 0x75, 0x3e, 0x9a, 0xc8, 0x95, 0xbe, 0x12, 0x74, 0x26, 0x3e, 0x8e,
  0xb7, 0x2c, 0x3e, 0x7c, 0x01, 0xe1, 0xbd, 0xf5, 0xbc, 0xd8, 0x3d, 0xed, 0x38,
  0x83, 0xbe, 0x59, 0x9e, 0x59, 0x3c, 0x7d, 0x1a, 0x64, 0xbe, 0xdf, 0x8d, 0xb7,
  0xbe, 0x13, 0x7c, 0xb6, 0xbd, 0x17, 0x7d, 0x91, 0x3d, 0xde, 0xb1, 0x4f, 0x3d,
  0xf7, 0x70, 0x85, 0xba, 0x7e, 0xde, 0x98, 0xbd, 0xb1, 0x8d, 0x68, 0xbd, 0xc5,
  0xcf, 0x07, 0x3d, 0xd3, 0x71, 0x46, 0xbe, 0xd3, 0x76, 0x44, 0x3e, 0x13, 0xb0,
  0x43, 0x3e, 0xff, 0x84, 0x88, 0xbe, 0x95, 0x61, 0x04, 0x3e, 0xed, 0xd5, 0x95,
  0xbe, 0x5e, 0xc3, 0xfd, 0x3d, 0x68, 0x20, 0x4a, 0xbe, 0x4b, 0x7c, 0xd9, 0xbd,
  0x4f, 0x02, 0xdf, 0xbd, 0xf3, 0x62, 0xce, 0xbc, 0x3e, 0xf2, 0x4d, 0xbe, 0x51,
  0xc9, 0xf3, 0x3d, 0x8c, 0x20, 0x19, 0xbe, 0xe2, 0x7b, 0xa3, 0xbd, 0x83, 0x93,
  0xb2, 0x3d, 0xea, 0xbd, 0xd5, 0xbd, 0xc6, 0x03, 0x5f, 0xbd, 0x95, 0x66, 0x7e,
  0x3b, 0x32, 0x03, 0xf5, 0xbd, 0x50, 0x49, 0xa2, 0xbd, 0xaf, 0xe9, 0xcd, 0xba,
  0x01, 0xd9, 0x82, 0x3d, 0xdc, 0x9f, 0xb1, 0x3d, 0x7c, 0x40, 0x90, 0xbd, 0xf4,
  0x35, 0x7f, 0xbd, 0xa5, 0x70, 0xdf, 0xbc, 0xec, 0xa5, 0x31, 0xbd, 0x79, 0x47,
  0x40, 0x3d, 0xad, 0x30, 0x9e, 0xbd, 0xc3, 0xde, 0x6e, 0xbb, 0x14, 0xb1, 0x55,
  0x3a, 0x70, 0xb6, 0xc8, 0xbc, 0x04, 0xa1, 0xb5, 0xbc, 0x1e, 0x51, 0xb8, 0xbc,
  0x3e, 0x7b, 0x06, 0xbc, 0xa7, 0x47, 0xd4, 0xbb, 0x66, 0x7d, 0x18, 0xbd, 0x76,
  0xe9, 0x04, 0xbc, 0x0d, 0x83, 0x23, 0xbb, 0x55, 0xea, 0x32, 0xbd, 0x6d, 0xb5,
  0x05, 0xbc, 0xde, 0x79, 0xa1, 0xbc, 0xeb, 0xda, 0x1c, 0x3c, 0xe8, 0x68, 0x75,
  0xbd, 0x47, 0x2a, 0x98, 0xbc, 0x0e, 0x86, 0xca, 0x3b, 0xe2, 0x83, 0xd5, 0xbc,
  0xbd, 0x09, 0x7f, 0x3b, 0xcb, 0xe6, 0xd1, 0xbc, 0xf9, 0x3b, 0xe3, 0xbb, 0x8e,
  0xfb, 0x05, 0x3d, 0x77, 0x9c, 0x1e, 0x3d, 0xdb, 0x1e, 0x8f, 0xbd, 0x78, 0xc3,
  0x85, 0xbe, 0x10, 0x8c, 0xf3, 0x3d, 0xd4, 0xa4, 0x8c, 0xbe, 0x65, 0xd5, 0x2f,
  0x3e, 0xb3, 0xc2, 0x15, 0xbe, 0x03, 0x3f, 0x9b, 0x3e, 0x0d, 0x89, 0xc8, 0x3e,
  0xc7, 0x49, 0xfd, 0x3d, 0x6b, 0xa9, 0xb9, 0xbc, 0x5c, 0xab, 0x95, 0x3e, 0xed,
  0x54, 0x58, 0x3c, 0x2d, 0xe6, 0x18, 0xbe, 0x77, 0x44, 0xd0, 0xbd, 0xab, 0xe2,
  0x28, 0x3e, 0x37, 0x09, 0x43, 0xbe, 0xff, 0x34, 0x12, 0xbe, 0xbe, 0xa0, 0x35,
  0xbd, 0x84, 0x23, 0x88, 0xbe, 0xde, 0x75, 0x39, 0x3c, 0xf0, 0xd6, 0xd2, 0x3d,
  0x5e, 0xea, 0xb0, 0xbe, 0xc4, 0x70, 0xa5, 0x3e, 0xf6, 0xff, 0x3f, 0x3e, 0xdf,
  0x51, 0xd6, 0x3d, 0xff, 0x35, 0x98, 0xbe, 0x7b, 0x3d, 0x2d, 0xbd, 0x44, 0x06,
  0x5d, 0xbe, 0x8a, 0x95, 0xce, 0x3c, 0x3b, 0x6c, 0x0d, 0xbe, 0xce, 0x9e, 0xa9,
  0x3d, 0x44, 0x47, 0xa5, 0xbe, 0x61, 0xac, 0x8a, 0x3e, 0x67, 0xbd, 0x1e, 0xbe,
  0x0a, 0xfa, 0x26, 0x3c, 0x81, 0x6e, 0x79, 0x3d, 0x6a, 0x87, 0xd0, 0xbd, 0x84,
  0x5a, 0xe5, 0x3d, 0x73, 0xa6, 0xcd, 0xbc, 0x9b, 0xa0, 0x90, 0x3c, 0x3c, 0x66,
  0x7e, 0xbe, 0x82, 0x4e, 0xed, 0xbb, 0x4c, 0xc6, 0xa2, 0x3d, 0x6f, 0x99, 0x28,
  0xbd, 0x8e, 0x72, 0x31, 0xbe, 0xe9, 0xc6, 0x05, 0xbe, 0xa8, 0x96, 0x61, 0xbe,
  0x91, 0xb0, 0xf3, 0x3d, 0x9b, 0x80, 0x16, 0x3e, 0xf6, 0x9e, 0xdf, 0x3d, 0xf2,
  0xb2, 0x4a, 0x3e, 0x00, 0xf4, 0xc7, 0xbd, 0xc5, 0xef, 0x8a, 0x3e, 0x66, 0x8e,
  0x82, 0x3e, 0xa0, 0x27, 0xdc, 0xbc, 0x02, 0x4c, 0x09, 0x3e, 0xf6, 0xb2, 0x65,
  0xbe, 0xfd, 0x57, 0xc5, 0xbc, 0x55, 0x0e, 0x91, 0xbd, 0x35, 0x2b, 0x72, 0x3e,
  0xe0, 0x48, 0x04, 0xbe, 0x22, 0x6c, 0x3b, 0xbe, 0xc8, 0x0a, 0xb4, 0x3e, 0xeb,
  0x58, 0xf4, 0x3d, 0x12, 0xa2, 0x04, 0xbe, 0x13, 0x14, 0x85, 0x3c, 0x5d, 0x19,
  0x16, 0x3e, 0x35, 0xdd, 0x92, 0x3d, 0xf4, 0xf6, 0xc0, 0x3d, 0x0b, 0x44, 0x4c,
  0x3d, 0x87, 0xe2, 0x9e, 0xbd, 0x59, 0xac, 0x8e, 0x3e, 0xf9, 0xaf, 0xb2, 0xbc,
  0xf6, 0xf0, 0x39, 0xbe, 0x61, 0xaf, 0x17, 0x3e, 0xc8, 0xac, 0x18, 0x3d, 0xa9,
  0xc4, 0x18, 0xbf, 0xb3, 0x4f, 0x8f, 0x3e, 0x6f, 0x98, 0xf6, 0xbc, 0xaa, 0x0f,
  0x1c, 0x3c, 0x36, 0x85, 0x05, 0x3e, 0x5b, 0x6e, 0x98, 0xbe, 0x25, 0xee, 0xc9,
  0x3d, 0xd0, 0xe5, 0x68, 0xbe, 0x06, 0xcc, 0x46, 0xbe, 0x24, 0xfc, 0x1e, 0xbe,
  0x17, 0x4f, 0x11, 0xbd, 0x4e, 0xaa, 0x45, 0xbe, 0xb8, 0xf5, 0x5e, 0x3e, 0x3a,
  0x63, 0x21, 0x3e, 0xf2, 0xf2, 0xe9, 0x3d, 0x2d, 0x5a, 0xdb, 0x3d, 0x5f, 0xe2,
  0x9b, 0x3e, 0xb8, 0xac, 0x79, 0x3e, 0x1d, 0x83, 0x95, 0xbe, 0x10, 0x03, 0x49,
  0xbe, 0xa7, 0x7f, 0x93, 0x3b, 0xa4, 0x87, 0x0c, 0x3e, 0xf1, 0x25, 0xba, 0x3e,
  0x72, 0x32, 0x90, 0x3e, 0x11, 0xa1, 0x1b, 0xbe, 0x33, 0xca, 0x04, 0xbe, 0x04,
  0x5d, 0x05, 0x3d, 0x5d, 0xee, 0x86, 0x3d, 0x94, 0xf2, 0xe9, 0x3d, 0x64, 0x82,
  0x64, 0x3e, 0xc5, 0xaf, 0x72, 0xbe, 0x9e, 0x26, 0x07, 0xbd, 0xcb, 0xa7, 0xd2,
  0x3c, 0x1b, 0x39, 0x1f, 0xbe, 0x77, 0x14, 0x55, 0x3e, 0x9f, 0x74, 0x75, 0x3e,
  0xbc, 0x38, 0x7f, 0xbe, 0x21, 0xf7, 0x1d, 0x3e, 0x10, 0xf8, 0x64, 0x3e, 0xfc,
  0xb7, 0x1d, 0xbd, 0x76, 0xf6, 0x18, 0xbd, 0x64, 0x7a, 0x6e, 0xbd, 0x20, 0x6d,
  0x9c, 0xbd, 0xb6, 0x3c, 0x17, 0xbe, 0xfc, 0x9a, 0x4f, 0x3e, 0x9a, 0x53, 0x3b,
  0x3e, 0xdb, 0xac, 0xfe, 0x3d, 0x33, 0xd6, 0xb8, 0xbd, 0xc2, 0x6b, 0xd6, 0x3d,
  0xe5, 0xea, 0x9f, 0xbc, 0x9f, 0x01, 0x5e, 0xbc, 0xf2, 0xd6, 0x66, 0x3d, 0x74,
  0x5d, 0xef, 0xbd, 0x12, 0x25, 0x2d, 0x3d, 0x4e, 0xb4, 0xff, 0x3b, 0x58, 0x65,
  0x08, 0xbe, 0x53, 0x41, 0x8b, 0x3c, 0xf2, 0x3f, 0x81, 0xbd, 0x3f, 0xa9, 0x0a,
  0xbe, 0x93, 0xb2, 0x6e, 0x3e, 0xa8, 0x8a, 0xd5, 0x3d, 0xab, 0xbe, 0x0c, 0x3e,
  0xd3, 0x75, 0xa7, 0x3d, 0x73, 0x0f, 0x70, 0xbe, 0xa9, 0x3c, 0x47, 0xbd, 0x17,
  0x31, 0x30, 0xbe, 0xa6, 0x62, 0x07, 0x3e, 0x3b, 0xad, 0x4e, 0x3e, 0xd1, 0xec,
  0x87, 0xbc, 0x27, 0x22, 0xc4, 0xbd, 0x3f, 0x8e, 0x27, 0xbe, 0x46, 0x55, 0x6b,
  0xbe, 0x18, 0x95, 0x3f, 0xbe, 0xda, 0xb7, 0x3e, 0xbe, 0x69, 0xde, 0xb4, 0x3e,
  0xd5, 0x74, 0x44, 0x3e, 0x56, 0xba, 0xc3, 0xbd, 0xc4, 0x5c, 0xa9, 0x3e, 0xfc,
  0xfe, 0xf4, 0x3d, 0x42, 0x01, 0x56, 0x3e, 0x0a, 0x42, 0x8a, 0xbd, 0x70, 0xb3,
  0xb0, 0x3d, 0x03, 0x25, 0xe8, 0xbc, 0xbe, 0x8e, 0xca, 0x3c, 0x34, 0x81, 0xb7,
  0x3d, 0x6d, 0x38, 0x68, 0x3e, 0x61, 0x26, 0x0e, 0x3e, 0xf9, 0x98, 0x2f, 0xbe,
  0xcb, 0x80, 0x10, 0x3e, 0x0c, 0xda, 0xfa, 0x39, 0xae, 0xfe, 0xaa, 0xbd, 0x09,
  0x7c, 0x96, 0xbb, 0x5e, 0x34, 0x3c, 0xbd, 0xe5, 0x00, 0x88, 0x3d, 0x67, 0x53,
  0xfc, 0x3d, 0x47, 0x5c, 0x81, 0x3c, 0x2f, 0x67, 0x5f, 0x3e, 0xdc, 0xd2, 0x8a,
  0xbe, 0xbb, 0x20, 0x6f, 0xbd, 0x48, 0x1d, 0x9f, 0xbe, 0x65, 0x88, 0xbe, 0xbc,
  0x93, 0x4f, 0x98, 0x3e, 0x70, 0x0e, 0x3c, 0xbe, 0x0d, 0x33, 0xaf, 0xbe, 0x5f,
  0x12, 0x6d, 0x3e, 0x2f, 0x0c, 0x73, 0xbe, 0xae, 0x80, 0xcf, 0x3c, 0x8e, 0x1f,
  0x31, 0x3e, 0xc9, 0xb8, 0x1c, 0xbe, 0x87, 0x4f, 0xa9, 0xbd, 0x47, 0x81, 0x06,
  0x3e, 0x1f, 0x44, 0xdb, 0x3d, 0xa0, 0x65, 0x6d, 0x3e, 0x1b, 0xcb, 0x80, 0x3e,
  0xe9, 0x0d, 0x01, 0x3f, 0x14, 0xee, 0xe1, 0x3c, 0x13, 0x65, 0x28, 0xbe, 0x0a,
  0x1f, 0x81, 0x3d, 0x39, 0xa5, 0xa7, 0x3d, 0xd8, 0x19, 0x80, 0x3e, 0xdd, 0x86,
  0x5f, 0xbe, 0xaf, 0x0f, 0x9e, 0xbd, 0xde, 0xab, 0xad, 0x3d, 0x07, 0x4f, 0x30,
  0xbe, 0xda, 0x05, 0x87, 0xbe, 0x8d, 0xb8, 0x2d, 0xbe, 0xf5, 0xa6, 0x09, 0xbe,
  0xf7, 0xcb, 0x9d, 0xbe, 0xa2, 0x4e, 0xe1, 0xbd, 0x4d, 0x65, 0x60, 0xbe, 0x5a,
  0x65, 0x93, 0xbe, 0x91, 0x5c, 0x8b, 0x3c, 0x13, 0x18, 0x02, 0xbe, 0xd1, 0x74,
  0x76, 0x3c, 0xa3, 0x37, 0xcc, 0xbd, 0x8f, 0x22, 0x02, 0x3e, 0xc9, 0x74, 0x38,
  0xbe, 0x2a, 0xd8, 0x68, 0xbe, 0xb0, 0xa8, 0x9c, 0xbe, 0xe6, 0x67, 0x35, 0xbd,
  0x7d, 0x95, 0xc9, 0xbd, 0xa5, 0xdd, 0x19, 0x3e, 0x1e, 0x11, 0x4c, 0xbe, 0x8c,
  0x2e, 0x18, 0xbe, 0x6e, 0x72, 0xdc, 0xbd, 0x54, 0x5d, 0x8a, 0x3b, 0xd2, 0x72,
  0x48, 0xbe, 0xd1, 0xb3, 0x15, 0x3f, 0x67, 0x7b, 0x14, 0xbf, 0x80, 0x8d, 0x20,
  0x3e, 0xfa, 0xe7, 0x18, 0x3e, 0x22, 0xc2, 0x0b, 0xbf, 0x4c, 0x03, 0x49, 0xbe,
  0x03, 0x46, 0xcd, 0x3c, 0x83, 0x6e, 0x73, 0x3d, 0xa2, 0x46, 0x07, 0xbe, 0x9c,
  0x5f, 0xbe, 0x3d, 0x93, 0x48, 0x40, 0xbe, 0x3a, 0x4b, 0x4d, 0x3e, 0x88, 0x33,
  0x77, 0x3e, 0x6b, 0xed, 0x2f, 0x3d, 0xaa, 0xdf, 0x58, 0xbe, 0xbf, 0x6f, 0x52,
  0xbe, 0x9d, 0x33, 0xd5, 0x3c, 0xd7, 0xf9, 0x6b, 0xbe, 0x66, 0x45, 0x74, 0x3e,
  0x0a, 0x35, 0x39, 0xbe, 0x3d, 0xf0, 0x82, 0x3e, 0x09, 0x4b, 0xa6, 0x3d, 0x89,
  0x13, 0xd9, 0x3c, 0xb1, 0x5f, 0x9e, 0xbe, 0x02, 0x77, 0x52, 0xbe, 0x19, 0x9a,
  0x59, 0xbe, 0xf1, 0x37, 0x11, 0x3e, 0x94, 0x6f, 0x39, 0x3d, 0x6d, 0x45, 0x57,
  0xbe, 0xc2, 0x94, 0x32, 0xbe, 0x11, 0x2f, 0xe0, 0x3b, 0xd7, 0x2c, 0x17, 0xbe,
  0x12, 0xce, 0x7c, 0x3d, 0xe3, 0xcd, 0xf6, 0xbc, 0x93, 0xcd, 0x49, 0x3e, 0x2d,
  0x21, 0x81, 0x3d, 0x1e, 0xf1, 0xdd, 0xbc, 0xdc, 0xd1, 0xa5, 0xbd, 0x41, 0x8f,
  0x5e, 0x3e, 0xd2, 0x05, 0x9a, 0xbe, 0x39, 0xc8, 0xcb, 0xbe, 0xfd, 0x1f, 0xad,
  0xbc, 0x3d, 0xc0, 0xbf, 0xbe, 0x8b, 0xd4, 0xeb, 0xbe, 0xc7, 0x46, 0x72, 0xbc,
  0x76, 0xe3, 0x71, 0x3e, 0x45, 0x0f, 0x87, 0xbc, 0xcf, 0xfe, 0x2d, 0xbe, 0x93,
  0x9e, 0xab, 0xbd, 0x4e, 0x9c, 0xdf, 0x3d, 0xb7, 0x2f, 0xb5, 0x3e, 0x4b, 0x0e,
  0x81, 0x3e, 0x4b, 0xf2, 0xae, 0x3d, 0x58, 0x45, 0x1d, 0x3e, 0x9d, 0xe5, 0xfe,
  0xbd, 0x15, 0xcf, 0xee, 0x3d, 0x58, 0xd7, 0x27, 0x3e, 0x0f, 0x18, 0xa8, 0x3c,
  0x42, 0x63, 0x58, 0x3e, 0x9f, 0xa6, 0xc5, 0x3d, 0x0d, 0x54, 0x30, 0x3b, 0xb6,
  0x47, 0xb4, 0xbc, 0xbf, 0x2c, 0x3d, 0xbe, 0xc5, 0x27, 0xeb, 0x3d, 0x92, 0x04,
  0x3f, 0x3e, 0x0f, 0xd0, 0x4d, 0x3e, 0xbf, 0xac, 0xe2, 0x3d, 0xb7, 0xbe, 0xf6,
  0x3d, 0xd1, 0xaf, 0x21, 0xbe, 0x8a, 0x0a, 0x26, 0x3e, 0xe9, 0xb0, 0x92, 0x3e,
  0x2f, 0xf5, 0x43, 0xbd, 0x7f, 0xb5, 0x19, 0x3e, 0x6e, 0xbc, 0x2d, 0xbe, 0x60,
  0x0e, 0xf7, 0xbc, 0x0b, 0x26, 0x05, 0xbc, 0x3f, 0xb7, 0xea, 0xbc, 0x1c, 0x6a,
  0xe7, 0xbc, 0x86, 0xc8, 0x4a, 0xbc, 0x76, 0x0b, 0xb9, 0xbc, 0xa9, 0x7c, 0xb0,
  0xbc, 0x15, 0x3b, 0xaa, 0xbc, 0xfb, 0xf9, 0xb1, 0xbc, 0x1c, 0xe2, 0xae, 0xbc,
  0xda, 0x02, 0xb0, 0xbc, 0xce, 0x46, 0xbf, 0xbc, 0xa4, 0xa7, 0xb9, 0xbc, 0xd4,
  0x52, 0xde, 0xbb, 0x79, 0xca, 0x74, 0xbc, 0x11, 0x40, 0xb4, 0xbc, 0x20, 0x7b,
  0x9d, 0xbc, 0x27, 0xf0, 0xb5, 0xbc, 0x1b, 0xe8, 0xb0, 0xbc, 0x90, 0x20, 0xa3,
  0xbc, 0x15, 0x1e, 0x94, 0xbc, 0x93, 0xa7, 0x38, 0xbc, 0x58, 0x81, 0x91, 0xbc,
  0x1d, 0x5b, 0xb7, 0xbc, 0x4f, 0x51, 0xa3, 0xbc, 0xb8, 0x1e, 0xb7, 0xbc, 0xc5,
  0xe8, 0xba, 0xbc, 0xe8, 0x73, 0x9e, 0xbc, 0x3f, 0x9a, 0xad, 0xbc, 0xdb, 0x6e,
  0x1c, 0xbc, 0x22, 0x65, 0x8b, 0xbc, 0x91, 0x6a, 0xcb, 0xbc, 0x55, 0xdb, 0xb8,
  0xbc, 0x3e, 0xca, 0x9b, 0xbc, 0x1d, 0x03, 0xa7, 0xbc, 0x9a, 0x07, 0xb7, 0xbc,
  0x40, 0x1f, 0xce, 0xbc, 0x86, 0x9f, 0xa8, 0x3e, 0x4a, 0xc2, 0xcf, 0xbe, 0xb1,
  0xea, 0xb7, 0x3e, 0x76, 0x89, 0x4e, 0x3e, 0x5f, 0x04, 0x08, 0xbe, 0xd0, 0x06,
  0xf4, 0x3d, 0x31, 0x4b, 0x50, 0xbe, 0x84, 0xbd, 0x2c, 0xbe, 0x76, 0xff, 0x0d,
  0x3c, 0x78, 0xd8, 0x3f, 0x3e, 0x5b, 0xcc, 0x82, 0x3d, 0x9d, 0x2c, 0x82, 0xbd,
  0xbc, 0xb9, 0x86, 0xbd, 0x4d, 0xd8, 0x45, 0xbe, 0x29, 0x05, 0xc4, 0xbc, 0xd7,
  0x0a, 0xf1, 0x3c, 0x0d, 0x3a, 0x00, 0xbc, 0xc8, 0x2b, 0x3a, 0xbe, 0x8d, 0xa8,
  0x55, 0x3e, 0x16, 0x6e, 0x20, 0xbe, 0x0b, 0xfb, 0xb5, 0xbd, 0x60, 0xab, 0x4c,
  0xbe, 0xf6, 0x6c, 0x81, 0x3e, 0x86, 0x98, 0x02, 0x3e, 0xa8, 0x86, 0x3e, 0xbe,
  0xdc, 0x8a, 0x3f, 0x3e, 0x84, 0xc4, 0xfc, 0xbc, 0xb5, 0xde, 0x14, 0x3d, 0xb4,
  0x39, 0x3d, 0xbd, 0xfb, 0x6a, 0x4f, 0x3e, 0xda, 0x0f, 0xa2, 0x3e, 0x2f, 0x44,
  0xf0, 0xbc, 0xda, 0x6a, 0xee, 0xbd, 0xf6, 0xc3, 0x12, 0x3e, 0xae, 0x9f, 0x90,
  0x3d, 0x43, 0xac, 0xa0, 0xbc, 0x1d, 0x47, 0xde, 0x3c, 0x18, 0xc9, 0x3b, 0xbe,
  0x5c, 0x16, 0x31, 0x3e, 0xa8, 0xea, 0x22, 0xbd, 0x15, 0x8f, 0xd1, 0xbd, 0x5a,
  0xed, 0x77, 0xbe, 0x8b, 0x89, 0x9e, 0x3e, 0xe3, 0xb2, 0xd6, 0x3d, 0x5e, 0xe2,
  0xdb, 0xbd, 0x3a, 0x65, 0x83, 0xbe, 0x26, 0x18, 0x45, 0xbe, 0x4e, 0x3b, 0x5d,
  0xbe, 0x33, 0x97, 0x84, 0x3d, 0x35, 0x1f, 0x93, 0x3e, 0x95, 0x80, 0x08, 0x3e,
  0x98, 0x0e, 0x5f, 0xbe, 0x31, 0xfc, 0x1f, 0x3d, 0xf3, 0x8c, 0x89, 0x3c, 0x24,
  0x72, 0x5e, 0xbe, 0xa8, 0x34, 0xdc, 0xbd, 0xa0, 0xc9, 0x85, 0x3e, 0xc2, 0x1e,
  0x3c, 0x3e, 0x87, 0x68, 0x87, 0xbd, 0x1e, 0x0f, 0x27, 0x3c, 0xe1, 0x9f, 0x9b,
  0xbe, 0x10, 0xf0, 0x0f, 0x3d, 0x91, 0x1b, 0x18, 0xbe, 0xc0, 0x00, 0x13, 0xbe,
  0x3e, 0x61, 0x13, 0xbe, 0x5c, 0x4b, 0x96, 0x3e, 0xaf, 0x77, 0x98, 0x3e, 0xa4,
  0x06, 0x65, 0xbe, 0xa6, 0xe0, 0x31, 0x3e, 0x3b, 0x11, 0x71, 0xbe, 0x8d, 0x0c,
  0xfc, 0x3d, 0xdb, 0xbe, 0x3d, 0xbe, 0xd0, 0xc9, 0xef, 0x3d, 0x18, 0xc8, 0x6a,
  0x3e, 0xfe, 0xb1, 0x10, 0x3d, 0xfd, 0x59, 0xab, 0x3c, 0x0e, 0x05, 0xeb, 0xbb,
  0x94, 0x85, 0x5f, 0xbe, 0x92, 0xd2, 0x52, 0x3c, 0xaf, 0x5c, 0x57, 0xbc, 0x19,
  0x1a, 0xc5, 0xbc, 0xae, 0xbc, 0xe0, 0x3c, 0x2e, 0x46, 0x40, 0xbe, 0x41, 0x73,
  0x97, 0x3d, 0x14, 0xfd, 0x11, 0x3e, 0xd9, 0x85, 0xa2, 0xbd, 0x04, 0xa8, 0x04,
  0x3e, 0xab, 0xf3, 0x3a, 0xbd, 0xd1, 0x52, 0xff, 0x3d, 0xdc, 0xd2, 0x68, 0xbd,
  0x82, 0xe6, 0xe3, 0xbb, 0x10, 0xf5, 0xba, 0xbd, 0xe8, 0x31, 0x04, 0xbe, 0xca,
  0xbb, 0x13, 0x3d, 0x99, 0x9f, 0x07, 0x3e, 0xcb, 0x67, 0xc9, 0xbd, 0x45, 0xf5,
  0x79, 0xbd, 0x8f, 0xa3, 0x38, 0xbe, 0x93, 0x69, 0xd6, 0x3b, 0xd2, 0xde, 0x2c,
  0xbd, 0x57, 0x0e, 0x55, 0xbd, 0x95, 0xeb, 0xc2, 0x3d, 0x64, 0x54, 0x0e, 0x3e,
  0x92, 0xa8, 0x5b, 0xbd, 0xfe, 0x32, 0x07, 0x3e, 0x6d, 0xdf, 0x04, 0xbd, 0xd2,
  0x1a, 0xbb, 0xbd, 0xc0, 0x8c, 0xb0, 0x3d, 0x3b, 0xfc, 0x12, 0xbe, 0xc5, 0x27,
  0x86, 0x3c, 0x5f, 0x5c, 0x32, 0xbe, 0x6d, 0x8d, 0xc8, 0x3e, 0xe1, 0x3c, 0x12,
  0xbf, 0x89, 0x71, 0xe9, 0x3d, 0xc1, 0xd4, 0xad, 0xbc, 0x1c, 0x45, 0xce, 0xbd,
  0xff, 0x9e, 0x17, 0x3e, 0xfc, 0x6f, 0x9a, 0x3e, 0xd3, 0x34, 0x19, 0xbe, 0x8e,
  0x06, 0x51, 0x3d, 0x0d, 0xb1, 0x1e, 0x3e, 0xfc, 0x70, 0x80, 0xbe, 0xed, 0xa0,
  0x9d, 0xbe, 0x1e, 0x13, 0x9d, 0xbe, 0x96, 0xf7, 0xba, 0xbd, 0x66, 0xfe, 0x34,
  0x3e, 0xdf, 0xb0, 0xc1, 0xbd, 0x5e, 0x24, 0x87, 0x3e, 0x50, 0x9b, 0xea, 0xbd,
  0x85, 0x4c, 0xe9, 0xbc, 0x16, 0x69, 0xee, 0xb9, 0x36, 0x7d, 0xb6, 0xbc, 0x01,
  0x7a, 0x53, 0xbe, 0xcf, 0xe1, 0xad, 0xbd, 0xd0, 0x46, 0x07, 0x3d, 0xc8, 0x50,
  0x16, 0x3e, 0xea, 0x97, 0x56, 0xbe, 0x2e, 0x6d, 0x42, 0x3e, 0x18, 0x1e, 0x0d,
  0xbe, 0xb2, 0xde, 0x13, 0xbe, 0x69, 0xa1, 0x50, 0xbe, 0xc4, 0x1b, 0x37, 0xbe,
  0x2c, 0x9a, 0x4d, 0x3e, 0x4d, 0x10, 0xed, 0x3d, 0xbe, 0xa7, 0xfe, 0xbd, 0x0f,
  0x71, 0x84, 0xbe, 0x9c, 0x23, 0x5a, 0xbd, 0x56, 0x69, 0x25, 0xbe, 0x13, 0xa7,
  0x34, 0x3d, 0xda, 0xd1, 0x57, 0xbd, 0xc3, 0x2b, 0x47, 0x3e, 0x95, 0xb6, 0x31,
  0x3e, 0x7d, 0x7c, 0x46, 0x3e, 0xb2, 0x75, 0x27, 0xbc, 0xb6, 0x56, 0x46, 0xbe,
  0xed, 0xec, 0xd5, 0x3d, 0xb9, 0xaa, 0x5a, 0xbe, 0xca, 0x24, 0xc7, 0xbd, 0xe8,
  0xdd, 0x01, 0xbd, 0x5b, 0x93, 0x7f, 0x3e, 0xb3, 0xe3, 0xd9, 0xbd, 0x3b, 0xf7,
  0x8b, 0x3e, 0xba, 0x62, 0x0d, 0x3e, 0xfb, 0x7b, 0x6a, 0xbd, 0x57, 0xad, 0x0e,
  0xbe, 0x44, 0x22, 0x4f, 0xbe, 0xa5, 0x90, 0x97, 0xbc, 0xa1, 0x52, 0x1d, 0xbe,
  0x7e, 0x27, 0xc3, 0xbd, 0x03, 0xbf, 0x9b, 0x3d, 0xc8, 0xb8, 0x3a, 0x3e, 0x7f,
  0xa6, 0x65, 0x3d, 0x7f, 0x3f, 0x37, 0x3e, 0x0c, 0x26, 0xe1, 0xbd, 0x97, 0xfa,
  0x4c, 0xbe, 0x1c, 0xcf, 0x8a, 0x3b, 0xfe, 0x06, 0x99, 0xbe, 0xd1, 0x67, 0x3d,
  0x3e, 0xdc, 0x89, 0x2f, 0xbe, 0x41, 0x6b, 0xbd, 0xbd, 0xde, 0x67, 0x4f, 0xbe,
  0xa8, 0xf6, 0x86, 0xbd, 0xb7, 0xc0, 0x08, 0x3d, 0x5c, 0x68, 0x97, 0xbe, 0x22,
  0x9d, 0x65, 0xbc, 0xa2, 0xff, 0xff, 0xff, 0x04, 0x00, 0x00, 0x00, 0x04, 0x00,
  0x00, 0x00, 0x3b, 0x5c, 0x29, 0x3e, 0xb2, 0xff, 0xff, 0xff, 0x04, 0x00, 0x00,
  0x00, 0x40, 0x00, 0x00, 0x00, 0x26, 0x06, 0x09, 0xbe, 0xfd, 0xe7, 0x22, 0x3e,
  0xd7, 0x0c, 0x28, 0xbd, 0x69, 0xea, 0x02, 0x3e, 0x57, 0x95, 0x80, 0x3e, 0x16,
  0x87, 0xee, 0xbc, 0x4a, 0x8b, 0x34, 0xbe, 0x81, 0xec, 0xa6, 0xbd, 0x68, 0x2c,
  0xdc, 0xbd, 0x61, 0xda, 0xf9, 0xbc, 0xb2, 0xe9, 0x40, 0xbd, 0x65, 0x85, 0x81,
  0x3d, 0x43, 0x44, 0x57, 0x3e, 0x2e, 0x26, 0x42, 0xbd, 0x60, 0xd2, 0x4b, 0x3e,
  0xa8, 0x33, 0x41, 0x3b, 0x00, 0x00, 0x06, 0x00, 0x08, 0x00, 0x04, 0x00, 0x06,
  0x00, 0x00, 0x00, 0x04, 0x00, 0x00, 0x00, 0x80, 0x00, 0x00, 0x00, 0x6d, 0xed,
  0xfc, 0x3c, 0x33, 0x77, 0xf4, 0x3d, 0x65, 0x14, 0x4e, 0x3e, 0xfc, 0x2e, 0x5a,
  0x3e, 0xef, 0xd4, 0x84, 0x3d, 0x15, 0x5b, 0xa7, 0x3d, 0x8f, 0x72, 0x0a, 0xbe,
  0x2c, 0xde, 0x2a, 0x3e, 0xf3, 0x7e, 0x7b, 0xbe, 0xa3, 0x3c, 0xf2, 0x3d, 0xc9,
  0xab, 0xa7, 0x3c, 0x89, 0xff, 0xdf, 0xbd, 0x0b, 0x7f, 0x6f, 0x3e, 0x08, 0x50,
  0x13, 0x3e, 0xa0, 0xf2, 0xa2, 0x3d, 0xb1, 0xb1, 0xfc, 0xbd, 0x1a, 0x8a, 0xf5,
  0xbd, 0x5f, 0x77, 0x55, 0xbd, 0x33, 0xda, 0xc9, 0x3d, 0xb6, 0xc2, 0x7d, 0x3d,
  0x53, 0xe6, 0x60, 0xbd, 0x2c, 0x91, 0x71, 0xbd, 0x2b, 0xfa, 0x32, 0x3e, 0xac,
  0xf0, 0x88, 0x3e, 0x1a, 0xbd, 0x24, 0xbe, 0xa7, 0x09, 0x84, 0x3d, 0xa2, 0xb6,
  0x09, 0xbd, 0x61, 0x0d, 0x45, 0xbe, 0x92, 0x1d, 0x8f, 0x3d, 0x69, 0x97, 0xe0,
  0xbc, 0xa5, 0xb0, 0x37, 0xbe, 0x27, 0x5f, 0xa3, 0x3c, 0xe8, 0xf9, 0xff, 0xff,
  0xec, 0xf9, 0xff, 0xff, 0x0f, 0x00, 0x00, 0x00, 0x4d, 0x4c, 0x49, 0x52, 0x20,
  0x43, 0x6f, 0x6e, 0x76, 0x65, 0x72, 0x74, 0x65, 0x64, 0x2e, 0x00, 0x01, 0x00,
  0x00, 0x00, 0x14, 0x00, 0x00, 0x00, 0x00, 0x00, 0x0e, 0x00, 0x18, 0x00, 0x14,
  0x00, 0x10, 0x00, 0x0c, 0x00, 0x08, 0x00, 0x04, 0x00, 0x0e, 0x00, 0x00, 0x00,
  0x14, 0x00, 0x00, 0x00, 0x1c, 0x00, 0x00, 0x00, 0x08, 0x01, 0x00, 0x00, 0x0c,
  0x01, 0x00, 0x00, 0x10, 0x01, 0x00, 0x00, 0x04, 0x00, 0x00, 0x00, 0x6d, 0x61,
  0x69, 0x6e, 0x00, 0x00, 0x00, 0x00, 0x04, 0x00, 0x00, 0x00, 0xb0, 0x00, 0x00,
  0x00, 0x68, 0x00, 0x00, 0x00, 0x34, 0x00, 0x00, 0x00, 0x10, 0x00, 0x00, 0x00,
  0x00, 0x00, 0x0a, 0x00, 0x10, 0x00, 0x0c, 0x00, 0x08, 0x00, 0x04, 0x00, 0x0a,
  0x00, 0x00, 0x00, 0x0c, 0x00, 0x00, 0x00, 0x10, 0x00, 0x00, 0x00, 0x01, 0x00,
  0x00, 0x00, 0x01, 0x00, 0x00, 0x00, 0x0a, 0x00, 0x00, 0x00, 0x01, 0x00, 0x00,
  0x00, 0x09, 0x00, 0x00, 0x00, 0x9a, 0xff, 0xff, 0xff, 0x10, 0x00, 0x00, 0x00,
  0x00, 0x00, 0x00, 0x08, 0x0c, 0x00, 0x00, 0x00, 0x10, 0x00, 0x00, 0x00, 0x94,
  0xfa, 0xff, 0xff, 0x01, 0x00, 0x00, 0x00, 0x09, 0x00, 0x00, 0x00, 0x03, 0x00,
  0x00, 0x00, 0x08, 0x00, 0x00, 0x00, 0x06, 0x00, 0x00, 0x00, 0x03, 0x00, 0x00,
  0x00, 0xca, 0xff, 0xff, 0xff, 0x10, 0x00, 0x00, 0x00, 0x00, 0x00, 0x00, 0x08,
  0x10, 0x00, 0x00, 0x00, 0x14, 0x00, 0x00, 0x00, 0xba, 0xff, 0xff, 0xff, 0x00,
  0x00, 0x00, 0x03, 0x01, 0x00, 0x00, 0x00, 0x08, 0x00, 0x00, 0x00, 0x03, 0x00,
  0x00, 0x00, 0x07, 0x00, 0x00, 0x00, 0x05, 0x00, 0x00, 0x00, 0x02, 0x00, 0x00,
  0x00, 0x00, 0x00, 0x0e, 0x00, 0x16, 0x00, 0x00, 0x00, 0x10, 0x00, 0x0c, 0x00,
  0x0b, 0x00, 0x04, 0x00, 0x0e, 0x00, 0x00, 0x00, 0x18, 0x00, 0x00, 0x00, 0x00,
  0x00, 0x00, 0x08, 0x18, 0x00, 0x00, 0x00, 0x1c, 0x00, 0x00, 0x00, 0x00, 0x00,
  0x06, 0x00, 0x08, 0x00, 0x07, 0x00, 0x06, 0x00, 0x00, 0x00, 0x00, 0x00, 0x00,
  0x03, 0x01, 0x00, 0x00, 0x00, 0x07, 0x00, 0x00, 0x00, 0x03, 0x00, 0x00, 0x00,
  0x00, 0x00, 0x00, 0x00, 0x04, 0x00, 0x00, 0x00, 0x01, 0x00, 0x00, 0x00, 0x01,
  0x00, 0x00, 0x00, 0x0a, 0x00, 0x00, 0x00, 0x01, 0x00, 0x00, 0x00, 0x00, 0x00,
  0x00, 0x00, 0x0b, 0x00, 0x00, 0x00, 0x94, 0x04, 0x00, 0x00, 0x1c, 0x04, 0x00,
  0x00, 0xa4, 0x03, 0x00, 0x00, 0x40, 0x03, 0x00, 0x00, 0xec, 0x02, 0x00, 0x00,
  0x98, 0x02, 0x00, 0x00, 0x40, 0x02, 0x00, 0x00, 0x98, 0x01, 0x00, 0x00, 0xf0,
  0x00, 0x00, 0x00, 0x60, 0x00, 0x00, 0x00, 0x04, 0x00, 0x00, 0x00, 0xae, 0xfb,
  0xff, 0xff, 0x00, 0x00, 0x00, 0x01, 0x14, 0x00, 0x00, 0x00, 0x1c, 0x00, 0x00,
  0x00, 0x1c, 0x00, 0x00, 0x00, 0x0b, 0x00, 0x00, 0x00, 0x34, 0x00, 0x00, 0x00,
  0x02, 0x00, 0x00, 0x00, 0xff, 0xff, 0xff, 0xff, 0x01, 0x00, 0x00, 0x00, 0x98,
  0xfb, 0xff, 0xff, 0x19, 0x00, 0x00, 0x00, 0x53, 0x74, 0x61, 0x74, 0x65, 0x66,
  0x75, 0x6c, 0x50, 0x61, 0x72, 0x74, 0x69, 0x74, 0x69, 0x6f, 0x6e, 0x65, 0x64,
  0x43, 0x61, 0x6c, 0x6c, 0x3a, 0x30, 0x00, 0x00, 0x00, 0x02, 0x00, 0x00, 0x00,
  0x01, 0x00, 0x00, 0x00, 0x01, 0x00, 0x00, 0x00, 0x06, 0xfc, 0xff, 0xff, 0x00,
  0x00, 0x00, 0x01, 0x14, 0x00, 0x00, 0x00, 0x1c, 0x00, 0x00, 0x00, 0x1c, 0x00,
  0x00, 0x00, 0x0a, 0x00, 0x00, 0x00, 0x68, 0x00, 0x00, 0x00, 0x02, 0x00, 0x00,
  0x00, 0xff, 0xff, 0xff, 0xff, 0x01, 0x00, 0x00, 0x00, 0xf0, 0xfb, 0xff, 0xff,
  0x4c, 0x00, 0x00, 0x00, 0x41, 0x56, 0x32, 0x5f, 0x50, 0x61, 0x72, 0x74, 0x69,
  0x74, 0x69, 0x6f, 0x6e, 0x5f, 0x44, 0x4e, 0x4e, 0x2f, 0x6f, 0x75, 0x74, 0x70,
  0x75, 0x74, 0x5f, 0x6c, 0x61, 0x79, 0x65, 0x72, 0x2f, 0x4d, 0x61, 0x74, 0x4d,
  0x75, 0x6c, 0x3b, 0x41, 0x56, 0x32, 0x5f, 0x50, 0x61, 0x72, 0x74, 0x69, 0x74,
  0x69, 0x6f, 0x6e, 0x5f, 0x44, 0x4e, 0x4e, 0x2f, 0x6f, 0x75, 0x74, 0x70, 0x75,
  0x74, 0x5f, 0x6c, 0x61, 0x79, 0x65, 0x72, 0x2f, 0x42, 0x69, 0x61, 0x73, 0x41,
  0x64, 0x64, 0x00, 0x00, 0x00, 0x00, 0x02, 0x00, 0x00, 0x00, 0x01, 0x00, 0x00,
  0x00, 0x01, 0x00, 0x00, 0x00, 0x92, 0xfc, 0xff, 0xff, 0x00, 0x00, 0x00, 0x01,
  0x14, 0x00, 0x00, 0x00, 0x1c, 0x00, 0x00, 0x00, 0x1c, 0x00, 0x00, 0x00, 0x09,
  0x00, 0x00, 0x00, 0x80, 0x00, 0x00, 0x00, 0x02, 0x00, 0x00, 0x00, 0xff, 0xff,
  0xff, 0xff, 0x10, 0x00, 0x00, 0x00, 0x7c, 0xfc, 0xff, 0xff, 0x67, 0x00, 0x00,
  0x00, 0x41, 0x56, 0x32, 0x5f, 0x50, 0x61, 0x72, 0x74, 0x69, 0x74, 0x69, 0x6f,
  0x6e, 0x5f, 0x44, 0x4e, 0x4e, 0x2f, 0x64, 0x65, 0x6e, 0x73, 0x65, 0x5f, 0x31,
  0x2f, 0x4d, 0x61, 0x74, 0x4d, 0x75, 0x6c, 0x3b, 0x41, 0x56, 0x32, 0x5f, 0x50,
  0x61, 0x72, 0x74, 0x69, 0x74, 0x69, 0x6f, 0x6e, 0x5f, 0x44, 0x4e, 0x4e, 0x2f,
  0x64, 0x65, 0x6e, 0x73, 0x65, 0x5f, 0x31, 0x5f, 0x72, 0x65, 0x6c, 0x75, 0x2f,
  0x52, 0x65, 0x6c, 0x75, 0x36, 0x3b, 0x41, 0x56, 0x32, 0x5f, 0x50, 0x61, 0x72,
  0x74, 0x69, 0x74, 0x69, 0x6f, 0x6e, 0x5f, 0x44, 0x4e, 0x4e, 0x2f, 0x64, 0x65,
  0x6e, 0x73, 0x65, 0x5f, 0x31, 0x2f, 0x42, 0x69, 0x61, 0x73, 0x41, 0x64, 0x64,
  0x00, 0x02, 0x00, 0x00, 0x00, 0x01, 0x00, 0x00, 0x00, 0x10, 0x00, 0x00, 0x00,
  0x36, 0xfd, 0xff, 0xff, 0x00, 0x00, 0x00, 0x01, 0x14, 0x00, 0x00, 0x00, 0x1c,
  0x00, 0x00, 0x00, 0x1c, 0x00, 0x00, 0x00, 0x08, 0x00, 0x00, 0x00, 0x80, 0x00,
  0x00, 0x00, 0x02, 0x00, 0x00, 0x00, 0xff, 0xff, 0xff, 0xff, 0x20, 0x00, 0x00,
  0x00, 0x20, 0xfd, 0xff, 0xff, 0x67, 0x00, 0x00, 0x00, 0x41, 0x56, 0x32, 0x5f,
  0x50, 0x61, 0x72, 0x74, 0x69, 0x74, 0x69, 0x6f, 0x6e, 0x5f, 0x44, 0x4e, 0x4e,
  0x2f, 0x64, 0x65, 0x6e, 0x73, 0x65, 0x5f, 0x30, 0x2f, 0x4d, 0x61, 0x74, 0x4d,
  0x75, 0x6c, 0x3b, 0x41, 0x56, 0x32, 0x5f, 0x50, 0x61, 0x72, 0x74, 0x69, 0x74,
  0x69, 0x6f, 0x6e, 0x5f, 0x44, 0x4e, 0x4e, 0x2f, 0x64, 0x65, 0x6e, 0x73, 0x65,
  0x5f, 0x30, 0x5f, 0x72, 0x65, 0x6c, 0x75, 0x2f, 0x52, 0x65, 0x6c, 0x75, 0x36,
  0x3b, 0x41, 0x56, 0x32, 0x5f, 0x50, 0x61, 0x72, 0x74, 0x69, 0x74, 0x69, 0x6f,
  0x6e, 0x5f, 0x44, 0x4e, 0x4e, 0x2f, 0x64, 0x65, 0x6e, 0x73, 0x65, 0x5f, 0x30,
  0x2f, 0x42, 0x69, 0x61, 0x73, 0x41, 0x64, 0x64, 0x00, 0x02, 0x00, 0x00, 0x00,
  0x01, 0x00, 0x00, 0x00, 0x20, 0x00, 0x00, 0x00, 0x4e, 0xfe, 0xff, 0xff, 0x00,
  0x00, 0x00, 0x01, 0x10, 0x00, 0x00, 0x00, 0x10, 0x00, 0x00, 0x00, 0x07, 0x00,
  0x00, 0x00, 0x34, 0x00, 0x00, 0x00, 0xb4, 0xfd, 0xff, 0xff, 0x25, 0x00, 0x00,
  0x00, 0x41, 0x56, 0x32, 0x5f, 0x50, 0x61, 0x72, 0x74, 0x69, 0x74, 0x69, 0x6f,
  0x6e, 0x5f, 0x44, 0x4e, 0x4e, 0x2f, 0x6f, 0x75, 0x74, 0x70, 0x75, 0x74, 0x5f,
  0x6c, 0x61, 0x79, 0x65, 0x72, 0x2f, 0x4d, 0x61, 0x74, 0x4d, 0x75, 0x6c, 0x00,
  0x00, 0x00, 0x02, 0x00, 0x00, 0x00, 0x01, 0x00, 0x00, 0x00, 0x10, 0x00, 0x00,
  0x00, 0xa2, 0xfe, 0xff, 0xff, 0x00, 0x00, 0x00, 0x01, 0x10, 0x00, 0x00, 0x00,
  0x10, 0x00, 0x00, 0x00, 0x06, 0x00, 0x00, 0x00, 0x30, 0x00, 0x00, 0x00, 0x08,
  0xfe, 0xff, 0xff, 0x20, 0x00, 0x00, 0x00, 0x41, 0x56, 0x32, 0x5f, 0x50, 0x61,
  0x72, 0x74, 0x69, 0x74, 0x69, 0x6f, 0x6e, 0x5f, 0x44, 0x4e, 0x4e, 0x2f, 0x64,
  0x65, 0x6e, 0x73, 0x65, 0x5f, 0x31, 0x2f, 0x4d, 0x61, 0x74, 0x4d, 0x75, 0x6c,
  0x00, 0x00, 0x00, 0x00, 0x02, 0x00, 0x00, 0x00, 0x10, 0x00, 0x00, 0x00, 0x20,
  0x00, 0x00, 0x00, 0xf2, 0xfe, 0xff, 0xff, 0x00, 0x00, 0x00, 0x01, 0x10, 0x00,
  0x00, 0x00, 0x10, 0x00, 0x00, 0x00, 0x05, 0x00, 0x00, 0x00, 0x30, 0x00, 0x00,
  0x00, 0x58, 0xfe, 0xff, 0xff, 0x20, 0x00, 0x00, 0x00, 0x41, 0x56, 0x32, 0x5f,
  0x50, 0x61, 0x72, 0x74, 0x69, 0x74, 0x69, 0x6f, 0x6e, 0x5f, 0x44, 0x4e, 0x4e,
  0x2f, 0x64, 0x65, 0x6e, 0x73, 0x65, 0x5f, 0x30, 0x2f, 0x4d, 0x61, 0x74, 0x4d,
  0x75, 0x6c, 0x00, 0x00, 0x00, 0x00, 0x02, 0x00, 0x00, 0x00, 0x20, 0x00, 0x00,
  0x00, 0x25, 0x00, 0x00, 0x00, 0x42, 0xff, 0xff, 0xff, 0x00, 0x00, 0x00, 0x01,
  0x10, 0x00, 0x00, 0x00, 0x10, 0x00, 0x00, 0x00, 0x04, 0x00, 0x00, 0x00, 0x44,
  0x00, 0x00, 0x00, 0xa8, 0xfe, 0xff, 0xff, 0x35, 0x00, 0x00, 0x00, 0x41, 0x56,
  0x32, 0x5f, 0x50, 0x61, 0x72, 0x74, 0x69, 0x74, 0x69, 0x6f, 0x6e, 0x5f, 0x44,
  0x4e, 0x4e, 0x2f, 0x6f, 0x75, 0x74, 0x70, 0x75, 0x74, 0x5f, 0x6c, 0x61, 0x79,
  0x65, 0x72, 0x2f, 0x42, 0x69, 0x61, 0x73, 0x41, 0x64, 0x64, 0x2f, 0x52, 0x65,
  0x61, 0x64, 0x56, 0x61, 0x72, 0x69, 0x61, 0x62, 0x6c, 0x65, 0x4f, 0x70, 0x00,
  0x00, 0x00, 0x01, 0x00, 0x00, 0x00, 0x01, 0x00, 0x00, 0x00, 0xa2, 0xff, 0xff,
  0xff, 0x00, 0x00, 0x00, 0x01, 0x10, 0x00, 0x00, 0x00, 0x10, 0x00, 0x00, 0x00,
  0x03, 0x00, 0x00, 0x00, 0x40, 0x00, 0x00, 0x00, 0x08, 0xff, 0xff, 0xff, 0x30,
  0x00, 0x00, 0x00, 0x41, 0x56, 0x32, 0x5f, 0x50, 0x61, 0x72, 0x74, 0x69, 0x74,
  0x69, 0x6f, 0x6e, 0x5f, 0x44, 0x4e, 0x4e, 0x2f, 0x64, 0x65, 0x6e, 0x73, 0x65,
  0x5f, 0x31, 0x2f, 0x42, 0x69, 0x61, 0x73, 0x41, 0x64, 0x64, 0x2f, 0x52, 0x65,
  0x61, 0x64, 0x56, 0x61, 0x72, 0x69, 0x61, 0x62, 0x6c, 0x65, 0x4f, 0x70, 0x00,
  0x00, 0x00, 0x00, 0x01, 0x00, 0x00, 0x00, 0x10, 0x00, 0x00, 0x00, 0x00, 0x00,
  0x16, 0x00, 0x18, 0x00, 0x14, 0x00, 0x00, 0x00, 0x10, 0x00, 0x0c, 0x00, 0x08,
  0x00, 0x00, 0x00, 0x00, 0x00, 0x00, 0x00, 0x07, 0x00, 0x16, 0x00, 0x00, 0x00,
  0x00, 0x00, 0x00, 0x01, 0x10, 0x00, 0x00, 0x00, 0x10, 0x00, 0x00, 0x00, 0x02,
  0x00, 0x00, 0x00, 0x40, 0x00, 0x00, 0x00, 0x7c, 0xff, 0xff, 0xff, 0x30, 0x00,
  0x00, 0x00, 0x41, 0x56, 0x32, 0x5f, 0x50, 0x61, 0x72, 0x74, 0x69, 0x74, 0x69,
  0x6f, 0x6e, 0x5f, 0x44, 0x4e, 0x4e, 0x2f, 0x64, 0x65, 0x6e, 0x73, 0x65, 0x5f,
  0x30, 0x2f, 0x42, 0x69, 0x61, 0x73, 0x41, 0x64, 0x64, 0x2f, 0x52, 0x65, 0x61,
  0x64, 0x56, 0x61, 0x72, 0x69, 0x61, 0x62, 0x6c, 0x65, 0x4f, 0x70, 0x00, 0x00,
  0x00, 0x00, 0x01, 0x00, 0x00, 0x00, 0x20, 0x00, 0x00, 0x00, 0x00, 0x00, 0x16,
  0x00, 0x1c, 0x00, 0x18, 0x00, 0x00, 0x00, 0x14, 0x00, 0x10, 0x00, 0x0c, 0x00,
  0x00, 0x00, 0x00, 0x00, 0x08, 0x00, 0x07, 0x00, 0x16, 0x00, 0x00, 0x00, 0x00,
  0x00, 0x00, 0x01, 0x14, 0x00, 0x00, 0x00, 0x20, 0x00, 0x00, 0x00, 0x20, 0x00,
  0x00, 0x00, 0x01, 0x00, 0x00, 0x00, 0x34, 0x00, 0x00, 0x00, 0x02, 0x00, 0x00,
  0x00, 0xff, 0xff, 0xff, 0xff, 0x25, 0x00, 0x00, 0x00, 0x04, 0x00, 0x04, 0x00,
  0x04, 0x00, 0x00, 0x00, 0x17, 0x00, 0x00, 0x00, 0x73, 0x65, 0x72, 0x76, 0x69,
  0x6e, 0x67, 0x5f, 0x64, 0x65, 0x66, 0x61, 0x75, 0x6c, 0x74, 0x5f, 0x69, 0x6e,
  0x70, 0x75, 0x74, 0x3a, 0x30, 0x00, 0x02, 0x00, 0x00, 0x00, 0x01, 0x00, 0x00,
  0x00, 0x25, 0x00, 0x00, 0x00, 0x02, 0x00, 0x00, 0x00, 0x20, 0x00, 0x00, 0x00,
  0x04, 0x00, 0x00, 0x00, 0xf4, 0xff, 0xff, 0xff, 0x0e, 0x00, 0x00, 0x00, 0x00,
  0x00, 0x00, 0x0e, 0x0c, 0x00, 0x0c, 0x00, 0x0b, 0x00, 0x00, 0x00, 0x00, 0x00,
  0x04, 0x00, 0x0c, 0x00, 0x00, 0x00, 0x09, 0x00, 0x00, 0x00, 0x00, 0x00, 0x00,
  0x09
};  // unsigned int a3_qp96_128_160_luma_BLOCK_128X128_intra_tflite_len = 9244;

void RegisterSelectedOps(::tflite::MutableOpResolver *resolver) {
  resolver->AddBuiltin(::tflite::BuiltinOperator_FULLY_CONNECTED,
                       ::tflite::ops::builtin::Register_FULLY_CONNECTED());
  resolver->AddBuiltin(::tflite::BuiltinOperator_LOGISTIC,
                       ::tflite::ops::builtin::Register_LOGISTIC());
  resolver->AddBuiltin(::tflite::BuiltinOperator_CONCATENATION,
                       ::tflite::ops::builtin::Register_CONCATENATION());
}
