/*
 * Copyright (c) 2023, Alliance for Open Media. All rights reserved
 *
 * This source code is subject to the terms of the BSD 2 Clause License and
 * the Alliance for Open Media Patent License 1.0. If the BSD 2 Clause License
 * was not distributed with this source code in the LICENSE file, you can
 * obtain it at www.aomedia.org/license/software. If the Alliance for Open
 * Media Patent License 1.0 was not distributed with this source code in the
 * PATENTS file, you can obtain it at www.aomedia.org/license/patent.
 */
unsigned char a3_qp96_128_160_luma_BLOCK_32X32_intra_tflite[] = {
  0x1c, 0x00, 0x00, 0x00, 0x54, 0x46, 0x4c, 0x33, 0x14, 0x00, 0x20, 0x00, 0x1c,
  0x00, 0x18, 0x00, 0x14, 0x00, 0x10, 0x00, 0x0c, 0x00, 0x00, 0x00, 0x08, 0x00,
  0x04, 0x00, 0x14, 0x00, 0x00, 0x00, 0x1c, 0x00, 0x00, 0x00, 0x88, 0x00, 0x00,
  0x00, 0xe0, 0x00, 0x00, 0x00, 0x80, 0x1d, 0x00, 0x00, 0x90, 0x1d, 0x00, 0x00,
  0xb8, 0x23, 0x00, 0x00, 0x03, 0x00, 0x00, 0x00, 0x01, 0x00, 0x00, 0x00, 0x04,
  0x00, 0x00, 0x00, 0x32, 0xe2, 0xff, 0xff, 0x0c, 0x00, 0x00, 0x00, 0x1c, 0x00,
  0x00, 0x00, 0x40, 0x00, 0x00, 0x00, 0x0f, 0x00, 0x00, 0x00, 0x73, 0x65, 0x72,
  0x76, 0x69, 0x6e, 0x67, 0x5f, 0x64, 0x65, 0x66, 0x61, 0x75, 0x6c, 0x74, 0x00,
  0x01, 0x00, 0x00, 0x00, 0x04, 0x00, 0x00, 0x00, 0x94, 0xff, 0xff, 0xff, 0x0a,
  0x00, 0x00, 0x00, 0x04, 0x00, 0x00, 0x00, 0x0c, 0x00, 0x00, 0x00, 0x6f, 0x75,
  0x74, 0x70, 0x75, 0x74, 0x5f, 0x6c, 0x61, 0x79, 0x65, 0x72, 0x00, 0x00, 0x00,
  0x00, 0x01, 0x00, 0x00, 0x00, 0x04, 0x00, 0x00, 0x00, 0x86, 0xe3, 0xff, 0xff,
  0x04, 0x00, 0x00, 0x00, 0x05, 0x00, 0x00, 0x00, 0x69, 0x6e, 0x70, 0x75, 0x74,
  0x00, 0x00, 0x00, 0x02, 0x00, 0x00, 0x00, 0x34, 0x00, 0x00, 0x00, 0x04, 0x00,
  0x00, 0x00, 0xdc, 0xff, 0xff, 0xff, 0x0d, 0x00, 0x00, 0x00, 0x04, 0x00, 0x00,
  0x00, 0x13, 0x00, 0x00, 0x00, 0x43, 0x4f, 0x4e, 0x56, 0x45, 0x52, 0x53, 0x49,
  0x4f, 0x4e, 0x5f, 0x4d, 0x45, 0x54, 0x41, 0x44, 0x41, 0x54, 0x41, 0x00, 0x08,
  0x00, 0x0c, 0x00, 0x08, 0x00, 0x04, 0x00, 0x08, 0x00, 0x00, 0x00, 0x0c, 0x00,
  0x00, 0x00, 0x04, 0x00, 0x00, 0x00, 0x13, 0x00, 0x00, 0x00, 0x6d, 0x69, 0x6e,
  0x5f, 0x72, 0x75, 0x6e, 0x74, 0x69, 0x6d, 0x65, 0x5f, 0x76, 0x65, 0x72, 0x73,
  0x69, 0x6f, 0x6e, 0x00, 0x0e, 0x00, 0x00, 0x00, 0x9c, 0x1c, 0x00, 0x00, 0x94,
  0x1c, 0x00, 0x00, 0x04, 0x1c, 0x00, 0x00, 0xac, 0x1b, 0x00, 0x00, 0x98, 0x1b,
  0x00, 0x00, 0x08, 0x09, 0x00, 0x00, 0xf8, 0x00, 0x00, 0x00, 0xa8, 0x00, 0x00,
  0x00, 0xa0, 0x00, 0x00, 0x00, 0x98, 0x00, 0x00, 0x00, 0x90, 0x00, 0x00, 0x00,
  0x88, 0x00, 0x00, 0x00, 0x68, 0x00, 0x00, 0x00, 0x04, 0x00, 0x00, 0x00, 0x32,
  0xe4, 0xff, 0xff, 0x04, 0x00, 0x00, 0x00, 0x54, 0x00, 0x00, 0x00, 0x0c, 0x00,
  0x00, 0x00, 0x08, 0x00, 0x0e, 0x00, 0x08, 0x00, 0x04, 0x00, 0x08, 0x00, 0x00,
  0x00, 0x10, 0x00, 0x00, 0x00, 0x24, 0x00, 0x00, 0x00, 0x00, 0x00, 0x06, 0x00,
  0x08, 0x00, 0x04, 0x00, 0x06, 0x00, 0x00, 0x00, 0x04, 0x00, 0x00, 0x00, 0x00,
  0x00, 0x00, 0x00, 0x00, 0x00, 0x0a, 0x00, 0x10, 0x00, 0x0c, 0x00, 0x08, 0x00,
  0x04, 0x00, 0x0a, 0x00, 0x00, 0x00, 0x02, 0x00, 0x00, 0x00, 0x02, 0x00, 0x00,
  0x00, 0x04, 0x00, 0x00, 0x00, 0x06, 0x00, 0x00, 0x00, 0x32, 0x2e, 0x31, 0x36,
  0x2e, 0x30, 0x00, 0x00, 0x92, 0xe4, 0xff, 0xff, 0x04, 0x00, 0x00, 0x00, 0x10,
  0x00, 0x00, 0x00, 0x31, 0x2e, 0x31, 0x34, 0x2e, 0x30, 0x00, 0x00, 0x00, 0x00,
  0x00, 0x00, 0x00, 0x00, 0x00, 0x00, 0x04, 0xde, 0xff, 0xff, 0x08, 0xde, 0xff,
  0xff, 0x0c, 0xde, 0xff, 0xff, 0x10, 0xde, 0xff, 0xff, 0xbe, 0xe4, 0xff, 0xff,
  0x04, 0x00, 0x00, 0x00, 0x40, 0x00, 0x00, 0x00, 0x38, 0x5c, 0xf1, 0x3e, 0x70,
  0xcd, 0x28, 0xbf, 0x11, 0xa8, 0x23, 0x0b, 0x9f, 0xc8, 0x10, 0x0b, 0x78, 0xdc,
  0x91, 0x0a, 0x19, 0x76, 0x40, 0xbf, 0x3b, 0x4b, 0xcd, 0xbe, 0x78, 0x24, 0x6c,
  0xbf, 0xf5, 0x22, 0x12, 0x0a, 0x26, 0xa0, 0x22, 0xbf, 0x98, 0xf1, 0x40, 0x8b,
  0x70, 0xfd, 0x02, 0xbf, 0x40, 0xdb, 0x21, 0x0b, 0xb0, 0x62, 0x65, 0xbf, 0xb9,
  0xd5, 0x23, 0x0b, 0xcc, 0xd2, 0x93, 0x0a, 0x0a, 0xe5, 0xff, 0xff, 0x04, 0x00,
  0x00, 0x00, 0x00, 0x08, 0x00, 0x00, 0x3f, 0x4a, 0xa3, 0x3d, 0x9d, 0x11, 0x2d,
  0x3e, 0x5f, 0xab, 0x80, 0xba, 0x9c, 0x82, 0x58, 0x0b, 0x47, 0xe1, 0x74, 0xbd,
  0xf9, 0x09, 0xa0, 0x3c, 0x46, 0xbc, 0x11, 0x8b, 0x45, 0x69, 0x88, 0x3e, 0x60,
  0xa9, 0x6e, 0x3e, 0xce, 0xc6, 0x35, 0x8b, 0x93, 0x34, 0xca, 0xbd, 0x8b, 0x12,
  0x5a, 0x8a, 0x77, 0xeb, 0x27, 0x0b, 0xf8, 0x57, 0x02, 0x3d, 0x8b, 0xd5, 0x1d,
  0xbc, 0xc1, 0xfe, 0x4e, 0xbe, 0x8a, 0xf0, 0xe5, 0xbd, 0xbb, 0xee, 0x21, 0xbe,
  0x76, 0x78, 0x47, 0x0b, 0xa9, 0xc8, 0x12, 0x8b, 0x17, 0x13, 0x16, 0x0b, 0xca,
  0x69, 0x4e, 0x8b, 0x3a, 0xba, 0x1d, 0x0b, 0xd1, 0xda, 0x8a, 0xbc, 0x2d, 0xca,
  0x60, 0xbd, 0xef, 0xce, 0x0e, 0x0b, 0x96, 0x98, 0x91, 0xbd, 0xab, 0xda, 0x00,
  0xbe, 0xca, 0xe8, 0xa2, 0xbc, 0xe4, 0x24, 0x2d, 0x3c, 0x15, 0x43, 0xf2, 0xbc,
  0x53, 0x82, 0x29, 0xbd, 0x28, 0x14, 0x4f, 0x3d, 0xa5, 0x98, 0x23, 0x3e, 0x11,
  0x94, 0xcb, 0x3c, 0x2c, 0xdb, 0x4c, 0x8b, 0x88, 0xd7, 0x8a, 0xbe, 0xc2, 0x32,
  0x75, 0xbe, 0xa2, 0x72, 0x81, 0x8a, 0x67, 0x21, 0x60, 0x3d, 0x80, 0x38, 0x90,
  0x3d, 0x76, 0x92, 0x58, 0x0b, 0x2a, 0xd2, 0xb4, 0x3c, 0x44, 0xb2, 0x82, 0x8b,
  0xe2, 0x67, 0x2a, 0x0b, 0xec, 0x2d, 0x5d, 0xbd, 0x02, 0xad, 0xb8, 0x3a, 0x5a,
  0x1f, 0xd3, 0xbe, 0x62, 0x2d, 0xf2, 0x3d, 0x52, 0x7a, 0xb6, 0xbd, 0xa7, 0x89,
  0x4f, 0x0b, 0x01, 0x8f, 0xff, 0x0a, 0xc0, 0x45, 0x1f, 0x8b, 0x77, 0x0d, 0x46,
  0x0b, 0xa3, 0x85, 0x21, 0x8b, 0xea, 0x72, 0x11, 0xbe, 0xc9, 0x40, 0x0a, 0x3e,
  0xf1, 0xbb, 0x0a, 0x0b, 0x16, 0x79, 0xad, 0x3c, 0xc0, 0x07, 0x50, 0xbe, 0x39,
  0xf0, 0x23, 0x3e, 0x45, 0x09, 0x10, 0xbe, 0xba, 0x88, 0x57, 0x3e, 0x95, 0x95,
  0x0f, 0x3e, 0xe4, 0x2b, 0x26, 0x8b, 0x12, 0xac, 0x16, 0x8b, 0x9a, 0xaa, 0x21,
  0x8b, 0x5c, 0x73, 0x20, 0x0b, 0xf5, 0xe4, 0x1f, 0x8b, 0xb1, 0xc8, 0x23, 0x8b,
  0x10, 0x00, 0x8c, 0x8a, 0x36, 0x86, 0x29, 0x8b, 0xd5, 0x94, 0x2e, 0x8b, 0xa0,
  0x20, 0x25, 0x8b, 0xe7, 0x64, 0x26, 0x8b, 0xc5, 0xd6, 0x3a, 0x89, 0xe8, 0xca,
  0x11, 0x0b, 0x2c, 0x14, 0x2a, 0x0b, 0xd2, 0xe4, 0x29, 0x8b, 0x8b, 0x0c, 0x34,
  0x8b, 0x8f, 0xb5, 0x20, 0x8b, 0x9c, 0x9b, 0x19, 0x8b, 0x95, 0x54, 0x0f, 0x0b,
  0x30, 0xba, 0xad, 0x0a, 0x37, 0x0d, 0x21, 0x0b, 0xe5, 0xe7, 0x2b, 0x0b, 0xf7,
  0xde, 0x19, 0x0b, 0x1b, 0x27, 0x25, 0x8b, 0x4b, 0x92, 0x26, 0x8b, 0x32, 0x20,
  0xc8, 0x0a, 0xaa, 0xfa, 0x24, 0x8b, 0x30, 0x46, 0x2f, 0x8b, 0x54, 0x3e, 0x17,
  0x8b, 0x93, 0x69, 0x17, 0x8b, 0x1d, 0xb8, 0x1a, 0x0b, 0x70, 0x43, 0x28, 0x0b,
  0x68, 0x97, 0x1b, 0x8b, 0x2c, 0xf4, 0x0d, 0x8b, 0xf3, 0x72, 0x37, 0x0b, 0xef,
  0x7b, 0xc6, 0x89, 0xfe, 0x89, 0x0f, 0x0b, 0xf4, 0x94, 0x11, 0x8b, 0x09, 0x03,
  0x92, 0x8b, 0x1f, 0x32, 0x0e, 0x0b, 0xf4, 0x0b, 0x0f, 0x8b, 0x71, 0x47, 0x13,
  0x0b, 0x7c, 0x82, 0x0a, 0x8b, 0x9d, 0x8c, 0xf1, 0x0a, 0x34, 0x08, 0x1d, 0x8b,
  0x2a, 0xfd, 0x11, 0x8b, 0xd1, 0xb9, 0xcf, 0x0a, 0x96, 0x61, 0x0b, 0x8b, 0x36,
  0x53, 0x10, 0x8b, 0x9f, 0x0e, 0x1c, 0x0b, 0x9e, 0xde, 0x0e, 0x8b, 0xa5, 0x47,
  0x17, 0x0b, 0xed, 0xdc, 0x18, 0x8b, 0x7a, 0x98, 0x0d, 0x0b, 0x7b, 0x70, 0x5c,
  0x8a, 0x92, 0x9b, 0x18, 0x8b, 0xe8, 0x04, 0x18, 0x0b, 0x20, 0xde, 0x1d, 0x0b,
  0x23, 0x84, 0xcb, 0x8a, 0x85, 0x43, 0x1f, 0x0b, 0x8b, 0x12, 0xfd, 0x8a, 0x6f,
  0xa4, 0x58, 0x0b, 0xf6, 0xc3, 0xe4, 0x8a, 0x1c, 0x23, 0x02, 0x8b, 0xc2, 0x52,
  0xcf, 0x89, 0x0a, 0x6a, 0x83, 0x0a, 0x10, 0x24, 0x70, 0x89, 0xe4, 0x9d, 0x33,
  0x0b, 0x18, 0x27, 0x9f, 0x8a, 0x61, 0x18, 0x8d, 0x0b, 0x77, 0xfb, 0x95, 0x8b,
  0x3a, 0x51, 0x1e, 0x0b, 0x4d, 0x8b, 0x56, 0x0b, 0x78, 0xe0, 0x62, 0x8b, 0xea,
  0x98, 0x07, 0x0a, 0x78, 0xa9, 0xca, 0x09, 0x59, 0x35, 0x29, 0x0a, 0x66, 0x58,
  0x11, 0x0b, 0xf4, 0x5f, 0x2d, 0x0b, 0x60, 0x65, 0x52, 0x8a, 0x02, 0xff, 0xda,
  0x0a, 0x99, 0xb2, 0xa7, 0x0a, 0xfa, 0x0c, 0x1c, 0x0b, 0xca, 0x1e, 0xe2, 0x0a,
  0x86, 0x59, 0xd8, 0x89, 0x47, 0xfb, 0x7f, 0x8a, 0xd8, 0xca, 0x1b, 0x8a, 0xf8,
  0xba, 0xa1, 0x89, 0xa4, 0xd3, 0xae, 0x89, 0x5e, 0xea, 0xd5, 0x8a, 0xc5, 0x36,
  0xd9, 0x8a, 0x62, 0xc1, 0x04, 0x8b, 0x3a, 0x89, 0x57, 0x8b, 0xc0, 0xb9, 0x33,
  0x0b, 0xca, 0x15, 0x60, 0x8a, 0xd7, 0x9d, 0x8c, 0x0b, 0xf0, 0x25, 0x72, 0x3e,
  0x33, 0x30, 0x1f, 0xbe, 0x02, 0x56, 0x4d, 0x3e, 0x74, 0x58, 0x63, 0x8b, 0x3c,
  0xf8, 0x90, 0x3c, 0x45, 0x67, 0x20, 0xbe, 0x22, 0x7e, 0x92, 0x8b, 0x86, 0x15,
  0x57, 0x3e, 0xed, 0x01, 0x8c, 0xbe, 0x17, 0x82, 0x47, 0x0b, 0x9b, 0xeb, 0x6a,
  0x3e, 0x49, 0x5c, 0x55, 0x8b, 0x97, 0x2e, 0x18, 0x8b, 0x0a, 0x27, 0xf8, 0xbc,
  0x1a, 0x99, 0x26, 0x3e, 0xc2, 0xe8, 0x43, 0x3e, 0xe0, 0x99, 0x9e, 0x3a, 0x29,
  0x38, 0xf0, 0xbb, 0x47, 0x47, 0x67, 0x0b, 0xc8, 0x5b, 0x11, 0x8b, 0x3a, 0x87,
  0x27, 0x8b, 0x9a, 0xcc, 0x5e, 0x8b, 0x96, 0x70, 0x20, 0x8b, 0x98, 0x12, 0x93,
  0xbd, 0xff, 0xcd, 0xba, 0xbe, 0x9e, 0x17, 0xf8, 0x0a, 0x94, 0x99, 0xc9, 0x3e,
  0xfd, 0xac, 0x38, 0x3d, 0xee, 0x30, 0x24, 0x3e, 0x9e, 0x73, 0x53, 0x3c, 0x82,
  0x64, 0x6b, 0x3e, 0x9e, 0x93, 0x8e, 0x3e, 0x19, 0xdb, 0x87, 0x3e, 0x11, 0x2a,
  0x96, 0x3e, 0xaf, 0xce, 0xf4, 0x3d, 0x3c, 0xfc, 0x59, 0x8b, 0x08, 0x0d, 0x24,
  0xbd, 0x2c, 0x44, 0x34, 0xbd, 0xfb, 0x4c, 0x93, 0x8b, 0xad, 0x32, 0xe6, 0x3d,
  0xa2, 0x5d, 0x2d, 0x3e, 0xaf, 0xc6, 0x4e, 0x8b, 0x1b, 0xc6, 0x0f, 0x3e, 0x90,
  0x7d, 0xf1, 0x8a, 0xdc, 0xe9, 0x27, 0x8b, 0x51, 0xa3, 0x1b, 0xbe, 0xcf, 0x59,
  0x9d, 0x3d, 0xf2, 0xb7, 0x19, 0x3d, 0xc1, 0x2d, 0x03, 0x3e, 0x7d, 0x16, 0xa2,
  0x3c, 0x41, 0x9f, 0x5c, 0x0b, 0xca, 0x22, 0x08, 0x8b, 0xaa, 0x3e, 0x1b, 0x8b,
  0x88, 0x48, 0x4f, 0x8b, 0x1f, 0xb2, 0x23, 0x8b, 0xdd, 0x94, 0xf1, 0xbc, 0xc0,
  0xc9, 0x3b, 0xbe, 0xe2, 0xaa, 0x0d, 0x8b, 0x77, 0xa4, 0x1b, 0x3e, 0x59, 0x4b,
  0xa6, 0xbd, 0xde, 0x9f, 0xdb, 0x3d, 0x49, 0x5e, 0xe2, 0x3a, 0xa8, 0xd5, 0x03,
  0x3e, 0xe3, 0x80, 0xe7, 0xbd, 0x26, 0x5c, 0x37, 0x3e, 0x34, 0xda, 0x24, 0xbc,
  0x8b, 0x78, 0xab, 0x3e, 0x75, 0x37, 0x5b, 0x0b, 0xb2, 0x6e, 0x42, 0xbe, 0xa2,
  0xf9, 0x08, 0xbf, 0x6f, 0xe3, 0x62, 0x0b, 0x16, 0x50, 0x95, 0x3e, 0x69, 0xd4,
  0xe4, 0xbd, 0xe7, 0x35, 0x3c, 0x0b, 0x8a, 0x85, 0x55, 0x3e, 0x3a, 0x96, 0xaf,
  0x0a, 0xbf, 0x4b, 0x26, 0x0b, 0xf2, 0x43, 0x3f, 0x3e, 0xa4, 0x77, 0x08, 0x3e,
  0x1b, 0xa7, 0xd7, 0xbd, 0xc0, 0x6d, 0x12, 0xbd, 0xb8, 0xaf, 0xc8, 0x3c, 0x84,
  0xa0, 0x5e, 0x8b, 0x01, 0x0a, 0x2f, 0x0b, 0xf3, 0xae, 0x1c, 0x0b, 0x75, 0x61,
  0x46, 0x8b, 0x9d, 0x25, 0x1b, 0x0b, 0x20, 0xf4, 0x9c, 0xbe, 0xc3, 0x12, 0xbb,
  0xbc, 0xe3, 0x70, 0x06, 0x0b, 0x32, 0x6b, 0x26, 0x3e, 0x8f, 0xd2, 0xe6, 0xbd,
  0x81, 0x6d, 0x1c, 0x3e, 0x24, 0xd5, 0xf4, 0xbd, 0x7f, 0x5b, 0x99, 0x3e, 0x41,
  0xeb, 0x68, 0x3e, 0x8e, 0xba, 0x2d, 0x8b, 0x14, 0x54, 0x1e, 0x0b, 0x22, 0xdc,
  0x2a, 0x0b, 0x7e, 0x5a, 0xfa, 0x89, 0x9f, 0x7a, 0x97, 0x0a, 0xfa, 0x79, 0x13,
  0x8b, 0x06, 0xfd, 0x40, 0x8a, 0xe0, 0xf3, 0x91, 0x8a, 0x34, 0xe1, 0xa6, 0x0a,
  0xe5, 0xf0, 0x9a, 0x8a, 0x8b, 0xd5, 0x1b, 0x0a, 0x1c, 0x2c, 0x03, 0x0b, 0x66,
  0xc0, 0x4c, 0x0a, 0xca, 0x87, 0x87, 0x0b, 0xbf, 0xdc, 0xca, 0x8a, 0x27, 0x3a,
  0x8c, 0x8b, 0xbf, 0x36, 0x92, 0x8b, 0xff, 0xaf, 0x02, 0x8b, 0x21, 0x8f, 0xe1,
  0x0a, 0x92, 0x23, 0x0a, 0x0b, 0xf5, 0xe6, 0x87, 0x0b, 0x92, 0x54, 0xcb, 0x89,
  0x88, 0x3e, 0x09, 0x0a, 0xe4, 0x85, 0x30, 0x89, 0x38, 0x55, 0xa2, 0x88, 0xba,
  0x41, 0x69, 0x8b, 0x9a, 0x09, 0xf4, 0x8a, 0x5e, 0xdc, 0x3a, 0x89, 0x10, 0x2a,
  0x40, 0x8a, 0xbe, 0xae, 0x3e, 0x0b, 0x26, 0xa6, 0xf2, 0x0a, 0xfc, 0x86, 0x26,
  0x0b, 0x68, 0x66, 0xa5, 0x3e, 0xee, 0x0f, 0xae, 0x3e, 0x70, 0x86, 0x60, 0x3e,
  0xc9, 0x83, 0x59, 0x8b, 0xf4, 0x83, 0x09, 0xbe, 0x61, 0xde, 0x32, 0x3d, 0xa9,
  0x9c, 0x54, 0x0a, 0xe7, 0xc9, 0xf8, 0xbd, 0xc4, 0x2b, 0x12, 0xbd, 0xe2, 0xe6,
  0x44, 0x8b, 0xc8, 0xdf, 0x0d, 0x3e, 0x73, 0x18, 0x70, 0x8a, 0x86, 0xd3, 0x1a,
  0x8b, 0xab, 0xff, 0x55, 0x3e, 0xed, 0x61, 0xa1, 0x3e, 0xac, 0xf6, 0x82, 0xbe,
  0xf3, 0x33, 0x6a, 0x3d, 0x33, 0x56, 0x13, 0xbe, 0x69, 0xe2, 0x67, 0x8b, 0x6b,
  0xed, 0x14, 0x8b, 0x7f, 0xa7, 0x17, 0x8b, 0xa5, 0xc8, 0x3d, 0x0b, 0xe4, 0x90,
  0x1e, 0x8b, 0xbe, 0xfd, 0xb6, 0xbd, 0x59, 0xc0, 0x5d, 0x3d, 0x0a, 0x22, 0x16,
  0x8b, 0x34, 0xf7, 0x68, 0x3e, 0xf5, 0x89, 0x4b, 0xbd, 0x85, 0xaf, 0x16, 0x3e,
  0x07, 0xb1, 0xba, 0xbc, 0xfd, 0xf5, 0x4f, 0x3e, 0xd7, 0x80, 0x32, 0x3d, 0xae,
  0xd6, 0x28, 0x0b, 0x86, 0x6d, 0x1b, 0x8a, 0xbc, 0xcf, 0xf9, 0x8a, 0x44, 0x1f,
  0x9f, 0x8a, 0x21, 0xdc, 0x2f, 0x0b, 0x42, 0xcf, 0x50, 0x0b, 0x54, 0x1b, 0x95,
  0x8b, 0x62, 0x33, 0x34, 0x0b, 0x34, 0x29, 0x2d, 0x8b, 0x26, 0x62, 0x25, 0x0b,
  0x74, 0x16, 0x1a, 0x0b, 0x2d, 0x56, 0x8a, 0x8b, 0x0c, 0xf6, 0x27, 0x8b, 0x5f,
  0x6b, 0x24, 0x8b, 0xbf, 0xf4, 0xfd, 0x8a, 0x65, 0xaf, 0x1f, 0x8b, 0x3f, 0x0c,
  0x38, 0x8b, 0x87, 0xfb, 0x39, 0x0b, 0xd1, 0x51, 0x30, 0x0b, 0x18, 0xbe, 0x13,
  0x8b, 0x86, 0xc3, 0x1c, 0x0b, 0xdb, 0xae, 0xa9, 0x8b, 0x13, 0x14, 0x29, 0x8b,
  0x65, 0x25, 0x34, 0x0b, 0x27, 0x76, 0x31, 0x8b, 0x22, 0x7b, 0x0c, 0x8b, 0x87,
  0xee, 0xc9, 0x0a, 0x0d, 0x0d, 0x30, 0x8b, 0x5e, 0x2b, 0x19, 0x0b, 0xb9, 0x03,
  0x37, 0x8b, 0x3e, 0xd8, 0x03, 0x8a, 0xb1, 0x00, 0xa9, 0x0a, 0x72, 0xc9, 0x39,
  0xbc, 0xed, 0x29, 0x62, 0x3e, 0xa3, 0x5f, 0xcc, 0x3d, 0x7b, 0x2d, 0x57, 0x0b,
  0x1a, 0xa5, 0xf9, 0xbd, 0xfc, 0x89, 0x60, 0x3d, 0xa5, 0x33, 0x1c, 0x0b, 0x9b,
  0x3b, 0x65, 0x3d, 0x61, 0x47, 0x2a, 0x3e, 0x58, 0x62, 0x57, 0x0b, 0x35, 0x60,
  0xda, 0x3d, 0x8e, 0x29, 0xed, 0x0a, 0xea, 0x8c, 0x1e, 0x0b, 0x5f, 0x2b, 0xa0,
  0xbe, 0xad, 0xd1, 0xd3, 0x3d, 0x76, 0x17, 0xa1, 0xbd, 0xc8, 0xda, 0xd4, 0x3e,
  0xab, 0x07, 0x10, 0xbe, 0x25, 0xcf, 0x66, 0x0b, 0x2b, 0xd2, 0x19, 0x0b, 0x27,
  0x79, 0x22, 0x0b, 0xcb, 0xe1, 0x56, 0x8b, 0xf6, 0x61, 0x1d, 0x0b, 0x97, 0x10,
  0x3c, 0x3d, 0xd7, 0xb4, 0x83, 0x3d, 0x1e, 0xa4, 0x13, 0x8b, 0x4e, 0x70, 0xf8,
  0x3d, 0x6b, 0xac, 0x87, 0xbe, 0x02, 0x75, 0x95, 0x3e, 0x92, 0x55, 0x30, 0x3d,
  0xcd, 0xf9, 0x2b, 0x3e, 0x52, 0x76, 0x7c, 0xbd, 0x89, 0xda, 0x05, 0x8b, 0xc0,
  0xd9, 0x1f, 0x8b, 0xec, 0x4d, 0xdd, 0x8a, 0xff, 0xfd, 0xe7, 0x8a, 0x61, 0xe9,
  0x0b, 0x0b, 0x4c, 0x3c, 0x17, 0x8b, 0x46, 0x3c, 0xec, 0x8a, 0x42, 0xc4, 0x06,
  0x0b, 0x2e, 0x4a, 0x1f, 0x8b, 0xc4, 0x18, 0x20, 0x0b, 0xe8, 0xab, 0x12, 0x8b,
  0x60, 0xfe, 0xb8, 0x09, 0xec, 0x94, 0x2e, 0x0b, 0xd8, 0xaa, 0x12, 0x8b, 0x1c,
  0xb6, 0x90, 0x88, 0x70, 0x3f, 0x11, 0x8b, 0xca, 0xbc, 0x11, 0x8b, 0xdb, 0xba,
  0x18, 0x0b, 0x79, 0xa7, 0x1d, 0x8b, 0x4f, 0x38, 0x1e, 0x8b, 0x54, 0x52, 0x28,
  0x8b, 0x54, 0xd6, 0x19, 0x8b, 0xf1, 0x40, 0x8c, 0x8b, 0xe1, 0x85, 0x24, 0x8b,
  0x62, 0x9d, 0x0e, 0x8b, 0x94, 0x17, 0x33, 0x0b, 0xd2, 0x20, 0x78, 0x0a, 0xe4,
  0x8c, 0x24, 0x8b, 0x03, 0xf2, 0xde, 0x89, 0x7f, 0xb4, 0x9c, 0x0a, 0xe3, 0xc7,
  0xd5, 0x0a, 0x74, 0x36, 0xb2, 0x8a, 0x7f, 0x25, 0x22, 0x3c, 0x21, 0x98, 0xb1,
  0x3e, 0x9c, 0x20, 0x9c, 0x3e, 0x67, 0x5b, 0x56, 0x8b, 0xb5, 0x7d, 0x96, 0xbe,
  0x9a, 0x6a, 0x08, 0xb9, 0x98, 0xd3, 0x7a, 0x0a, 0xf7, 0x52, 0x12, 0x3d, 0xc0,
  0xb5, 0x28, 0xbe, 0x0c, 0x30, 0x46, 0x8b, 0x03, 0x5d, 0x07, 0x3d, 0x2c, 0x94,
  0x91, 0x8a, 0x4b, 0x89, 0x1f, 0x8b, 0x7c, 0xcc, 0xd1, 0x3d, 0x72, 0xbd, 0x8e,
  0x3e, 0xbe, 0xa8, 0x50, 0xbc, 0xa5, 0x87, 0xb2, 0x3d, 0xd4, 0x5a, 0xb7, 0xbc,
  0xde, 0x7d, 0x4b, 0x0b, 0x05, 0xa6, 0x20, 0x0b, 0x88, 0x64, 0x18, 0x8b, 0x83,
  0xb2, 0x47, 0x8b, 0xcb, 0xb8, 0x1e, 0x8b, 0x0b, 0x26, 0x37, 0x3e, 0x46, 0xa9,
  0x00, 0xbf, 0x3f, 0xbd, 0x06, 0x0b, 0x3c, 0x80, 0x31, 0x3d, 0x28, 0x2e, 0xf4,
  0xbd, 0x2f, 0x14, 0x23, 0x3e, 0x35, 0x1d, 0x3d, 0xbe, 0x78, 0x56, 0x98, 0x3e,
  0xa9, 0x13, 0x99, 0x3e, 0x62, 0xcc, 0x1b, 0x8a, 0x7a, 0xee, 0x13, 0x0b, 0x1e,
  0x61, 0x6d, 0x0b, 0x3c, 0xa9, 0x31, 0x8b, 0xe7, 0x3c, 0x99, 0x8a, 0x2e, 0x63,
  0x0b, 0x0b, 0x96, 0x49, 0x89, 0x8b, 0x5b, 0xad, 0x40, 0x0b, 0x10, 0x2a, 0x0d,
  0x8b, 0x30, 0xca, 0x0d, 0x0b, 0x5e, 0x6f, 0x20, 0x09, 0xbd, 0x74, 0x66, 0x0b,
  0x1e, 0x14, 0x0d, 0x0b, 0xe9, 0xc2, 0x1b, 0x8b, 0x08, 0x40, 0xbb, 0x09, 0xff,
  0xaf, 0x0a, 0x8b, 0xee, 0x15, 0xfb, 0x8a, 0xae, 0x27, 0x10, 0x8b, 0x32, 0x37,
  0x0f, 0x8b, 0xf0, 0x44, 0x02, 0x8b, 0xf7, 0x0e, 0x18, 0x0b, 0x30, 0x20, 0x1f,
  0x8b, 0x1e, 0x47, 0xd5, 0x0a, 0x5e, 0x41, 0x17, 0x8b, 0x6a, 0x63, 0x1d, 0x8a,
  0xcc, 0x73, 0xf4, 0x0a, 0xdf, 0xac, 0x3a, 0x0a, 0x1c, 0x29, 0x1d, 0x8b, 0x46,
  0x24, 0x6a, 0x89, 0x5d, 0x06, 0x09, 0x8b, 0xf4, 0xd2, 0x02, 0x0b, 0xfa, 0x3c,
  0x1a, 0x0b, 0x81, 0x24, 0xa7, 0x8a, 0xde, 0x45, 0x25, 0x8b, 0x63, 0x46, 0x44,
  0x8b, 0xb5, 0x82, 0x0f, 0x8b, 0xf8, 0x67, 0x77, 0x0a, 0xa2, 0xa8, 0x03, 0x0b,
  0xe0, 0x09, 0xa4, 0x09, 0xe4, 0x81, 0xe4, 0x8a, 0xa3, 0x52, 0xf7, 0x8a, 0x79,
  0xcc, 0x20, 0x0b, 0xe5, 0x7f, 0x8b, 0x8b, 0xd0, 0xc9, 0x3c, 0x0b, 0xce, 0x55,
  0x5c, 0x0a, 0x7d, 0xd3, 0xfe, 0x0a, 0xcb, 0xa5, 0xb3, 0x8a, 0xc0, 0xf5, 0xf0,
  0x89, 0x08, 0xf5, 0x1e, 0x8a, 0x9c, 0x40, 0x2e, 0x0b, 0xdc, 0x46, 0x4c, 0x0a,
  0x90, 0x57, 0xfe, 0x08, 0x1c, 0xef, 0x81, 0x0b, 0xe6, 0x4a, 0x31, 0x8b, 0xd0,
  0x4f, 0x90, 0x08, 0xb3, 0x33, 0x7d, 0x0a, 0x59, 0xd3, 0x4a, 0x09, 0x2a, 0xb4,
  0x13, 0x8b, 0xda, 0xdb, 0x7e, 0x8b, 0xb0, 0x21, 0x09, 0x8b, 0x28, 0x71, 0x48,
  0x8b, 0xe1, 0xb2, 0x68, 0x8b, 0x52, 0xe5, 0x37, 0x0b, 0x65, 0x88, 0x8d, 0x0b,
  0x16, 0xed, 0xff, 0xff, 0x04, 0x00, 0x00, 0x00, 0x80, 0x12, 0x00, 0x00, 0xf9,
  0x0c, 0x14, 0x3f, 0x91, 0x1c, 0x54, 0xbe, 0x52, 0x72, 0x91, 0x3e, 0x6a, 0xb4,
  0x9f, 0xbd, 0x7b, 0x5d, 0x3c, 0xbe, 0x41, 0x2c, 0x41, 0x3e, 0xda, 0x4a, 0x9e,
  0xbe, 0xa3, 0xe0, 0x94, 0x3b, 0x34, 0xed, 0x37, 0xbd, 0x16, 0x28, 0x39, 0xbe,
  0x07, 0xff, 0x02, 0xbd, 0x26, 0x54, 0x92, 0x3e, 0xb7, 0x01, 0x23, 0x3e, 0xae,
  0x86, 0x20, 0xbd, 0x92, 0xec, 0x90, 0xbd, 0x8a, 0x65, 0xad, 0xbd, 0x00, 0x53,
  0xe4, 0xbd, 0x84, 0x49, 0x98, 0xbc, 0xe2, 0xf9, 0x4e, 0xbe, 0xde, 0xf2, 0x33,
  0xbe, 0xef, 0x1b, 0xa1, 0xbd, 0xe2, 0xa7, 0x06, 0xbe, 0x0d, 0x2a, 0x34, 0xbe,
  0x0d, 0xc8, 0x21, 0xbe, 0xf5, 0x6d, 0x3f, 0xbe, 0x24, 0x4b, 0x1d, 0xbe, 0x28,
  0xc4, 0x37, 0xbe, 0xa7, 0x83, 0x67, 0xbe, 0xec, 0xc5, 0x35, 0xbe, 0x8e, 0x79,
  0x3d, 0x3e, 0x47, 0x6c, 0xa1, 0xba, 0x38, 0xdf, 0x36, 0x3e, 0xd3, 0xfc, 0xcd,
  0x3d, 0xbc, 0x22, 0x9e, 0x3e, 0x8b, 0x2c, 0xd3, 0x3d, 0x26, 0xa3, 0xc1, 0x3e,
  0x1b, 0x4d, 0x73, 0x3e, 0xc0, 0x7f, 0x1f, 0x3e, 0x53, 0xfe, 0x24, 0xbe, 0xb5,
  0x37, 0x11, 0xbf, 0x70, 0xe8, 0x0f, 0x3f, 0xae, 0x2c, 0x86, 0xbd, 0x66, 0x3b,
  0x8a, 0xbd, 0xa6, 0xb3, 0x35, 0x3d, 0xd3, 0xc6, 0xe5, 0x3d, 0xda, 0xfb, 0x8f,
  0xbb, 0x21, 0x67, 0x50, 0xbd, 0x3e, 0xf3, 0x00, 0xbe, 0xd2, 0x4a, 0xf8, 0x3c,
  0x82, 0x53, 0x19, 0xbe, 0xb9, 0x76, 0x03, 0x3e, 0xfd, 0xea, 0x3e, 0x3d, 0x50,
  0x9b, 0xac, 0x3d, 0xcf, 0x2e, 0xc9, 0xbd, 0xcc, 0x52, 0x35, 0x3d, 0xb8, 0x31,
  0x38, 0x3d, 0xd7, 0xb7, 0x53, 0xbd, 0xb5, 0x9f, 0xe2, 0x3c, 0x81, 0x07, 0xc9,
  0x3c, 0x6e, 0x6f, 0xc6, 0xbc, 0xfb, 0xf0, 0xff, 0x3d, 0xe7, 0x96, 0x13, 0x3c,
  0x27, 0x84, 0x3c, 0xbe, 0x73, 0x72, 0xa8, 0xbd, 0xc5, 0x98, 0x6b, 0xbd, 0xf4,
  0x1a, 0xb6, 0x3c, 0x62, 0xb9, 0xd3, 0x3c, 0xf1, 0x3e, 0x08, 0xbe, 0xb7, 0x63,
  0xa7, 0x3d, 0x98, 0x4f, 0x0c, 0xbe, 0x0e, 0x36, 0xd8, 0x3d, 0x92, 0x42, 0x85,
  0x3d, 0x26, 0x67, 0x0a, 0x3d, 0xe7, 0x2d, 0x22, 0xbd, 0xb6, 0x72, 0x9c, 0xbb,
  0x85, 0x03, 0xcd, 0x3c, 0x69, 0x9e, 0x8a, 0xbc, 0x64, 0x6f, 0x61, 0x3d, 0xfd,
  0x76, 0xc7, 0x3c, 0x76, 0x66, 0xbb, 0x3c, 0x5e, 0xd9, 0xf2, 0xbd, 0x82, 0x5a,
  0x2d, 0x3d, 0x0e, 0x49, 0xdf, 0x3c, 0x34, 0xae, 0xcf, 0x3c, 0x4b, 0x5b, 0xf9,
  0x3b, 0xd8, 0xea, 0xe8, 0xbb, 0x8a, 0x4f, 0xe4, 0x3c, 0xc0, 0x0b, 0x90, 0xbb,
  0xd5, 0x16, 0x0e, 0x3c, 0xfe, 0x47, 0x25, 0x3d, 0x94, 0x0a, 0x40, 0x3d, 0x93,
  0xc1, 0x1f, 0xbe, 0xc3, 0x3f, 0x1d, 0xbe, 0xb7, 0x4e, 0x3f, 0xbe, 0xab, 0xc5,
  0x29, 0xbe, 0x60, 0x33, 0xa5, 0xbc, 0x8b, 0x34, 0x0f, 0xbc, 0x06, 0x6e, 0x8c,
  0xbc, 0x4c, 0x8a, 0xdc, 0xbc, 0x00, 0x69, 0x4a, 0xbe, 0x4d, 0x80, 0x1a, 0xbe,
  0x3f, 0x07, 0x79, 0xbe, 0x36, 0x39, 0x3b, 0xbe, 0x09, 0xa0, 0x5e, 0xbd, 0xf2,
  0x10, 0xb4, 0x3a, 0x45, 0x83, 0x43, 0x3d, 0xd0, 0x99, 0x5a, 0x3d, 0x0b, 0x6a,
  0x01, 0x3d, 0x4b, 0x00, 0xb7, 0x3d, 0xee, 0xef, 0x54, 0x3d, 0x0b, 0xc7, 0xe2,
  0x3d, 0xbf, 0x9d, 0x55, 0x8a, 0x7c, 0x4d, 0xa6, 0x0b, 0x5e, 0xc6, 0x7e, 0x0b,
  0xe6, 0x9c, 0x0a, 0x0b, 0xfc, 0x15, 0x77, 0x0b, 0xdc, 0x6c, 0x4d, 0x0a, 0x74,
  0xe8, 0x49, 0x0b, 0xa5, 0x3b, 0x28, 0x8b, 0xd0, 0x3c, 0x2d, 0x8b, 0x72, 0x2e,
  0x29, 0x8b, 0x4a, 0x28, 0x2a, 0x8b, 0x75, 0x42, 0x2b, 0x8b, 0xb1, 0x9f, 0x2c,
  0x8b, 0xb4, 0xea, 0x24, 0x8b, 0xfa, 0xde, 0x24, 0x8b, 0x43, 0x3c, 0x20, 0x8b,
  0x0c, 0xbe, 0x1c, 0x8b, 0xf8, 0x85, 0x14, 0x8b, 0x35, 0xb0, 0x11, 0x8b, 0x0e,
  0x15, 0x17, 0x8b, 0x12, 0xf0, 0x13, 0x8b, 0xd4, 0x96, 0x2a, 0x8b, 0xfb, 0x36,
  0x25, 0x8b, 0x70, 0x4a, 0x22, 0x8b, 0x63, 0xf1, 0x21, 0x8b, 0x93, 0xff, 0x14,
  0x8b, 0xeb, 0x4e, 0x18, 0x8b, 0xc9, 0xf9, 0x24, 0x8b, 0xd0, 0x5e, 0x18, 0x8b,
  0xda, 0x6c, 0x27, 0x8b, 0x17, 0xf6, 0x20, 0x8b, 0x01, 0x5f, 0x29, 0x8b, 0x26,
  0x89, 0x29, 0x8b, 0x4c, 0x67, 0x21, 0x8b, 0xcb, 0x9f, 0x1a, 0x8b, 0x18, 0x17,
  0x23, 0x8b, 0x86, 0xbb, 0x22, 0x8b, 0x5b, 0x89, 0x04, 0xbe, 0xf3, 0xb3, 0xc0,
  0x3d, 0x80, 0x6b, 0x00, 0x3d, 0xae, 0x04, 0x57, 0x3c, 0xb5, 0x8b, 0x7c, 0x3d,
  0xd2, 0xf2, 0x79, 0xbd, 0x14, 0x72, 0x1c, 0xbd, 0xe8, 0xbb, 0x90, 0xbc, 0xa6,
  0x0f, 0xb0, 0x3c, 0xd0, 0xc3, 0x4f, 0x3d, 0xa2, 0x4f, 0xd3, 0x3c, 0x4a, 0x1f,
  0x62, 0xbd, 0xe1, 0xfa, 0x4f, 0x3c, 0x5d, 0x81, 0xc9, 0xbd, 0x31, 0x68, 0x45,
  0xbe, 0x02, 0xfd, 0x1e, 0x3d, 0x05, 0x0f, 0xdc, 0x3d, 0x6c, 0x94, 0xb8, 0x3d,
  0xcd, 0x91, 0x77, 0x3e, 0x76, 0x65, 0x61, 0xbe, 0xb4, 0xfc, 0x9f, 0xbe, 0x56,
  0x67, 0x58, 0xbc, 0x51, 0xd2, 0xd1, 0xbd, 0xb6, 0xf5, 0x98, 0x3d, 0x1f, 0x79,
  0x51, 0x3e, 0xcb, 0x5e, 0xf7, 0x3d, 0xcd, 0x34, 0x0e, 0x3e, 0x4a, 0xf5, 0x67,
  0xbc, 0x58, 0x0a, 0x40, 0xbe, 0x51, 0x52, 0xf0, 0xbd, 0x0b, 0xf5, 0x1c, 0xbe,
  0x11, 0xa9, 0x75, 0x3d, 0x36, 0xfe, 0x6c, 0x3e, 0xc4, 0x7c, 0x28, 0x3d, 0x51,
  0xe7, 0x38, 0x3e, 0x88, 0xaa, 0x80, 0xbd, 0x06, 0x17, 0x7f, 0xbd, 0xa3, 0xf1,
  0xa7, 0xbd, 0x32, 0x45, 0x46, 0x3d, 0x01, 0xad, 0x60, 0xbc, 0x87, 0xbd, 0x0d,
  0x3d, 0xf5, 0xff, 0xed, 0x3d, 0xfe, 0x1e, 0x91, 0x3c, 0x1d, 0x2b, 0x9d, 0x3b,
  0xe7, 0x82, 0x1f, 0x3c, 0xa1, 0xa2, 0x13, 0x3d, 0xee, 0x24, 0xc9, 0xbc, 0x4e,
  0x3d, 0x07, 0xbd, 0x05, 0x5c, 0x37, 0xbd, 0x88, 0xd8, 0xfb, 0x3c, 0xce, 0xb0,
  0x35, 0x3e, 0x73, 0xc3, 0xac, 0x3e, 0x62, 0xad, 0x87, 0xbe, 0x3b, 0x00, 0x7c,
  0xbe, 0x81, 0x4c, 0x5e, 0x3c, 0x24, 0x30, 0xc1, 0x3c, 0xf7, 0x8e, 0x8c, 0xbb,
  0x4f, 0xd2, 0x54, 0x3c, 0x95, 0x13, 0x01, 0x3e, 0x3f, 0x4b, 0x64, 0x3e, 0x28,
  0xb9, 0x3e, 0xbe, 0x91, 0x3f, 0x6c, 0xbe, 0x6a, 0x08, 0xbd, 0x3c, 0xf3, 0x3b,
  0x80, 0xbd, 0x4c, 0x96, 0x77, 0xbd, 0xbf, 0x13, 0xe5, 0xbb, 0x26, 0xf0, 0xdc,
  0x3d, 0x1d, 0xfb, 0x70, 0x3e, 0xc1, 0xc6, 0xf0, 0xbd, 0x1b, 0xc0, 0x18, 0xbe,
  0x2f, 0xa1, 0x57, 0x3c, 0x16, 0x27, 0xb3, 0x3a, 0xb9, 0x1b, 0x09, 0xbb, 0x4b,
  0x40, 0x34, 0x3d, 0x7e, 0xe0, 0x0a, 0x8b, 0x83, 0x35, 0x76, 0x0a, 0x6d, 0xaa,
  0xd9, 0x8a, 0x29, 0x8a, 0xdb, 0x8a, 0xd4, 0xf4, 0x8e, 0x8b, 0xee, 0xfc, 0xbd,
  0x0a, 0x45, 0x4c, 0xbb, 0x8a, 0xb6, 0xec, 0x9a, 0x8a, 0x4b, 0x14, 0x81, 0x0b,
  0xad, 0xdd, 0xf8, 0x0a, 0xf0, 0xc8, 0xc9, 0x88, 0x52, 0x1e, 0x04, 0x8b, 0x92,
  0xe6, 0xaf, 0x89, 0x9e, 0xb5, 0x81, 0x0b, 0x5e, 0x18, 0x0a, 0x8a, 0xf9, 0x25,
  0x91, 0x8b, 0xae, 0x03, 0x8b, 0x8a, 0xa3, 0x73, 0x70, 0x0b, 0x67, 0xcf, 0x7e,
  0x0b, 0x6c, 0x92, 0xc3, 0x8a, 0x5e, 0xd2, 0x19, 0x8a, 0x28, 0x21, 0x76, 0x8b,
  0x80, 0x76, 0x45, 0x0a, 0xf9, 0x19, 0x2a, 0x0b, 0x4a, 0x25, 0xde, 0x8a, 0x3e,
  0x45, 0x86, 0x8b, 0x8d, 0x02, 0x04, 0x0b, 0x51, 0x27, 0x92, 0x8b, 0xae, 0xa3,
  0x3a, 0x0b, 0x2d, 0x88, 0x57, 0x8b, 0x06, 0x65, 0x55, 0x8b, 0x40, 0xe9, 0x05,
  0x0b, 0x55, 0x60, 0x6b, 0x0b, 0x9e, 0x66, 0x38, 0x0b, 0x78, 0x69, 0x0b, 0x0b,
  0x30, 0x3f, 0x97, 0x0a, 0xae, 0xd2, 0x39, 0x8a, 0xd5, 0x73, 0xc5, 0x3e, 0x69,
  0xb4, 0x05, 0xbe, 0x3c, 0x9c, 0x03, 0x3e, 0xa8, 0x29, 0x91, 0xbc, 0x82, 0x77,
  0x86, 0xbd, 0xd1, 0x32, 0x16, 0x3d, 0x5a, 0x89, 0x22, 0x3e, 0x0a, 0xd8, 0xfa,
  0x3c, 0x59, 0x24, 0x15, 0x3a, 0x46, 0xf5, 0xd6, 0x3c, 0x41, 0xfd, 0x33, 0x3d,
  0xed, 0x7d, 0xbc, 0x3c, 0xd5, 0x39, 0x29, 0xbc, 0x54, 0x49, 0x75, 0x3d, 0xe8,
  0xca, 0x2c, 0x3a, 0xa5, 0x53, 0x3f, 0xbe, 0x0b, 0x35, 0x57, 0xbe, 0xba, 0x4c,
  0x20, 0x3e, 0xf8, 0xa3, 0x9c, 0x3d, 0x9e, 0xe9, 0xb9, 0x3d, 0xcc, 0xbf, 0x91,
  0x3c, 0xb6, 0x2e, 0xf2, 0xbc, 0xd4, 0xf1, 0x2d, 0xbd, 0x8a, 0x4d, 0x28, 0xbe,
  0x25, 0x76, 0x23, 0xbe, 0x62, 0xf1, 0x19, 0x3e, 0x84, 0x86, 0x70, 0x3d, 0x89,
  0xe7, 0xc0, 0x3d, 0xe2, 0xa9, 0x0c, 0x3c, 0x2e, 0x80, 0xc6, 0xbb, 0x46, 0xb7,
  0x57, 0xbd, 0x8e, 0x24, 0x39, 0xbe, 0x5e, 0x8d, 0x5c, 0xbe, 0xe6, 0x4a, 0x10,
  0xbd, 0xff, 0x76, 0xea, 0xbd, 0xe2, 0xd5, 0x38, 0x3d, 0xb3, 0x6e, 0x8b, 0xbd,
  0xa4, 0x29, 0xa1, 0xbe, 0x60, 0x0e, 0x96, 0x3d, 0x0c, 0xa3, 0x3a, 0x3c, 0xf4,
  0x18, 0x0f, 0x3d, 0x09, 0xc2, 0x04, 0x3e, 0xfb, 0xb4, 0x8e, 0xbe, 0x16, 0xf4,
  0xec, 0x3d, 0x63, 0xc7, 0xfb, 0x3c, 0xd8, 0x91, 0xc5, 0x3d, 0xaf, 0x55, 0xa6,
  0xbd, 0xa1, 0xa4, 0x74, 0xbd, 0xfc, 0xad, 0x98, 0xbd, 0xcc, 0x9f, 0x26, 0x3d,
  0x3f, 0x88, 0xab, 0x3d, 0x33, 0x35, 0x66, 0x3e, 0x42, 0x45, 0x97, 0xbc, 0xf8,
  0xff, 0x11, 0x3c, 0xc2, 0x57, 0x6d, 0xbd, 0xa4, 0x95, 0x82, 0x3d, 0x2a, 0x7c,
  0xbd, 0xbc, 0x9a, 0x3c, 0x91, 0x3d, 0xb0, 0x02, 0x9c, 0xbd, 0x9e, 0x2a, 0x8c,
  0x3d, 0x09, 0x73, 0x1f, 0x3d, 0xac, 0xbb, 0x87, 0x3d, 0xde, 0xc4, 0xa9, 0xbc,
  0xf7, 0x98, 0xc1, 0x3d, 0x6a, 0x33, 0x25, 0xbe, 0xe2, 0x03, 0x29, 0xbc, 0x51,
  0x71, 0x02, 0xb9, 0x56, 0x64, 0xf6, 0x3d, 0x01, 0xd1, 0x5e, 0x3d, 0xb9, 0xe1,
  0xfb, 0x3c, 0x0e, 0x16, 0x1c, 0xbd, 0xd6, 0x1e, 0x98, 0x3d, 0x5f, 0x04, 0x52,
  0x3e, 0x7c, 0x46, 0xad, 0x3e, 0x97, 0xf5, 0x4b, 0x0b, 0x71, 0xc4, 0x24, 0x8b,
  0x2c, 0xfc, 0x45, 0x0b, 0xd9, 0x47, 0x59, 0x0b, 0xc6, 0xaa, 0x23, 0x8b, 0xab,
  0x63, 0x3d, 0x0b, 0x97, 0x63, 0x4a, 0x0b, 0x91, 0xbd, 0x43, 0x8b, 0x60, 0x0d,
  0x4d, 0x8b, 0x51, 0xd8, 0x41, 0x8b, 0x31, 0x0e, 0x45, 0x8b, 0xa5, 0x40, 0x4e,
  0x8b, 0x2c, 0x3c, 0x4e, 0x8b, 0xfb, 0xe5, 0x3f, 0x8b, 0xf1, 0x0d, 0x37, 0x8b,
  0x18, 0xe9, 0x41, 0x8b, 0xe8, 0x15, 0x41, 0x8b, 0x1b, 0xc3, 0x41, 0x8b, 0xe2,
  0xda, 0x3d, 0x8b, 0x7a, 0x3a, 0x49, 0x0b, 0x5d, 0x02, 0x41, 0x0b, 0x8f, 0x4c,
  0x36, 0x8b, 0xc2, 0x4e, 0x3a, 0x8b, 0x87, 0x5b, 0x3e, 0x8b, 0x74, 0x38, 0x3b,
  0x8b, 0x1f, 0x8c, 0x3c, 0x8b, 0xc9, 0x2a, 0x44, 0x8b, 0xc9, 0x6e, 0x45, 0x0b,
  0x6b, 0x64, 0x43, 0x0b, 0x87, 0xb6, 0x3c, 0x8b, 0x2d, 0x75, 0x3c, 0x8b, 0x52,
  0x72, 0x42, 0x8b, 0xb4, 0x21, 0x42, 0x8b, 0x9c, 0xd1, 0x3a, 0x8b, 0x6e, 0x7f,
  0x3a, 0x8b, 0x4c, 0xb8, 0x44, 0x0b, 0x85, 0xdf, 0x48, 0x0b, 0x3f, 0x9e, 0x03,
  0xbd, 0x56, 0x10, 0x10, 0x3b, 0x28, 0x6e, 0x62, 0x3d, 0x84, 0xb9, 0x07, 0xbd,
  0x7f, 0x8b, 0x80, 0x3c, 0xc2, 0x67, 0x4f, 0x3d, 0xab, 0x95, 0xb7, 0xbc, 0x1a,
  0xb2, 0x01, 0xbc, 0x8f, 0x3a, 0x97, 0xba, 0xd9, 0xb0, 0x93, 0xbd, 0x14, 0x4c,
  0x5e, 0xbd, 0x8d, 0xdf, 0x73, 0xbd, 0x34, 0x87, 0x5e, 0xbd, 0x84, 0xc4, 0x8a,
  0xbd, 0x48, 0x0b, 0x9a, 0xbd, 0x0b, 0xd5, 0xab, 0xbd, 0x85, 0xd5, 0xb9, 0xbd,
  0x0c, 0x75, 0x6b, 0x3c, 0x75, 0xf2, 0x99, 0x3d, 0xc7, 0x2c, 0xbd, 0x3d, 0x20,
  0x9d, 0xf0, 0x3d, 0x3e, 0xf7, 0x05, 0xbe, 0x2b, 0x31, 0x8d, 0xbd, 0xaf, 0xdd,
  0xd9, 0xbd, 0xed, 0x54, 0x80, 0xbd, 0x2e, 0x33, 0x7b, 0xbc, 0xa3, 0xa6, 0xee,
  0x3b, 0x3c, 0xe4, 0x04, 0x3e, 0xda, 0xb0, 0x24, 0x3e, 0xbc, 0x0d, 0x11, 0xbc,
  0xdd, 0xc2, 0xfe, 0x3c, 0x6d, 0x9c, 0xe9, 0xbd, 0x30, 0x2b, 0x05, 0xbd, 0xe3,
  0x01, 0xd7, 0xbd, 0x02, 0x42, 0x76, 0xbd, 0x51, 0xc9, 0xa5, 0x3d, 0xff, 0xd1,
  0xf3, 0x3d, 0xf3, 0x3f, 0x0f, 0x0b, 0xd2, 0x41, 0x00, 0x89, 0xf2, 0x4e, 0x3e,
  0x8b, 0x58, 0x21, 0xd9, 0x8a, 0x6e, 0x98, 0xfd, 0x88, 0xfc, 0x37, 0x3d, 0x8b,
  0x94, 0xa0, 0x17, 0x0b, 0x3e, 0xe8, 0xfe, 0x8a, 0x5d, 0x07, 0xfa, 0x8a, 0xe4,
  0x01, 0xfc, 0x8a, 0xab, 0xab, 0xfa, 0x8a, 0x00, 0xc0, 0xee, 0x8a, 0x95, 0xff,
  0xf1, 0x8a, 0x68, 0x0a, 0xf7, 0x0a, 0x80, 0xb8, 0xf4, 0x0a, 0x8b, 0x9e, 0x0b,
  0x0b, 0xf7, 0x0c, 0xe0, 0x8a, 0xc2, 0x34, 0x17, 0x8b, 0x3d, 0x91, 0xfd, 0x0a,
  0x2c, 0xef, 0x5d, 0x8a, 0xe3, 0xca, 0x1a, 0x0b, 0xfe, 0xd3, 0x00, 0x8b, 0x1d,
  0x48, 0x01, 0x0b, 0x0b, 0x3b, 0xb1, 0x8a, 0xa0, 0xcd, 0xb7, 0x0a, 0x6c, 0xce,
  0x0b, 0x8b, 0x66, 0x0f, 0xfb, 0x0a, 0x96, 0xb9, 0x9e, 0x8a, 0x23, 0x74, 0x35,
  0x0b, 0xe7, 0xe4, 0x09, 0x8b, 0x9c, 0x07, 0x08, 0x0b, 0x0b, 0xbc, 0xf3, 0x8a,
  0xd7, 0xe1, 0xc7, 0x0a, 0xec, 0x6a, 0xfa, 0x0a, 0x5b, 0x2d, 0xf0, 0x0a, 0xa2,
  0x72, 0x02, 0x8b, 0x09, 0x1c, 0x8b, 0x8a, 0x51, 0xe1, 0x0e, 0x8b, 0xbc, 0x66,
  0x18, 0x8b, 0x39, 0x0a, 0x16, 0x8b, 0x3c, 0xb7, 0x1e, 0x8b, 0x95, 0xa7, 0x1d,
  0x8b, 0x59, 0xda, 0x17, 0x8b, 0x45, 0x16, 0x18, 0x0b, 0x64, 0xa8, 0x22, 0x8b,
  0x8a, 0x47, 0x2f, 0x8b, 0x13, 0xa3, 0x1e, 0x8b, 0x68, 0xf8, 0x20, 0x8b, 0xa1,
  0x02, 0x18, 0x8b, 0xd8, 0x2b, 0x1e, 0x8b, 0x2d, 0x40, 0x26, 0x0b, 0x81, 0x91,
  0x1b, 0x0b, 0x34, 0x73, 0x2b, 0x8b, 0x24, 0xd2, 0x1c, 0x0b, 0x77, 0x6b, 0x2a,
  0x0b, 0x22, 0x50, 0x22, 0x0b, 0x8f, 0x8e, 0x20, 0x8b, 0xb4, 0x4b, 0x22, 0x0b,
  0xf5, 0xff, 0x1e, 0x8b, 0x9b, 0x88, 0x18, 0x0b, 0x1d, 0x55, 0x24, 0x8b, 0x49,
  0x8e, 0x20, 0x0b, 0x9f, 0x25, 0x1c, 0x0b, 0x8a, 0xc9, 0x1d, 0x0b, 0xdc, 0xfc,
  0x23, 0x8b, 0x37, 0xba, 0x23, 0x8b, 0x64, 0x64, 0x1d, 0x8b, 0xfa, 0xe5, 0x19,
  0x0b, 0x8a, 0xd9, 0x20, 0x8b, 0x74, 0x6a, 0x1f, 0x0b, 0x2a, 0x09, 0x21, 0x0b,
  0x40, 0x9f, 0x23, 0x8b, 0x05, 0x60, 0x24, 0x0b, 0xc2, 0x86, 0x1d, 0x0b, 0x05,
  0x6a, 0x25, 0xbd, 0x4a, 0x18, 0x25, 0xbc, 0xd0, 0xa5, 0x71, 0xbe, 0x73, 0xc2,
  0x5a, 0x3b, 0x6c, 0xeb, 0xe8, 0xbc, 0x37, 0xbf, 0xef, 0xbd, 0x0c, 0x0f, 0xe8,
  0xbe, 0x80, 0x0f, 0xc8, 0x3b, 0xd2, 0x3f, 0x02, 0x3c, 0x75, 0x7f, 0x16, 0x3d,
  0xdf, 0xbe, 0x8d, 0x3d, 0x54, 0xa3, 0x2c, 0x3d, 0x1a, 0xa6, 0xa3, 0x3d, 0x31,
  0x7b, 0xa2, 0x3c, 0xdc, 0xab, 0x5e, 0x3c, 0x70, 0x60, 0x0a, 0xbc, 0x47, 0x27,
  0x6d, 0x3b, 0xf3, 0x9c, 0x95, 0x3d, 0xde, 0x3e, 0xb3, 0x3d, 0x7f, 0x65, 0x2b,
  0xbd, 0x58, 0xc4, 0x95, 0xbd, 0x97, 0x2f, 0xd0, 0x3c, 0x9e, 0xc5, 0x40, 0x3a,
  0x70, 0xb1, 0x73, 0xbd, 0x1e, 0x06, 0x38, 0xbc, 0xe3, 0xd5, 0x23, 0xbd, 0xdc,
  0x45, 0x26, 0xbd, 0x04, 0xfd, 0x29, 0xbd, 0x32, 0x56, 0xee, 0xbd, 0x1c, 0xa0,
  0x81, 0x3c, 0xd2, 0x79, 0x9f, 0x3d, 0x77, 0x05, 0x2d, 0xbd, 0xcd, 0xd9, 0xf0,
  0x3c, 0xac, 0xc1, 0x89, 0xbc, 0x7f, 0x7d, 0xfa, 0x3b, 0xf7, 0xc6, 0xcf, 0x3c,
  0xbd, 0x41, 0x31, 0xbc, 0x58, 0xf9, 0xb9, 0x3c, 0x74, 0xf4, 0xac, 0x3c, 0xef,
  0x57, 0xb9, 0xbd, 0xa4, 0x58, 0x30, 0xbe, 0xfb, 0xaf, 0x6a, 0x3a, 0x1f, 0xd2,
  0x59, 0x3d, 0x40, 0xda, 0x54, 0xbe, 0x53, 0x12, 0x8d, 0xbd, 0x2a, 0xcd, 0x6a,
  0xbd, 0xc1, 0x25, 0x3a, 0xbd, 0x81, 0x5c, 0x5b, 0xbc, 0xab, 0xe0, 0x1e, 0xbe,
  0x5f, 0xf6, 0xe2, 0xbd, 0xc6, 0x12, 0x99, 0x3d, 0x45, 0xa0, 0xde, 0x3d, 0xab,
  0x35, 0x23, 0xbd, 0xaa, 0x60, 0x3a, 0x3c, 0x1d, 0xfc, 0x2a, 0xbd, 0xf9, 0x2e,
  0xda, 0xbc, 0x14, 0x9e, 0xd2, 0x3b, 0xa5, 0xe7, 0xd8, 0x3c, 0x21, 0x0d, 0xfe,
  0x3d, 0x5b, 0xec, 0x14, 0x3e, 0x78, 0x23, 0x90, 0x3c, 0xf9, 0x18, 0xca, 0x3c,
  0x53, 0xcb, 0x43, 0xbe, 0x93, 0x46, 0xde, 0xbd, 0x27, 0xe9, 0xe0, 0xbd, 0xc5,
  0xe4, 0xf2, 0xbc, 0x88, 0x40, 0x11, 0x3e, 0x2e, 0x7b, 0x07, 0x3e, 0x2c, 0x2d,
  0x60, 0x3c, 0xb2, 0x62, 0x81, 0x3b, 0x89, 0x67, 0xd3, 0xbc, 0x87, 0x80, 0x6f,
  0x3d, 0x92, 0xdf, 0x21, 0xbd, 0xd6, 0x7b, 0x13, 0x3c, 0x88, 0x97, 0xff, 0xbd,
  0xc9, 0xd6, 0xbe, 0x3d, 0x15, 0x31, 0xfb, 0x3c, 0xa4, 0x73, 0x47, 0xbb, 0xf9,
  0x92, 0x88, 0x3c, 0xcd, 0x1e, 0xc8, 0x3d, 0x91, 0x11, 0xb1, 0xbd, 0xa5, 0x88,
  0x2c, 0x3c, 0xeb, 0x35, 0x76, 0x3d, 0x2f, 0x85, 0x91, 0x3b, 0x56, 0x66, 0xfa,
  0x3c, 0xf6, 0x0f, 0x0d, 0x3d, 0x30, 0x09, 0xc2, 0x3d, 0x57, 0x7f, 0x38, 0x3e,
  0x15, 0x5e, 0x86, 0x3e, 0x66, 0xd8, 0x2e, 0xbd, 0xa2, 0xbc, 0x64, 0x3d, 0x00,
  0x7a, 0x05, 0xbe, 0xd9, 0x2d, 0x46, 0xbe, 0x88, 0x54, 0x2c, 0xbd, 0xb7, 0xe9,
  0x1e, 0xbd, 0x28, 0xa9, 0x48, 0x3e, 0x36, 0xd6, 0x54, 0x3e, 0xe7, 0x8f, 0x33,
  0xbd, 0x68, 0x9b, 0x39, 0x3a, 0x01, 0x72, 0xe8, 0xbd, 0x00, 0x14, 0x44, 0xbe,
  0xf1, 0x4a, 0xe1, 0xbb, 0x77, 0x1e, 0x5d, 0x3c, 0xf1, 0x8a, 0x16, 0x3e, 0x7d,
  0x01, 0x68, 0x3e, 0xc3, 0x48, 0x9f, 0x3c, 0xf6, 0x2d, 0xd0, 0x3d, 0x76, 0x70,
  0x88, 0xbe, 0x96, 0x08, 0x8d, 0xbe, 0x7f, 0x79, 0x07, 0xbe, 0x0f, 0xea, 0x98,
  0xbd, 0xef, 0x78, 0xa7, 0x3e, 0x6e, 0x39, 0x64, 0x3c, 0xd7, 0xa4, 0x1d, 0x3e,
  0x12, 0xb5, 0xe0, 0xbc, 0x69, 0x71, 0x3c, 0x3c, 0x38, 0xd4, 0x1a, 0xbe, 0x89,
  0x12, 0x52, 0x3f, 0x85, 0xb8, 0x17, 0x3d, 0x2b, 0xf7, 0x8f, 0xbb, 0x3b, 0x84,
  0x90, 0xbd, 0xe1, 0x87, 0xf5, 0xbc, 0x02, 0x0d, 0x5c, 0x3e, 0x79, 0xc4, 0x81,
  0x3c, 0xe6, 0x78, 0x0e, 0x3c, 0xe3, 0x48, 0x6a, 0x3d, 0x26, 0xdd, 0x7c, 0xbc,
  0x55, 0x46, 0x85, 0x3d, 0x94, 0x77, 0x2a, 0xbd, 0x3b, 0x24, 0x66, 0xbc, 0xd3,
  0x5c, 0x81, 0xbe, 0xbd, 0x02, 0x59, 0xbd, 0x2a, 0xe1, 0x57, 0xbe, 0x51, 0x0d,
  0x94, 0xbd, 0x44, 0x99, 0x17, 0xbe, 0x52, 0x50, 0x05, 0xbd, 0xa6, 0xaf, 0x57,
  0xbe, 0xa9, 0xf8, 0xcf, 0xbd, 0xe7, 0x2a, 0x5d, 0xbe, 0x7e, 0x75, 0x07, 0xbe,
  0x7e, 0x1f, 0x22, 0x3e, 0x0b, 0x4a, 0x4b, 0xbc, 0x9f, 0xa7, 0x2a, 0x3e, 0x20,
  0x0a, 0x58, 0x3d, 0x8f, 0xf1, 0xa8, 0x3e, 0xa2, 0xa7, 0xbb, 0x3d, 0xf4, 0x1d,
  0x59, 0x3e, 0xcf, 0x12, 0xca, 0x3d, 0x0b, 0x3d, 0x11, 0x3d, 0x42, 0xaf, 0x44,
  0xba, 0x20, 0xd9, 0xd5, 0x3d, 0xb0, 0xc6, 0x61, 0xbd, 0x1b, 0xe3, 0x1b, 0xb9,
  0xda, 0x5c, 0x73, 0xbc, 0xe5, 0xd5, 0x0d, 0xbe, 0xbf, 0x77, 0x7f, 0xbc, 0x45,
  0xc0, 0x84, 0xbc, 0x19, 0x62, 0x9a, 0x3c, 0x50, 0xc8, 0xb0, 0x3b, 0x4e, 0x5a,
  0xcc, 0xbb, 0xd3, 0xef, 0x0d, 0xbd, 0x76, 0x5a, 0x71, 0xbd, 0x19, 0xdc, 0x85,
  0xbd, 0x21, 0xed, 0x49, 0x3b, 0x82, 0x8f, 0x88, 0xbc, 0x1e, 0x2c, 0xc5, 0x3c,
  0xe8, 0xbd, 0x23, 0x3d, 0xfa, 0x10, 0x6a, 0x3d, 0x99, 0x89, 0x38, 0x3d, 0x23,
  0x9a, 0x15, 0xbd, 0x21, 0x54, 0x61, 0xbd, 0xce, 0xa7, 0x1f, 0xbb, 0xda, 0x47,
  0xf1, 0xbc, 0x33, 0x83, 0x5e, 0x3c, 0xd4, 0xb9, 0x80, 0x3c, 0xd6, 0xdb, 0x02,
  0x3e, 0x98, 0x85, 0xde, 0x3d, 0x23, 0xda, 0xe8, 0xbd, 0x3f, 0x7e, 0x01, 0xbe,
  0x3b, 0x3b, 0xa8, 0x3c, 0x74, 0x11, 0x28, 0x3b, 0x8b, 0xe6, 0xb0, 0x3d, 0xc2,
  0x4e, 0xb1, 0x3d, 0x62, 0x5b, 0x8f, 0x3c, 0xa8, 0x2f, 0x18, 0x3c, 0xe4, 0x4c,
  0x33, 0x8b, 0x7e, 0xef, 0x2c, 0x8b, 0xb7, 0x2e, 0x8c, 0x0b, 0x07, 0x31, 0x02,
  0x0b, 0x82, 0x96, 0xa4, 0x8b, 0x6b, 0xee, 0x90, 0x0b, 0x07, 0xa9, 0x7d, 0x0b,
  0xb1, 0xca, 0x28, 0x8b, 0xbc, 0x2b, 0x23, 0x8b, 0x28, 0x3d, 0x2a, 0x8b, 0x1a,
  0x46, 0x2c, 0x8b, 0x9e, 0x84, 0x33, 0x8b, 0xc7, 0x83, 0x31, 0x8b, 0x97, 0xa5,
  0x1e, 0x8b, 0x43, 0xb5, 0x20, 0x8b, 0x40, 0x53, 0x01, 0x8b, 0x09, 0x12, 0xeb,
  0x8a, 0x06, 0x46, 0x1e, 0x8b, 0xae, 0xf4, 0x12, 0x8b, 0x22, 0x77, 0x15, 0x8b,
  0x3b, 0x55, 0x04, 0x8b, 0x63, 0xa2, 0x21, 0x8b, 0x15, 0x1f, 0x21, 0x8b, 0x55,
  0xde, 0x0d, 0x8b, 0x38, 0x9f, 0x0b, 0x8b, 0x9a, 0x63, 0x21, 0x8b, 0x20, 0xaf,
  0x11, 0x8b, 0x3b, 0x7d, 0x17, 0x8b, 0x30, 0xf1, 0x08, 0x8b, 0x8d, 0x3b, 0x26,
  0x8b, 0x7c, 0xc5, 0x1e, 0x8b, 0xff, 0x15, 0x0d, 0x8b, 0xc2, 0x21, 0x06, 0x8b,
  0x18, 0x9b, 0x1e, 0x8b, 0x13, 0xd5, 0x1a, 0x8b, 0x04, 0x6b, 0x16, 0x8b, 0x6e,
  0x9a, 0x07, 0x8b, 0x0e, 0x9b, 0x0c, 0x8b, 0x2a, 0x48, 0x6e, 0x8b, 0xb9, 0xfb,
  0x18, 0x8b, 0x47, 0xa2, 0xea, 0x8a, 0x99, 0x9e, 0x8b, 0x8a, 0x7e, 0xd0, 0xdf,
  0x8a, 0x6c, 0x29, 0x0e, 0x8b, 0x6b, 0x23, 0x1e, 0x0b, 0x1a, 0x22, 0x0e, 0x8b,
  0x72, 0x41, 0x0b, 0x0b, 0xe2, 0xfc, 0x0b, 0x0b, 0x71, 0x6f, 0x18, 0x8b, 0xb9,
  0xa9, 0x0f, 0x8b, 0x8e, 0x6f, 0x12, 0x8b, 0xbe, 0x30, 0x14, 0x0b, 0xb6, 0x37,
  0x10, 0x0b, 0x18, 0x6e, 0x0f, 0x0b, 0xc2, 0xd2, 0x09, 0x0b, 0x4e, 0x38, 0x0f,
  0x8b, 0x79, 0x85, 0x0e, 0x8b, 0x3a, 0x64, 0x11, 0x0b, 0x24, 0x25, 0x10, 0x8b,
  0xfc, 0x9f, 0x1a, 0x8b, 0x27, 0x5b, 0x1d, 0x8b, 0x3c, 0x6f, 0x13, 0x0b, 0x89,
  0x7a, 0x0e, 0x8b, 0xf9, 0xb9, 0x13, 0x8b, 0xb4, 0x5a, 0x1c, 0x8b, 0x73, 0x28,
  0x19, 0x8b, 0xd2, 0x2a, 0x13, 0x8b, 0xa0, 0xbc, 0x0a, 0x0b, 0xfa, 0x8f, 0x0f,
  0x8b, 0x96, 0x67, 0x22, 0x8b, 0xaa, 0x0b, 0x15, 0x8b, 0x0e, 0x17, 0x1c, 0x8b,
  0xcf, 0xd9, 0x07, 0x8b, 0x64, 0x4a, 0x0c, 0x0b, 0x05, 0x21, 0x1a, 0x8b, 0x46,
  0x47, 0x13, 0x8b, 0x87, 0x41, 0x2b, 0x0b, 0x9e, 0xc6, 0x23, 0x8b, 0xd8, 0x83,
  0x1a, 0x8b, 0x90, 0x43, 0x2a, 0x8b, 0xb1, 0x4f, 0x23, 0x0b, 0x11, 0xb1, 0x21,
  0x8b, 0xdf, 0xf3, 0x31, 0x8b, 0x64, 0x18, 0x19, 0x8b, 0x7f, 0x0d, 0x18, 0x8b,
  0x1e, 0x3b, 0x1e, 0x8b, 0xf8, 0x33, 0x1c, 0x8b, 0xe3, 0xa7, 0x25, 0x8b, 0xa2,
  0xbb, 0x25, 0x0b, 0x3e, 0x44, 0x0f, 0x8b, 0x11, 0x61, 0x0f, 0x8b, 0x6e, 0xe6,
  0x29, 0x0b, 0xf8, 0xa9, 0x20, 0x0b, 0xfe, 0x29, 0x19, 0x0b, 0xe6, 0xa6, 0x1b,
  0x0b, 0x7d, 0xae, 0x1c, 0x8b, 0x3f, 0x70, 0x1e, 0x8b, 0x38, 0x66, 0x11, 0x8b,
  0x56, 0xb0, 0x17, 0x8b, 0xa1, 0x33, 0x31, 0x8b, 0xb0, 0x22, 0x25, 0x0b, 0x1e,
  0x21, 0x23, 0x0b, 0xee, 0xf8, 0x1f, 0x0b, 0xc0, 0x1e, 0x1d, 0x8b, 0xc4, 0x5e,
  0x29, 0x8b, 0x6b, 0x2b, 0x17, 0x8b, 0xa2, 0xa1, 0x19, 0x8b, 0xee, 0x17, 0x2a,
  0x8b, 0xa5, 0xaf, 0x33, 0x8b, 0xfa, 0x80, 0x1b, 0x0b, 0x42, 0xfc, 0x17, 0x0b,
  0x50, 0x92, 0x69, 0x8b, 0x84, 0x34, 0x8b, 0x0b, 0xd7, 0xf5, 0xf3, 0x0a, 0x53,
  0xd0, 0xa5, 0x0b, 0xc6, 0x74, 0x34, 0x8b, 0x29, 0xb9, 0x38, 0x8b, 0xb0, 0x81,
  0x71, 0x0b, 0xe6, 0x0b, 0x7e, 0x0b, 0xe9, 0x9c, 0x6b, 0x0b, 0x66, 0x77, 0x74,
  0x0b, 0x52, 0x17, 0x68, 0x0b, 0x26, 0x34, 0x58, 0x0b, 0xd3, 0xb4, 0x45, 0x0b,
  0x4b, 0x25, 0xbb, 0x0b, 0x72, 0xcf, 0xbb, 0x0b, 0x13, 0x6f, 0x5c, 0x0b, 0x25,
  0xc2, 0x5b, 0x0b, 0x1c, 0x38, 0x22, 0x0b, 0xb1, 0xf8, 0x10, 0x0b, 0xfe, 0x2b,
  0x5b, 0x0b, 0x4e, 0x2c, 0x5b, 0x0b, 0x12, 0x4b, 0xad, 0x0b, 0x77, 0xb4, 0xc1,
  0x0b, 0xa9, 0x6f, 0x68, 0x0b, 0x40, 0xb7, 0x56, 0x0b, 0xbd, 0x2f, 0x3d, 0x0b,
  0xc9, 0xd8, 0x2b, 0x0b, 0xe7, 0x0b, 0x61, 0x0b, 0xde, 0xd8, 0x55, 0x0b, 0x2d,
  0x95, 0x80, 0x0b, 0x60, 0x77, 0x84, 0x0b, 0xe4, 0x8b, 0x5b, 0x0b, 0xd3, 0x36,
  0x52, 0x0b, 0xeb, 0x3a, 0x3c, 0x0b, 0xf1, 0x64, 0x36, 0x0b, 0xf0, 0xd1, 0x4b,
  0x0b, 0x42, 0x52, 0x44, 0x0b, 0x3c, 0x7f, 0x12, 0x8b, 0xf9, 0x16, 0xf6, 0x0a,
  0x3d, 0x33, 0xc1, 0x8a, 0x91, 0x3f, 0x82, 0x8a, 0xa2, 0x54, 0x13, 0x0b, 0x28,
  0xe6, 0x52, 0x09, 0x22, 0x2d, 0xd3, 0x8a, 0x74, 0x30, 0x11, 0x8b, 0xd3, 0x0c,
  0x15, 0x8b, 0x13, 0x30, 0x15, 0x8b, 0x8f, 0x0e, 0x14, 0x8b, 0xef, 0xad, 0x15,
  0x8b, 0xe8, 0xb3, 0x12, 0x8b, 0x17, 0x52, 0x18, 0x8b, 0x68, 0x79, 0x16, 0x8b,
  0x16, 0xaa, 0x0e, 0x8b, 0x63, 0xaa, 0x13, 0x8b, 0x99, 0x7c, 0x30, 0x0b, 0x1f,
  0x9e, 0x24, 0x0b, 0x1b, 0x8b, 0x14, 0x8b, 0x13, 0x0b, 0x0f, 0x8b, 0x8a, 0x39,
  0x12, 0x8b, 0xe6, 0x91, 0x16, 0x8b, 0xa7, 0x40, 0x13, 0x8b, 0xe8, 0x12, 0x10,
  0x8b, 0x53, 0xe7, 0x1a, 0x8b, 0x8f, 0xca, 0x1a, 0x8b, 0x8b, 0x7b, 0x0d, 0x8b,
  0x4a, 0x96, 0x13, 0x8b, 0x7c, 0x79, 0x18, 0x8b, 0xc1, 0xf4, 0x13, 0x8b, 0xfe,
  0x35, 0x18, 0x8b, 0xf8, 0x8c, 0x0f, 0x8b, 0x32, 0x2b, 0x1e, 0x8b, 0xc4, 0x9b,
  0x1c, 0x8b, 0x0a, 0x0b, 0x14, 0x8b, 0xe0, 0x55, 0x13, 0x8b, 0x19, 0x0c, 0xee,
  0x3c, 0x78, 0x56, 0x62, 0x3d, 0x5b, 0x49, 0x17, 0x3d, 0x7b, 0x9c, 0x00, 0xbc,
  0xaa, 0xcf, 0xf2, 0x3c, 0x28, 0xd4, 0xd3, 0xbc, 0xf3, 0x56, 0x7e, 0xbd, 0x7e,
  0x69, 0x87, 0xbc, 0xd9, 0x7a, 0x6f, 0xbc, 0xda, 0x9d, 0x9c, 0x3c, 0x5b, 0x03,
  0x86, 0x3c, 0x65, 0xe1, 0x89, 0x3c, 0x71, 0x32, 0xed, 0x3b, 0x69, 0xc0, 0x3d,
  0xbe, 0x60, 0x01, 0x60, 0xbe, 0x2e, 0x65, 0xae, 0x3d, 0x92, 0x4d, 0xa3, 0x3d,
  0x9b, 0x22, 0x65, 0xbd, 0x94, 0x11, 0x34, 0xbd, 0xd9, 0xc9, 0x48, 0x3c, 0x36,
  0xc4, 0x3f, 0x3a, 0x5b, 0x05, 0xe9, 0xbd, 0x30, 0x78, 0x25, 0xbe, 0xba, 0xa4,
  0x03, 0x3e, 0x55, 0xe6, 0xdc, 0x3d, 0xd5, 0xd2, 0xba, 0xbd, 0xf8, 0x5b, 0x63,
  0xbd, 0xf7, 0x0c, 0xf3, 0x3c, 0xbe, 0x36, 0xf3, 0x3c, 0xfe, 0x79, 0x4e, 0xbd,
  0xf1, 0xdf, 0x9e, 0xbd, 0x0d, 0xd4, 0xd3, 0x3d, 0xae, 0x8f, 0x87, 0x3d, 0x30,
  0x63, 0xb4, 0x3d, 0x3b, 0x1d, 0x01, 0x3e, 0xc7, 0xcb, 0x75, 0xbd, 0x54, 0xcd,
  0xd2, 0xbc, 0xa8, 0x9c, 0x3c, 0x3d, 0xff, 0xc5, 0xc2, 0x3d, 0xa6, 0xf7, 0xb1,
  0xbd, 0x7f, 0x02, 0x9e, 0x3d, 0x03, 0x72, 0x10, 0x3d, 0xff, 0xae, 0x10, 0xbd,
  0xae, 0xcf, 0xf8, 0xbc, 0x64, 0x45, 0x44, 0xbd, 0xec, 0x41, 0x33, 0xbd, 0x02,
  0x78, 0x8d, 0x3b, 0x75, 0x5f, 0xf4, 0x3b, 0xfb, 0x9d, 0xc8, 0xbc, 0xa5, 0x2f,
  0x3f, 0xbd, 0x33, 0xcf, 0xdf, 0xbc, 0x10, 0x12, 0x85, 0xbd, 0xf9, 0x87, 0xa6,
  0x3d, 0xf9, 0xa9, 0x89, 0x3d, 0x04, 0x68, 0x7c, 0xbe, 0x10, 0x8f, 0x98, 0xbe,
  0xa0, 0x37, 0x71, 0x3e, 0x0b, 0x82, 0x8f, 0x3e, 0x8d, 0x47, 0x04, 0xbd, 0x51,
  0x2a, 0xec, 0xbd, 0x22, 0xda, 0xa5, 0x3b, 0xd2, 0x4e, 0xd2, 0xbc, 0xa2, 0x20,
  0x30, 0xbe, 0x4d, 0xfd, 0x90, 0xbe, 0xeb, 0x58, 0x08, 0x3e, 0xef, 0x21, 0x50,
  0x3e, 0x88, 0xa8, 0xb4, 0x3d, 0x60, 0x09, 0x9f, 0x3d, 0xb3, 0x39, 0x17, 0xbc,
  0xe6, 0xa2, 0xee, 0xbc, 0x65, 0xdd, 0xb3, 0xbc, 0x7b, 0x77, 0x23, 0xbe, 0xfe,
  0x62, 0xc0, 0x3d, 0x75, 0x81, 0x49, 0x3e, 0x92, 0x33, 0x8a, 0x0a, 0xfc, 0x9d,
  0x5a, 0x08, 0xa0, 0xb6, 0x47, 0x08, 0x5a, 0xc1, 0x5b, 0x8b, 0x8f, 0x28, 0x01,
  0x8b, 0x74, 0xa4, 0x29, 0x8b, 0xe3, 0xd7, 0xd7, 0x0a, 0xc0, 0xad, 0x46, 0x06,
  0x59, 0x0b, 0x06, 0x09, 0x74, 0x7e, 0xb4, 0x89, 0xa4, 0x97, 0x3b, 0x89, 0x26,
  0x7f, 0x6e, 0x8a, 0xb6, 0x8b, 0x48, 0x8a, 0xec, 0x05, 0xb9, 0x09, 0x30, 0xc9,
  0x50, 0x0a, 0xa8, 0xcd, 0x64, 0x0b, 0x33, 0xab, 0x51, 0x0b, 0x25, 0x8e, 0x31,
  0x0b, 0x43, 0x89, 0x68, 0x0b, 0xea, 0xec, 0x76, 0x0b, 0x5b, 0x57, 0x5c, 0x0b,
  0xe0, 0xdf, 0xd7, 0x07, 0x5c, 0x09, 0xad, 0x09, 0xe8, 0xe4, 0x54, 0x0b, 0x3c,
  0xad, 0x5e, 0x0b, 0xc9, 0xae, 0x99, 0x0a, 0x4f, 0x76, 0xdd, 0x0a, 0x81, 0xdc,
  0x93, 0x0b, 0xa3, 0xed, 0x6f, 0x0b, 0xae, 0x2f, 0x0c, 0x8a, 0x62, 0xf0, 0x8e,
  0x89, 0xb3, 0x1f, 0x10, 0x0b, 0x34, 0x09, 0x97, 0x0b, 0x04, 0xa6, 0x7b, 0x09,
  0xb7, 0xae, 0x80, 0x0a, 0x37, 0x4a, 0x08, 0x0b, 0x11, 0xfe, 0x53, 0x0b, 0xf6,
  0x45, 0xf9, 0x3d, 0xeb, 0x84, 0x07, 0xbd, 0xca, 0xe0, 0x2f, 0xbd, 0xa7, 0x1b,
  0x97, 0x3d, 0xb9, 0x84, 0xb5, 0x3b, 0x4b, 0xbe, 0x43, 0x3d, 0x33, 0x18, 0xf3,
  0x3c, 0xde, 0x4c, 0x37, 0x3d, 0x6d, 0xe6, 0x8f, 0x3c, 0x04, 0xad, 0xb0, 0x3d,
  0x4a, 0x64, 0x96, 0x3d, 0xee, 0x74, 0xb4, 0x3c, 0x49, 0x6b, 0xac, 0xbc, 0xad,
  0x3d, 0x8b, 0xbc, 0xa1, 0x8f, 0xa8, 0x3b, 0x21, 0xf7, 0x6d, 0xbd, 0xb5, 0xe4,
  0x7f, 0xbd, 0x97, 0x5b, 0x54, 0x3d, 0x19, 0x98, 0x42, 0x3d, 0xb5, 0x60, 0x80,
  0xbd, 0x51, 0x95, 0xaf, 0xbc, 0x52, 0xe8, 0xaa, 0x3c, 0x8b, 0x13, 0x19, 0x3d,
  0x76, 0xff, 0x99, 0xbd, 0x9d, 0x62, 0x13, 0xbd, 0x6a, 0x80, 0xba, 0x3b, 0xda,
  0x54, 0x58, 0x3d, 0xe6, 0xdf, 0x0d, 0xbe, 0x90, 0x57, 0x0d, 0xbd, 0x9e, 0x1b,
  0x00, 0xbe, 0x0a, 0xf7, 0xf6, 0xbd, 0xda, 0x05, 0x77, 0xbe, 0x76, 0x0e, 0x37,
  0xbe, 0x1a, 0x92, 0xba, 0x3d, 0x31, 0xa5, 0x18, 0x3e, 0xfa, 0x3b, 0x91, 0xbe,
  0xb7, 0x3d, 0x33, 0xbe, 0x8f, 0xa8, 0x06, 0xbf, 0x25, 0x68, 0x46, 0x3e, 0xc8,
  0x91, 0x84, 0xbd, 0x8e, 0xda, 0x86, 0xbd, 0x29, 0x85, 0xff, 0x3d, 0xb4, 0xa8,
  0x0b, 0x3e, 0x86, 0x89, 0x36, 0xbc, 0x7a, 0x03, 0xed, 0x3c, 0xbc, 0x88, 0x9e,
  0x3d, 0x1a, 0x14, 0xaa, 0x3d, 0xb8, 0x5e, 0x51, 0x3d, 0xe2, 0x90, 0x6a, 0xbd,
  0xd1, 0xe3, 0x15, 0x3b, 0xd7, 0xf1, 0x2a, 0xbd, 0x2e, 0xff, 0x06, 0x3d, 0x26,
  0xf4, 0x47, 0xbd, 0x15, 0x09, 0xac, 0x3c, 0x98, 0xf8, 0xf4, 0xbc, 0xb1, 0xcc,
  0x8e, 0xbb, 0x01, 0xa9, 0x3f, 0x3c, 0xac, 0x1b, 0xe2, 0x3c, 0xae, 0x3e, 0x95,
  0x3d, 0xf1, 0xe1, 0x29, 0x3d, 0x74, 0xb7, 0x05, 0x3d, 0xeb, 0xbc, 0x1b, 0x3d,
  0x99, 0x7d, 0xf6, 0x3d, 0xd4, 0xaf, 0x2f, 0x3d, 0xde, 0x1d, 0x25, 0x3e, 0x13,
  0x3b, 0x39, 0x3e, 0xee, 0x1f, 0xf1, 0x3c, 0xe3, 0x55, 0x19, 0x3e, 0x34, 0xdf,
  0xac, 0x3d, 0x2e, 0x64, 0x16, 0x3e, 0xe3, 0x1a, 0x00, 0x3e, 0xd0, 0x89, 0x39,
  0x3e, 0x98, 0x81, 0xfe, 0xbc, 0x8b, 0x50, 0xbf, 0x3d, 0xbe, 0x19, 0xc4, 0x3d,
  0x71, 0x8a, 0x25, 0xbe, 0x26, 0x8c, 0x16, 0x3d, 0x72, 0xae, 0x1c, 0x3e, 0x74,
  0x83, 0xf7, 0xbc, 0x47, 0x9a, 0xc1, 0x3d, 0xe9, 0xff, 0x9c, 0x3c, 0x68, 0x2e,
  0x4f, 0x3d, 0xfb, 0x8e, 0x1c, 0x3d, 0x65, 0xbb, 0xcd, 0xbb, 0x9c, 0x20, 0x85,
  0x3b, 0x10, 0xbc, 0x3b, 0xbd, 0x83, 0x5a, 0x00, 0x3d, 0x7f, 0x3a, 0xef, 0xbb,
  0x28, 0xe8, 0xb5, 0x3c, 0xf6, 0x34, 0xe9, 0x3d, 0x0c, 0x9d, 0xe0, 0x3d, 0x5d,
  0x4a, 0x9c, 0xbc, 0x45, 0x67, 0x94, 0x3d, 0x6c, 0x51, 0x89, 0xbd, 0xe7, 0xcb,
  0xc4, 0xbc, 0x0e, 0xd1, 0x92, 0xbd, 0x90, 0x59, 0x37, 0xbd, 0xb7, 0x00, 0xfb,
  0x3c, 0x06, 0x16, 0x8d, 0x3d, 0xff, 0x8b, 0x25, 0xbd, 0x42, 0x55, 0x50, 0x3a,
  0xdc, 0x6d, 0xc2, 0xbd, 0xb3, 0x30, 0xdf, 0xbc, 0x9b, 0x38, 0x20, 0xbe, 0xe4,
  0xf1, 0x29, 0xbe, 0x5a, 0xd8, 0xee, 0xbc, 0x3d, 0x89, 0x4e, 0x3c, 0x10, 0xb6,
  0x5f, 0xbe, 0xd6, 0x1a, 0xd7, 0xbd, 0xfc, 0xbd, 0xe7, 0x3d, 0x64, 0x48, 0x37,
  0x3e, 0x88, 0xa3, 0x32, 0xbd, 0xde, 0x24, 0x32, 0x3d, 0x54, 0x48, 0x9e, 0x3d,
  0x22, 0x1a, 0x4f, 0xbd, 0x85, 0xc2, 0x9b, 0x3d, 0x74, 0x26, 0x11, 0x3d, 0x5d,
  0x9f, 0x98, 0x3d, 0x28, 0x40, 0x04, 0x3b, 0x42, 0x17, 0x95, 0x3c, 0x67, 0xa5,
  0xc9, 0xbb, 0x13, 0x93, 0xef, 0xba, 0x52, 0xc5, 0xa3, 0xba, 0x7f, 0xe5, 0x1c,
  0x3c, 0xf0, 0xf1, 0x1d, 0xbd, 0xdc, 0x21, 0xce, 0xbc, 0xb5, 0x62, 0xe9, 0xbc,
  0x2e, 0x2f, 0x15, 0xbc, 0xbf, 0xbe, 0xd9, 0x3c, 0x6a, 0xa3, 0xfb, 0x3c, 0xec,
  0xf2, 0xaa, 0xbc, 0xb6, 0x6e, 0xc1, 0xbc, 0x14, 0x13, 0x88, 0xbc, 0x16, 0x0d,
  0xe7, 0xbb, 0x21, 0x16, 0x18, 0xbc, 0x02, 0x40, 0x98, 0xbc, 0xb1, 0x99, 0xa4,
  0x3c, 0x10, 0xa4, 0x9d, 0x3c, 0x54, 0x73, 0x7a, 0xbc, 0xdf, 0x3f, 0x8d, 0xbb,
  0x3a, 0x68, 0x65, 0xbd, 0x21, 0x55, 0x42, 0xbd, 0x05, 0x7d, 0xfb, 0xbc, 0x1b,
  0xe4, 0x01, 0xbd, 0x56, 0xea, 0x56, 0x3c, 0xd3, 0xd1, 0x6d, 0x3c, 0x4b, 0x14,
  0x8e, 0xbc, 0x68, 0xed, 0x42, 0xbc, 0x83, 0xd3, 0x93, 0x3e, 0x3b, 0xb1, 0x47,
  0xbd, 0xfc, 0x8f, 0x8a, 0x3d, 0xd6, 0x8e, 0x1b, 0x3e, 0x09, 0x0d, 0x00, 0xbe,
  0x5c, 0x02, 0x91, 0x3c, 0x33, 0x6c, 0x41, 0x3d, 0x1d, 0xc5, 0x65, 0xbe, 0xee,
  0xd3, 0x76, 0xbe, 0xdc, 0x75, 0x54, 0xbe, 0xc7, 0xb7, 0x30, 0xbe, 0x81, 0x65,
  0x14, 0xbe, 0xa2, 0x6d, 0x0b, 0xbe, 0x9a, 0xe2, 0x11, 0x3d, 0xdb, 0xfd, 0xfc,
  0x3c, 0xe4, 0x33, 0x04, 0x3d, 0x03, 0x1f, 0x29, 0x3d, 0xf4, 0x13, 0x82, 0x3c,
  0x7e, 0xb0, 0x56, 0x3d, 0xdc, 0x6f, 0x5f, 0x3d, 0xae, 0xaf, 0x84, 0x3d, 0x1f,
  0x4b, 0x29, 0x3d, 0xd0, 0xf5, 0x74, 0x3d, 0x4d, 0x98, 0x89, 0xbc, 0x74, 0xbc,
  0xc8, 0x3c, 0xf1, 0x2b, 0x4b, 0x3c, 0x06, 0xd0, 0x87, 0x3d, 0x49, 0x37, 0xb8,
  0x3c, 0x07, 0xfe, 0x18, 0x3d, 0xd7, 0x6f, 0x8d, 0x3d, 0xe5, 0xf2, 0xc1, 0x3d,
  0x08, 0x9d, 0x07, 0xbd, 0x33, 0xe2, 0x0c, 0x3d, 0xf6, 0x72, 0x2f, 0x3c, 0x7f,
  0x14, 0x5b, 0x3d, 0x11, 0xe1, 0xb5, 0xbd, 0xec, 0x42, 0x3c, 0xbd, 0xb7, 0xd3,
  0x0d, 0x3f, 0xbb, 0xec, 0x30, 0xbe, 0x07, 0xd7, 0xe1, 0x3d, 0xc0, 0x07, 0xe7,
  0xbc, 0xcd, 0xfa, 0x16, 0xbe, 0xb9, 0x15, 0xd4, 0xbc, 0x5b, 0x68, 0x32, 0x3d,
  0x5e, 0xa2, 0x0c, 0xbe, 0x3c, 0x9c, 0x54, 0xbe, 0xe5, 0x18, 0x49, 0xbd, 0x80,
  0x13, 0x01, 0xbd, 0x5a, 0x4d, 0x3c, 0x3d, 0xb1, 0x62, 0xd3, 0xbc, 0xdc, 0x38,
  0x4e, 0x3d, 0xb8, 0x47, 0x66, 0xbd, 0xae, 0xc9, 0x95, 0x3d, 0x9d, 0xe0, 0x34,
  0x3d, 0x2a, 0x59, 0xb1, 0x3c, 0xbc, 0x8b, 0x90, 0xbd, 0x21, 0x89, 0x09, 0x3e,
  0x5e, 0xb9, 0x54, 0x3d, 0xa6, 0x17, 0x7b, 0x3d, 0x69, 0xfb, 0x94, 0xbc, 0x27,
  0xe5, 0x1b, 0x3d, 0xaa, 0xc1, 0x81, 0x3d, 0xa1, 0x15, 0xa3, 0xbd, 0x2e, 0x63,
  0xc5, 0xbd, 0xbf, 0x14, 0xa5, 0x3d, 0xa2, 0xd4, 0xec, 0xbc, 0xe8, 0xd1, 0x1b,
  0x3e, 0x8e, 0xe4, 0x12, 0x3c, 0x9b, 0xbd, 0xd0, 0x3c, 0xac, 0xa1, 0xdb, 0xbc,
  0x90, 0xd3, 0xe3, 0xbd, 0x73, 0x7b, 0x41, 0xbe, 0xf8, 0x5f, 0xe9, 0xbc, 0x05,
  0x76, 0x2c, 0xbe, 0xa2, 0xff, 0xff, 0xff, 0x04, 0x00, 0x00, 0x00, 0x04, 0x00,
  0x00, 0x00, 0xc2, 0xbd, 0x2e, 0xbe, 0xb2, 0xff, 0xff, 0xff, 0x04, 0x00, 0x00,
  0x00, 0x40, 0x00, 0x00, 0x00, 0xe6, 0x05, 0xfb, 0xbd, 0x74, 0xc1, 0x77, 0x3e,
  0xec, 0xdd, 0x0d, 0xbe, 0x1b, 0xc5, 0xb4, 0xbd, 0xd0, 0x0a, 0xd9, 0xbc, 0x8d,
  0xb5, 0x90, 0x3d, 0x17, 0x19, 0x3e, 0xbe, 0x2f, 0x2b, 0xf4, 0x3e, 0xb1, 0x65,
  0x19, 0xbc, 0x89, 0xfe, 0x6e, 0xbb, 0xbc, 0xe9, 0xfd, 0xbc, 0xb1, 0x02, 0x74,
  0xbd, 0xa2, 0x17, 0x65, 0xbd, 0x83, 0x26, 0xd2, 0x3e, 0x20, 0x7e, 0x04, 0xbe,
  0x85, 0x36, 0xb1, 0xba, 0x00, 0x00, 0x06, 0x00, 0x08, 0x00, 0x04, 0x00, 0x06,
  0x00, 0x00, 0x00, 0x04, 0x00, 0x00, 0x00, 0x80, 0x00, 0x00, 0x00, 0xa8, 0x34,
  0x88, 0x3e, 0x2a, 0xb9, 0x82, 0x3d, 0x99, 0xb3, 0x82, 0x3e, 0x5b, 0x04, 0x85,
  0xbb, 0x14, 0x47, 0x8c, 0x3e, 0x87, 0xc2, 0xcd, 0x3d, 0xc4, 0xb3, 0x28, 0xbb,
  0x8e, 0x4b, 0xd4, 0x3e, 0x7e, 0x48, 0x81, 0xbe, 0x23, 0x71, 0x16, 0xbf, 0x30,
  0x1c, 0x41, 0xbe, 0xa0, 0x0f, 0xa6, 0xbc, 0x94, 0x68, 0xeb, 0xbe, 0xe9, 0xef,
  0x9a, 0x3f, 0xa5, 0x0d, 0x1b, 0x3f, 0xcd, 0xdb, 0xc5, 0xbc, 0x00, 0x28, 0x16,
  0xbe, 0xd3, 0xc7, 0x84, 0x3e, 0xd8, 0x9d, 0x69, 0xbb, 0x0e, 0x41, 0xe7, 0xbb,
  0x79, 0x90, 0x65, 0xbe, 0xbb, 0x57, 0xa1, 0xbc, 0x84, 0x2a, 0xa5, 0xbc, 0x89,
  0xf9, 0xeb, 0x3d, 0xca, 0x1d, 0xb5, 0x3e, 0x0b, 0xe1, 0xc4, 0xba, 0xdb, 0x84,
  0x41, 0x3e, 0xf8, 0xcd, 0x86, 0xbd, 0xb2, 0x31, 0xba, 0xbe, 0x04, 0x3c, 0x23,
  0x3f, 0x52, 0xb5, 0x13, 0x3e, 0xfb, 0x39, 0x50, 0x3e, 0xe8, 0xf9, 0xff, 0xff,
  0xec, 0xf9, 0xff, 0xff, 0x0f, 0x00, 0x00, 0x00, 0x4d, 0x4c, 0x49, 0x52, 0x20,
  0x43, 0x6f, 0x6e, 0x76, 0x65, 0x72, 0x74, 0x65, 0x64, 0x2e, 0x00, 0x01, 0x00,
  0x00, 0x00, 0x14, 0x00, 0x00, 0x00, 0x00, 0x00, 0x0e, 0x00, 0x18, 0x00, 0x14,
  0x00, 0x10, 0x00, 0x0c, 0x00, 0x08, 0x00, 0x04, 0x00, 0x0e, 0x00, 0x00, 0x00,
  0x14, 0x00, 0x00, 0x00, 0x1c, 0x00, 0x00, 0x00, 0x08, 0x01, 0x00, 0x00, 0x0c,
  0x01, 0x00, 0x00, 0x10, 0x01, 0x00, 0x00, 0x04, 0x00, 0x00, 0x00, 0x6d, 0x61,
  0x69, 0x6e, 0x00, 0x00, 0x00, 0x00, 0x04, 0x00, 0x00, 0x00, 0xb0, 0x00, 0x00,
  0x00, 0x68, 0x00, 0x00, 0x00, 0x34, 0x00, 0x00, 0x00, 0x10, 0x00, 0x00, 0x00,
  0x00, 0x00, 0x0a, 0x00, 0x10, 0x00, 0x0c, 0x00, 0x08, 0x00, 0x04, 0x00, 0x0a,
  0x00, 0x00, 0x00, 0x0c, 0x00, 0x00, 0x00, 0x10, 0x00, 0x00, 0x00, 0x01, 0x00,
  0x00, 0x00, 0x01, 0x00, 0x00, 0x00, 0x0a, 0x00, 0x00, 0x00, 0x01, 0x00, 0x00,
  0x00, 0x09, 0x00, 0x00, 0x00, 0x9a, 0xff, 0xff, 0xff, 0x10, 0x00, 0x00, 0x00,
  0x00, 0x00, 0x00, 0x08, 0x0c, 0x00, 0x00, 0x00, 0x10, 0x00, 0x00, 0x00, 0x94,
  0xfa, 0xff, 0xff, 0x01, 0x00, 0x00, 0x00, 0x09, 0x00, 0x00, 0x00, 0x03, 0x00,
  0x00, 0x00, 0x08, 0x00, 0x00, 0x00, 0x06, 0x00, 0x00, 0x00, 0x03, 0x00, 0x00,
  0x00, 0xca, 0xff, 0xff, 0xff, 0x10, 0x00, 0x00, 0x00, 0x00, 0x00, 0x00, 0x08,
  0x10, 0x00, 0x00, 0x00, 0x14, 0x00, 0x00, 0x00, 0xba, 0xff, 0xff, 0xff, 0x00,
  0x00, 0x00, 0x03, 0x01, 0x00, 0x00, 0x00, 0x08, 0x00, 0x00, 0x00, 0x03, 0x00,
  0x00, 0x00, 0x07, 0x00, 0x00, 0x00, 0x05, 0x00, 0x00, 0x00, 0x02, 0x00, 0x00,
  0x00, 0x00, 0x00, 0x0e, 0x00, 0x16, 0x00, 0x00, 0x00, 0x10, 0x00, 0x0c, 0x00,
  0x0b, 0x00, 0x04, 0x00, 0x0e, 0x00, 0x00, 0x00, 0x18, 0x00, 0x00, 0x00, 0x00,
  0x00, 0x00, 0x08, 0x18, 0x00, 0x00, 0x00, 0x1c, 0x00, 0x00, 0x00, 0x00, 0x00,
  0x06, 0x00, 0x08, 0x00, 0x07, 0x00, 0x06, 0x00, 0x00, 0x00, 0x00, 0x00, 0x00,
  0x03, 0x01, 0x00, 0x00, 0x00, 0x07, 0x00, 0x00, 0x00, 0x03, 0x00, 0x00, 0x00,
  0x00, 0x00, 0x00, 0x00, 0x04, 0x00, 0x00, 0x00, 0x01, 0x00, 0x00, 0x00, 0x01,
  0x00, 0x00, 0x00, 0x0a, 0x00, 0x00, 0x00, 0x01, 0x00, 0x00, 0x00, 0x00, 0x00,
  0x00, 0x00, 0x0b, 0x00, 0x00, 0x00, 0x94, 0x04, 0x00, 0x00, 0x1c, 0x04, 0x00,
  0x00, 0xa4, 0x03, 0x00, 0x00, 0x40, 0x03, 0x00, 0x00, 0xec, 0x02, 0x00, 0x00,
  0x98, 0x02, 0x00, 0x00, 0x40, 0x02, 0x00, 0x00, 0x98, 0x01, 0x00, 0x00, 0xf0,
  0x00, 0x00, 0x00, 0x60, 0x00, 0x00, 0x00, 0x04, 0x00, 0x00, 0x00, 0xae, 0xfb,
  0xff, 0xff, 0x00, 0x00, 0x00, 0x01, 0x14, 0x00, 0x00, 0x00, 0x1c, 0x00, 0x00,
  0x00, 0x1c, 0x00, 0x00, 0x00, 0x0b, 0x00, 0x00, 0x00, 0x34, 0x00, 0x00, 0x00,
  0x02, 0x00, 0x00, 0x00, 0xff, 0xff, 0xff, 0xff, 0x01, 0x00, 0x00, 0x00, 0x98,
  0xfb, 0xff, 0xff, 0x19, 0x00, 0x00, 0x00, 0x53, 0x74, 0x61, 0x74, 0x65, 0x66,
  0x75, 0x6c, 0x50, 0x61, 0x72, 0x74, 0x69, 0x74, 0x69, 0x6f, 0x6e, 0x65, 0x64,
  0x43, 0x61, 0x6c, 0x6c, 0x3a, 0x30, 0x00, 0x00, 0x00, 0x02, 0x00, 0x00, 0x00,
  0x01, 0x00, 0x00, 0x00, 0x01, 0x00, 0x00, 0x00, 0x06, 0xfc, 0xff, 0xff, 0x00,
  0x00, 0x00, 0x01, 0x14, 0x00, 0x00, 0x00, 0x1c, 0x00, 0x00, 0x00, 0x1c, 0x00,
  0x00, 0x00, 0x0a, 0x00, 0x00, 0x00, 0x68, 0x00, 0x00, 0x00, 0x02, 0x00, 0x00,
  0x00, 0xff, 0xff, 0xff, 0xff, 0x01, 0x00, 0x00, 0x00, 0xf0, 0xfb, 0xff, 0xff,
  0x4c, 0x00, 0x00, 0x00, 0x41, 0x56, 0x32, 0x5f, 0x50, 0x61, 0x72, 0x74, 0x69,
  0x74, 0x69, 0x6f, 0x6e, 0x5f, 0x44, 0x4e, 0x4e, 0x2f, 0x6f, 0x75, 0x74, 0x70,
  0x75, 0x74, 0x5f, 0x6c, 0x61, 0x79, 0x65, 0x72, 0x2f, 0x4d, 0x61, 0x74, 0x4d,
  0x75, 0x6c, 0x3b, 0x41, 0x56, 0x32, 0x5f, 0x50, 0x61, 0x72, 0x74, 0x69, 0x74,
  0x69, 0x6f, 0x6e, 0x5f, 0x44, 0x4e, 0x4e, 0x2f, 0x6f, 0x75, 0x74, 0x70, 0x75,
  0x74, 0x5f, 0x6c, 0x61, 0x79, 0x65, 0x72, 0x2f, 0x42, 0x69, 0x61, 0x73, 0x41,
  0x64, 0x64, 0x00, 0x00, 0x00, 0x00, 0x02, 0x00, 0x00, 0x00, 0x01, 0x00, 0x00,
  0x00, 0x01, 0x00, 0x00, 0x00, 0x92, 0xfc, 0xff, 0xff, 0x00, 0x00, 0x00, 0x01,
  0x14, 0x00, 0x00, 0x00, 0x1c, 0x00, 0x00, 0x00, 0x1c, 0x00, 0x00, 0x00, 0x09,
  0x00, 0x00, 0x00, 0x80, 0x00, 0x00, 0x00, 0x02, 0x00, 0x00, 0x00, 0xff, 0xff,
  0xff, 0xff, 0x10, 0x00, 0x00, 0x00, 0x7c, 0xfc, 0xff, 0xff, 0x67, 0x00, 0x00,
  0x00, 0x41, 0x56, 0x32, 0x5f, 0x50, 0x61, 0x72, 0x74, 0x69, 0x74, 0x69, 0x6f,
  0x6e, 0x5f, 0x44, 0x4e, 0x4e, 0x2f, 0x64, 0x65, 0x6e, 0x73, 0x65, 0x5f, 0x31,
  0x2f, 0x4d, 0x61, 0x74, 0x4d, 0x75, 0x6c, 0x3b, 0x41, 0x56, 0x32, 0x5f, 0x50,
  0x61, 0x72, 0x74, 0x69, 0x74, 0x69, 0x6f, 0x6e, 0x5f, 0x44, 0x4e, 0x4e, 0x2f,
  0x64, 0x65, 0x6e, 0x73, 0x65, 0x5f, 0x31, 0x5f, 0x72, 0x65, 0x6c, 0x75, 0x2f,
  0x52, 0x65, 0x6c, 0x75, 0x36, 0x3b, 0x41, 0x56, 0x32, 0x5f, 0x50, 0x61, 0x72,
  0x74, 0x69, 0x74, 0x69, 0x6f, 0x6e, 0x5f, 0x44, 0x4e, 0x4e, 0x2f, 0x64, 0x65,
  0x6e, 0x73, 0x65, 0x5f, 0x31, 0x2f, 0x42, 0x69, 0x61, 0x73, 0x41, 0x64, 0x64,
  0x00, 0x02, 0x00, 0x00, 0x00, 0x01, 0x00, 0x00, 0x00, 0x10, 0x00, 0x00, 0x00,
  0x36, 0xfd, 0xff, 0xff, 0x00, 0x00, 0x00, 0x01, 0x14, 0x00, 0x00, 0x00, 0x1c,
  0x00, 0x00, 0x00, 0x1c, 0x00, 0x00, 0x00, 0x08, 0x00, 0x00, 0x00, 0x80, 0x00,
  0x00, 0x00, 0x02, 0x00, 0x00, 0x00, 0xff, 0xff, 0xff, 0xff, 0x20, 0x00, 0x00,
  0x00, 0x20, 0xfd, 0xff, 0xff, 0x67, 0x00, 0x00, 0x00, 0x41, 0x56, 0x32, 0x5f,
  0x50, 0x61, 0x72, 0x74, 0x69, 0x74, 0x69, 0x6f, 0x6e, 0x5f, 0x44, 0x4e, 0x4e,
  0x2f, 0x64, 0x65, 0x6e, 0x73, 0x65, 0x5f, 0x30, 0x2f, 0x4d, 0x61, 0x74, 0x4d,
  0x75, 0x6c, 0x3b, 0x41, 0x56, 0x32, 0x5f, 0x50, 0x61, 0x72, 0x74, 0x69, 0x74,
  0x69, 0x6f, 0x6e, 0x5f, 0x44, 0x4e, 0x4e, 0x2f, 0x64, 0x65, 0x6e, 0x73, 0x65,
  0x5f, 0x30, 0x5f, 0x72, 0x65, 0x6c, 0x75, 0x2f, 0x52, 0x65, 0x6c, 0x75, 0x36,
  0x3b, 0x41, 0x56, 0x32, 0x5f, 0x50, 0x61, 0x72, 0x74, 0x69, 0x74, 0x69, 0x6f,
  0x6e, 0x5f, 0x44, 0x4e, 0x4e, 0x2f, 0x64, 0x65, 0x6e, 0x73, 0x65, 0x5f, 0x30,
  0x2f, 0x42, 0x69, 0x61, 0x73, 0x41, 0x64, 0x64, 0x00, 0x02, 0x00, 0x00, 0x00,
  0x01, 0x00, 0x00, 0x00, 0x20, 0x00, 0x00, 0x00, 0x4e, 0xfe, 0xff, 0xff, 0x00,
  0x00, 0x00, 0x01, 0x10, 0x00, 0x00, 0x00, 0x10, 0x00, 0x00, 0x00, 0x07, 0x00,
  0x00, 0x00, 0x34, 0x00, 0x00, 0x00, 0xb4, 0xfd, 0xff, 0xff, 0x25, 0x00, 0x00,
  0x00, 0x41, 0x56, 0x32, 0x5f, 0x50, 0x61, 0x72, 0x74, 0x69, 0x74, 0x69, 0x6f,
  0x6e, 0x5f, 0x44, 0x4e, 0x4e, 0x2f, 0x6f, 0x75, 0x74, 0x70, 0x75, 0x74, 0x5f,
  0x6c, 0x61, 0x79, 0x65, 0x72, 0x2f, 0x4d, 0x61, 0x74, 0x4d, 0x75, 0x6c, 0x00,
  0x00, 0x00, 0x02, 0x00, 0x00, 0x00, 0x01, 0x00, 0x00, 0x00, 0x10, 0x00, 0x00,
  0x00, 0xa2, 0xfe, 0xff, 0xff, 0x00, 0x00, 0x00, 0x01, 0x10, 0x00, 0x00, 0x00,
  0x10, 0x00, 0x00, 0x00, 0x06, 0x00, 0x00, 0x00, 0x30, 0x00, 0x00, 0x00, 0x08,
  0xfe, 0xff, 0xff, 0x20, 0x00, 0x00, 0x00, 0x41, 0x56, 0x32, 0x5f, 0x50, 0x61,
  0x72, 0x74, 0x69, 0x74, 0x69, 0x6f, 0x6e, 0x5f, 0x44, 0x4e, 0x4e, 0x2f, 0x64,
  0x65, 0x6e, 0x73, 0x65, 0x5f, 0x31, 0x2f, 0x4d, 0x61, 0x74, 0x4d, 0x75, 0x6c,
  0x00, 0x00, 0x00, 0x00, 0x02, 0x00, 0x00, 0x00, 0x10, 0x00, 0x00, 0x00, 0x20,
  0x00, 0x00, 0x00, 0xf2, 0xfe, 0xff, 0xff, 0x00, 0x00, 0x00, 0x01, 0x10, 0x00,
  0x00, 0x00, 0x10, 0x00, 0x00, 0x00, 0x05, 0x00, 0x00, 0x00, 0x30, 0x00, 0x00,
  0x00, 0x58, 0xfe, 0xff, 0xff, 0x20, 0x00, 0x00, 0x00, 0x41, 0x56, 0x32, 0x5f,
  0x50, 0x61, 0x72, 0x74, 0x69, 0x74, 0x69, 0x6f, 0x6e, 0x5f, 0x44, 0x4e, 0x4e,
  0x2f, 0x64, 0x65, 0x6e, 0x73, 0x65, 0x5f, 0x30, 0x2f, 0x4d, 0x61, 0x74, 0x4d,
  0x75, 0x6c, 0x00, 0x00, 0x00, 0x00, 0x02, 0x00, 0x00, 0x00, 0x20, 0x00, 0x00,
  0x00, 0x25, 0x00, 0x00, 0x00, 0x42, 0xff, 0xff, 0xff, 0x00, 0x00, 0x00, 0x01,
  0x10, 0x00, 0x00, 0x00, 0x10, 0x00, 0x00, 0x00, 0x04, 0x00, 0x00, 0x00, 0x44,
  0x00, 0x00, 0x00, 0xa8, 0xfe, 0xff, 0xff, 0x35, 0x00, 0x00, 0x00, 0x41, 0x56,
  0x32, 0x5f, 0x50, 0x61, 0x72, 0x74, 0x69, 0x74, 0x69, 0x6f, 0x6e, 0x5f, 0x44,
  0x4e, 0x4e, 0x2f, 0x6f, 0x75, 0x74, 0x70, 0x75, 0x74, 0x5f, 0x6c, 0x61, 0x79,
  0x65, 0x72, 0x2f, 0x42, 0x69, 0x61, 0x73, 0x41, 0x64, 0x64, 0x2f, 0x52, 0x65,
  0x61, 0x64, 0x56, 0x61, 0x72, 0x69, 0x61, 0x62, 0x6c, 0x65, 0x4f, 0x70, 0x00,
  0x00, 0x00, 0x01, 0x00, 0x00, 0x00, 0x01, 0x00, 0x00, 0x00, 0xa2, 0xff, 0xff,
  0xff, 0x00, 0x00, 0x00, 0x01, 0x10, 0x00, 0x00, 0x00, 0x10, 0x00, 0x00, 0x00,
  0x03, 0x00, 0x00, 0x00, 0x40, 0x00, 0x00, 0x00, 0x08, 0xff, 0xff, 0xff, 0x30,
  0x00, 0x00, 0x00, 0x41, 0x56, 0x32, 0x5f, 0x50, 0x61, 0x72, 0x74, 0x69, 0x74,
  0x69, 0x6f, 0x6e, 0x5f, 0x44, 0x4e, 0x4e, 0x2f, 0x64, 0x65, 0x6e, 0x73, 0x65,
  0x5f, 0x31, 0x2f, 0x42, 0x69, 0x61, 0x73, 0x41, 0x64, 0x64, 0x2f, 0x52, 0x65,
  0x61, 0x64, 0x56, 0x61, 0x72, 0x69, 0x61, 0x62, 0x6c, 0x65, 0x4f, 0x70, 0x00,
  0x00, 0x00, 0x00, 0x01, 0x00, 0x00, 0x00, 0x10, 0x00, 0x00, 0x00, 0x00, 0x00,
  0x16, 0x00, 0x18, 0x00, 0x14, 0x00, 0x00, 0x00, 0x10, 0x00, 0x0c, 0x00, 0x08,
  0x00, 0x00, 0x00, 0x00, 0x00, 0x00, 0x00, 0x07, 0x00, 0x16, 0x00, 0x00, 0x00,
  0x00, 0x00, 0x00, 0x01, 0x10, 0x00, 0x00, 0x00, 0x10, 0x00, 0x00, 0x00, 0x02,
  0x00, 0x00, 0x00, 0x40, 0x00, 0x00, 0x00, 0x7c, 0xff, 0xff, 0xff, 0x30, 0x00,
  0x00, 0x00, 0x41, 0x56, 0x32, 0x5f, 0x50, 0x61, 0x72, 0x74, 0x69, 0x74, 0x69,
  0x6f, 0x6e, 0x5f, 0x44, 0x4e, 0x4e, 0x2f, 0x64, 0x65, 0x6e, 0x73, 0x65, 0x5f,
  0x30, 0x2f, 0x42, 0x69, 0x61, 0x73, 0x41, 0x64, 0x64, 0x2f, 0x52, 0x65, 0x61,
  0x64, 0x56, 0x61, 0x72, 0x69, 0x61, 0x62, 0x6c, 0x65, 0x4f, 0x70, 0x00, 0x00,
  0x00, 0x00, 0x01, 0x00, 0x00, 0x00, 0x20, 0x00, 0x00, 0x00, 0x00, 0x00, 0x16,
  0x00, 0x1c, 0x00, 0x18, 0x00, 0x00, 0x00, 0x14, 0x00, 0x10, 0x00, 0x0c, 0x00,
  0x00, 0x00, 0x00, 0x00, 0x08, 0x00, 0x07, 0x00, 0x16, 0x00, 0x00, 0x00, 0x00,
  0x00, 0x00, 0x01, 0x14, 0x00, 0x00, 0x00, 0x20, 0x00, 0x00, 0x00, 0x20, 0x00,
  0x00, 0x00, 0x01, 0x00, 0x00, 0x00, 0x34, 0x00, 0x00, 0x00, 0x02, 0x00, 0x00,
  0x00, 0xff, 0xff, 0xff, 0xff, 0x25, 0x00, 0x00, 0x00, 0x04, 0x00, 0x04, 0x00,
  0x04, 0x00, 0x00, 0x00, 0x17, 0x00, 0x00, 0x00, 0x73, 0x65, 0x72, 0x76, 0x69,
  0x6e, 0x67, 0x5f, 0x64, 0x65, 0x66, 0x61, 0x75, 0x6c, 0x74, 0x5f, 0x69, 0x6e,
  0x70, 0x75, 0x74, 0x3a, 0x30, 0x00, 0x02, 0x00, 0x00, 0x00, 0x01, 0x00, 0x00,
  0x00, 0x25, 0x00, 0x00, 0x00, 0x02, 0x00, 0x00, 0x00, 0x20, 0x00, 0x00, 0x00,
  0x04, 0x00, 0x00, 0x00, 0xf4, 0xff, 0xff, 0xff, 0x0e, 0x00, 0x00, 0x00, 0x00,
  0x00, 0x00, 0x0e, 0x0c, 0x00, 0x0c, 0x00, 0x0b, 0x00, 0x00, 0x00, 0x00, 0x00,
  0x04, 0x00, 0x0c, 0x00, 0x00, 0x00, 0x09, 0x00, 0x00, 0x00, 0x00, 0x00, 0x00,
  0x09
};
// unsigned int a3_qp96_128_160_luma_BLOCK_32X32_intra_tflite_len = 9244;
