/*
 * Copyright (c) 2023, Alliance for Open Media. All rights reserved
 *
 * This source code is subject to the terms of the BSD 2 Clause License and
 * the Alliance for Open Media Patent License 1.0. If the BSD 2 Clause License
 * was not distributed with this source code in the LICENSE file, you can
 * obtain it at www.aomedia.org/license/software. If the Alliance for Open
 * Media Patent License 1.0 was not distributed with this source code in the
 * PATENTS file, you can obtain it at www.aomedia.org/license/patent.
 */
unsigned char a3_qp96_128_160_luma_BLOCK_64X64_intra_tflite[] = {
  0x1c, 0x00, 0x00, 0x00, 0x54, 0x46, 0x4c, 0x33, 0x14, 0x00, 0x20, 0x00, 0x1c,
  0x00, 0x18, 0x00, 0x14, 0x00, 0x10, 0x00, 0x0c, 0x00, 0x00, 0x00, 0x08, 0x00,
  0x04, 0x00, 0x14, 0x00, 0x00, 0x00, 0x1c, 0x00, 0x00, 0x00, 0x88, 0x00, 0x00,
  0x00, 0xe0, 0x00, 0x00, 0x00, 0x80, 0x1d, 0x00, 0x00, 0x90, 0x1d, 0x00, 0x00,
  0xb8, 0x23, 0x00, 0x00, 0x03, 0x00, 0x00, 0x00, 0x01, 0x00, 0x00, 0x00, 0x04,
  0x00, 0x00, 0x00, 0x32, 0xe2, 0xff, 0xff, 0x0c, 0x00, 0x00, 0x00, 0x1c, 0x00,
  0x00, 0x00, 0x40, 0x00, 0x00, 0x00, 0x0f, 0x00, 0x00, 0x00, 0x73, 0x65, 0x72,
  0x76, 0x69, 0x6e, 0x67, 0x5f, 0x64, 0x65, 0x66, 0x61, 0x75, 0x6c, 0x74, 0x00,
  0x01, 0x00, 0x00, 0x00, 0x04, 0x00, 0x00, 0x00, 0x94, 0xff, 0xff, 0xff, 0x0a,
  0x00, 0x00, 0x00, 0x04, 0x00, 0x00, 0x00, 0x0c, 0x00, 0x00, 0x00, 0x6f, 0x75,
  0x74, 0x70, 0x75, 0x74, 0x5f, 0x6c, 0x61, 0x79, 0x65, 0x72, 0x00, 0x00, 0x00,
  0x00, 0x01, 0x00, 0x00, 0x00, 0x04, 0x00, 0x00, 0x00, 0x86, 0xe3, 0xff, 0xff,
  0x04, 0x00, 0x00, 0x00, 0x05, 0x00, 0x00, 0x00, 0x69, 0x6e, 0x70, 0x75, 0x74,
  0x00, 0x00, 0x00, 0x02, 0x00, 0x00, 0x00, 0x34, 0x00, 0x00, 0x00, 0x04, 0x00,
  0x00, 0x00, 0xdc, 0xff, 0xff, 0xff, 0x0d, 0x00, 0x00, 0x00, 0x04, 0x00, 0x00,
  0x00, 0x13, 0x00, 0x00, 0x00, 0x43, 0x4f, 0x4e, 0x56, 0x45, 0x52, 0x53, 0x49,
  0x4f, 0x4e, 0x5f, 0x4d, 0x45, 0x54, 0x41, 0x44, 0x41, 0x54, 0x41, 0x00, 0x08,
  0x00, 0x0c, 0x00, 0x08, 0x00, 0x04, 0x00, 0x08, 0x00, 0x00, 0x00, 0x0c, 0x00,
  0x00, 0x00, 0x04, 0x00, 0x00, 0x00, 0x13, 0x00, 0x00, 0x00, 0x6d, 0x69, 0x6e,
  0x5f, 0x72, 0x75, 0x6e, 0x74, 0x69, 0x6d, 0x65, 0x5f, 0x76, 0x65, 0x72, 0x73,
  0x69, 0x6f, 0x6e, 0x00, 0x0e, 0x00, 0x00, 0x00, 0x9c, 0x1c, 0x00, 0x00, 0x94,
  0x1c, 0x00, 0x00, 0x04, 0x1c, 0x00, 0x00, 0xac, 0x1b, 0x00, 0x00, 0x98, 0x1b,
  0x00, 0x00, 0x08, 0x09, 0x00, 0x00, 0xf8, 0x00, 0x00, 0x00, 0xa8, 0x00, 0x00,
  0x00, 0xa0, 0x00, 0x00, 0x00, 0x98, 0x00, 0x00, 0x00, 0x90, 0x00, 0x00, 0x00,
  0x88, 0x00, 0x00, 0x00, 0x68, 0x00, 0x00, 0x00, 0x04, 0x00, 0x00, 0x00, 0x32,
  0xe4, 0xff, 0xff, 0x04, 0x00, 0x00, 0x00, 0x54, 0x00, 0x00, 0x00, 0x0c, 0x00,
  0x00, 0x00, 0x08, 0x00, 0x0e, 0x00, 0x08, 0x00, 0x04, 0x00, 0x08, 0x00, 0x00,
  0x00, 0x10, 0x00, 0x00, 0x00, 0x24, 0x00, 0x00, 0x00, 0x00, 0x00, 0x06, 0x00,
  0x08, 0x00, 0x04, 0x00, 0x06, 0x00, 0x00, 0x00, 0x04, 0x00, 0x00, 0x00, 0x00,
  0x00, 0x00, 0x00, 0x00, 0x00, 0x0a, 0x00, 0x10, 0x00, 0x0c, 0x00, 0x08, 0x00,
  0x04, 0x00, 0x0a, 0x00, 0x00, 0x00, 0x02, 0x00, 0x00, 0x00, 0x02, 0x00, 0x00,
  0x00, 0x04, 0x00, 0x00, 0x00, 0x06, 0x00, 0x00, 0x00, 0x32, 0x2e, 0x31, 0x36,
  0x2e, 0x30, 0x00, 0x00, 0x92, 0xe4, 0xff, 0xff, 0x04, 0x00, 0x00, 0x00, 0x10,
  0x00, 0x00, 0x00, 0x31, 0x2e, 0x31, 0x34, 0x2e, 0x30, 0x00, 0x00, 0x00, 0x00,
  0x00, 0x00, 0x00, 0x00, 0x00, 0x00, 0x04, 0xde, 0xff, 0xff, 0x08, 0xde, 0xff,
  0xff, 0x0c, 0xde, 0xff, 0xff, 0x10, 0xde, 0xff, 0xff, 0xbe, 0xe4, 0xff, 0xff,
  0x04, 0x00, 0x00, 0x00, 0x40, 0x00, 0x00, 0x00, 0xd7, 0x06, 0xc7, 0x3e, 0xa5,
  0x09, 0x68, 0xbd, 0xbb, 0xd9, 0xc9, 0xbd, 0x2e, 0x1d, 0x26, 0xbf, 0xc4, 0x75,
  0x31, 0x3f, 0xdf, 0x6c, 0x6f, 0x3f, 0xfa, 0x21, 0x97, 0xbe, 0x45, 0xbf, 0xac,
  0xbe, 0xb7, 0x44, 0xb7, 0xbe, 0x06, 0x4b, 0x97, 0x3f, 0x31, 0xbc, 0x8a, 0xbe,
  0x2f, 0x46, 0x3d, 0xbf, 0x14, 0xa6, 0x51, 0xbf, 0x94, 0x6a, 0x56, 0xbf, 0x9e,
  0x97, 0xdf, 0x3e, 0x12, 0x08, 0x89, 0x0a, 0x0a, 0xe5, 0xff, 0xff, 0x04, 0x00,
  0x00, 0x00, 0x00, 0x08, 0x00, 0x00, 0x6a, 0x24, 0x7e, 0xbe, 0x6f, 0x35, 0x4b,
  0x3e, 0x7b, 0x60, 0xc6, 0x3b, 0x4a, 0x31, 0x53, 0x3d, 0x1d, 0x7a, 0x2c, 0xbe,
  0x95, 0x3f, 0x0d, 0x3c, 0x07, 0x1c, 0xb8, 0xbe, 0xa8, 0xe4, 0xbb, 0xbd, 0x44,
  0x88, 0x91, 0xbd, 0x23, 0xda, 0xdd, 0xbd, 0x6d, 0xf4, 0x99, 0x3c, 0x15, 0xed,
  0x80, 0xbe, 0x6e, 0xdc, 0xb2, 0xbd, 0x0e, 0x73, 0x2b, 0x3c, 0x88, 0x1f, 0xb2,
  0x3d, 0xf8, 0x96, 0x08, 0x3b, 0x9b, 0xe5, 0x63, 0x8b, 0x97, 0xb1, 0x9f, 0xbd,
  0x92, 0xd3, 0x46, 0x39, 0x38, 0x80, 0x6e, 0xbe, 0x19, 0x62, 0x6a, 0xbe, 0x2b,
  0x8b, 0x7f, 0x3e, 0x11, 0xa2, 0xce, 0x3d, 0xbf, 0x91, 0x64, 0xbe, 0xa2, 0xd2,
  0x5d, 0x3e, 0x6b, 0xb4, 0x64, 0xbe, 0xde, 0xbc, 0x20, 0x3e, 0xf3, 0x52, 0x0a,
  0x3e, 0x32, 0xb7, 0x4c, 0x3e, 0xba, 0x85, 0x9e, 0x3e, 0xe6, 0x4a, 0xb5, 0x3b,
  0x19, 0x60, 0x50, 0xbd, 0x52, 0xb6, 0x08, 0x3d, 0x95, 0xa6, 0x57, 0x3d, 0xa9,
  0x4f, 0x1e, 0x3d, 0xa5, 0x74, 0xf6, 0xba, 0x49, 0xa2, 0x49, 0x3d, 0xdc, 0x85,
  0x7d, 0x3c, 0xc0, 0xb1, 0x04, 0xbb, 0xe8, 0xfd, 0x10, 0x3d, 0xaa, 0x8b, 0x91,
  0x3c, 0x06, 0xc1, 0x05, 0x3d, 0x41, 0xba, 0x5e, 0x3d, 0x20, 0x5f, 0x41, 0x3d,
  0x52, 0x6b, 0xab, 0xbd, 0xe4, 0xf5, 0x30, 0x3d, 0xea, 0x87, 0xb8, 0x3a, 0x7c,
  0x5a, 0x5a, 0x3d, 0xdb, 0x84, 0x47, 0x0b, 0x80, 0x7f, 0x5d, 0x3d, 0xed, 0x70,
  0xbc, 0x3a, 0xca, 0x04, 0x2e, 0x3d, 0x65, 0xb1, 0x23, 0x3d, 0x18, 0x88, 0xf8,
  0x3c, 0xd3, 0x03, 0x53, 0xbc, 0x7d, 0x40, 0x33, 0x3d, 0x36, 0x21, 0xf9, 0xbd,
  0x44, 0xf5, 0xd0, 0x3c, 0x03, 0xfb, 0x7c, 0x3e, 0xa4, 0xf1, 0xac, 0x3b, 0xda,
  0xf3, 0x5c, 0xbd, 0x9a, 0xe4, 0x98, 0xbd, 0x0e, 0x13, 0x88, 0x3d, 0x28, 0x53,
  0xd4, 0x3d, 0x17, 0xc6, 0xa9, 0x3c, 0xf2, 0x83, 0x65, 0xbd, 0xd7, 0x18, 0x0f,
  0x3d, 0x99, 0xae, 0x00, 0x3d, 0x62, 0xca, 0x8d, 0xbc, 0x59, 0x64, 0x9f, 0x3c,
  0xa1, 0xb9, 0x96, 0xbd, 0xa1, 0x6e, 0xe1, 0xbc, 0xd6, 0xfd, 0xcb, 0xbb, 0x1e,
  0xd4, 0x98, 0xbc, 0x8a, 0x81, 0x3b, 0x3d, 0xd9, 0xe8, 0xf4, 0x3c, 0x42, 0x67,
  0x17, 0x3d, 0xc4, 0x57, 0x5d, 0x3d, 0x97, 0xc3, 0x34, 0x3d, 0x0c, 0x16, 0xe9,
  0x3c, 0xc8, 0x9d, 0x4a, 0x0b, 0xf6, 0xb1, 0x52, 0x3d, 0x0a, 0x2b, 0x66, 0xb8,
  0xbc, 0xe1, 0x16, 0x3d, 0x29, 0xb0, 0x89, 0x3c, 0xe1, 0x33, 0x34, 0xbc, 0x4b,
  0x56, 0x93, 0xbd, 0x2a, 0x87, 0x11, 0xbd, 0x14, 0xff, 0xce, 0x3d, 0xb6, 0x1e,
  0x61, 0xba, 0x38, 0xd5, 0x09, 0xbe, 0x08, 0x78, 0xf9, 0xbc, 0xee, 0xf6, 0xc8,
  0x3b, 0x05, 0x5c, 0x9a, 0x3c, 0xf1, 0x9c, 0x61, 0xbc, 0xf1, 0x2f, 0xdb, 0x3c,
  0xd5, 0xa7, 0x20, 0xbe, 0xfe, 0x6c, 0x13, 0x3e, 0x57, 0x30, 0x8c, 0x3d, 0x52,
  0xcd, 0xeb, 0xbd, 0x1f, 0x45, 0x44, 0x3d, 0x54, 0x13, 0xa3, 0x3c, 0xe1, 0xb3,
  0xfc, 0x3d, 0x3c, 0x6e, 0xa0, 0x3e, 0x37, 0xc1, 0x17, 0xbe, 0x43, 0x8a, 0x83,
  0xbd, 0x63, 0xc8, 0x52, 0xbd, 0x17, 0xe6, 0x33, 0xbe, 0x21, 0x86, 0xaa, 0xbe,
  0x7c, 0xf2, 0x95, 0x3e, 0xf8, 0x01, 0x1c, 0x3d, 0xd8, 0x62, 0xa2, 0xbd, 0xf1,
  0x1f, 0x68, 0x8b, 0x54, 0xe3, 0x23, 0x3c, 0xc3, 0xf3, 0xc3, 0xba, 0x8b, 0x6d,
  0x82, 0x3e, 0xc0, 0xd6, 0x47, 0x3e, 0x8b, 0xf4, 0x8d, 0xbd, 0x5b, 0xdf, 0x12,
  0x3d, 0x94, 0xf1, 0x0d, 0x3d, 0xf8, 0xd2, 0x69, 0x3d, 0x90, 0x31, 0x25, 0x3e,
  0x85, 0x41, 0xae, 0x3d, 0x6f, 0x20, 0x43, 0xbd, 0xc4, 0x1d, 0xb1, 0xbd, 0xd3,
  0xdd, 0x4d, 0xbd, 0x45, 0x02, 0x68, 0x3d, 0xbc, 0xdc, 0xc0, 0xbe, 0xd7, 0xbb,
  0x19, 0x3c, 0xda, 0x6d, 0x29, 0xbe, 0x40, 0xa0, 0x88, 0x3d, 0xee, 0x6f, 0x09,
  0x3d, 0x91, 0x43, 0xcd, 0x3d, 0x98, 0xaf, 0x5f, 0xbe, 0xf3, 0x8e, 0x93, 0x3e,
  0xae, 0xf2, 0x8d, 0x3e, 0x97, 0x2f, 0x6f, 0x3c, 0x34, 0x70, 0x58, 0xbe, 0xaa,
  0x3f, 0xdf, 0xbe, 0x2c, 0xa5, 0x79, 0xbe, 0xeb, 0xcd, 0x15, 0xbd, 0x83, 0x62,
  0x9e, 0xbd, 0x62, 0xad, 0x02, 0x3e, 0xcd, 0x2b, 0xa7, 0xbd, 0xef, 0xd9, 0x3c,
  0x8b, 0x9b, 0xe3, 0x0b, 0x3e, 0xd4, 0x6f, 0xd3, 0xba, 0x35, 0xa3, 0x81, 0xbc,
  0x33, 0x22, 0xfe, 0xbd, 0x2b, 0x20, 0x0c, 0xbf, 0x7d, 0x3f, 0xc6, 0x3d, 0x0e,
  0x3f, 0x48, 0xbe, 0xe4, 0x64, 0xbd, 0xbe, 0xec, 0x3e, 0x9d, 0xbe, 0xe9, 0x27,
  0xdc, 0x3d, 0xf7, 0x4c, 0x7c, 0x3e, 0x97, 0x97, 0xdd, 0xbe, 0x27, 0x11, 0x9d,
  0xbe, 0x25, 0x59, 0xe1, 0xbd, 0xec, 0xf4, 0x77, 0xbe, 0x4b, 0x06, 0x40, 0x3d,
  0x7e, 0x5b, 0x3f, 0x3e, 0xb7, 0x2b, 0x9a, 0xbe, 0xb5, 0x98, 0x97, 0x3c, 0xfd,
  0x43, 0x3a, 0xbd, 0x62, 0x0a, 0x9b, 0x3d, 0x36, 0x45, 0x5c, 0xbe, 0x41, 0x0c,
  0x0f, 0x3d, 0x15, 0x4c, 0xa6, 0x3e, 0x70, 0x30, 0x1a, 0x3e, 0xea, 0x5d, 0xfa,
  0x3c, 0xf7, 0xf3, 0x3c, 0x3e, 0xb1, 0xb0, 0xb0, 0xbe, 0x90, 0x3b, 0x6f, 0x3d,
  0xa8, 0x40, 0x3f, 0x3c, 0xe3, 0xcf, 0x67, 0xbd, 0xdd, 0x8d, 0x06, 0x0b, 0x69,
  0x45, 0x10, 0xbe, 0xf9, 0xb1, 0x19, 0xba, 0x97, 0x09, 0xc9, 0xbd, 0xf5, 0x3c,
  0x26, 0xbd, 0x48, 0x92, 0x18, 0x3e, 0xd5, 0x82, 0x4f, 0x3e, 0x0a, 0x1f, 0x02,
  0x3e, 0x06, 0xf5, 0xa2, 0x3e, 0x12, 0x15, 0x7d, 0xbe, 0xe9, 0x07, 0xe8, 0xbb,
  0xf1, 0x01, 0x83, 0xbe, 0x49, 0x7e, 0x14, 0x3d, 0xa6, 0x5a, 0xd3, 0xbd, 0x4e,
  0xf6, 0xb9, 0x3e, 0xcb, 0xf1, 0x57, 0xbe, 0x78, 0xe0, 0x56, 0x3e, 0x78, 0xf7,
  0x22, 0xbe, 0x34, 0x87, 0x3a, 0x3d, 0x08, 0x29, 0xa2, 0x3c, 0xbc, 0x8e, 0x8e,
  0x3e, 0xfe, 0x27, 0xeb, 0x3d, 0x30, 0x05, 0x29, 0xbe, 0x9c, 0xe1, 0x1f, 0x3e,
  0xa4, 0x46, 0x18, 0x3e, 0x13, 0x78, 0x18, 0x3e, 0x00, 0x49, 0xce, 0xbc, 0x22,
  0xde, 0x70, 0x3e, 0xb4, 0x33, 0x79, 0x3e, 0x8a, 0xad, 0x6a, 0x3e, 0x83, 0xff,
  0x91, 0x3d, 0xd8, 0xf0, 0x50, 0x3e, 0xf4, 0xae, 0x68, 0x0b, 0x5b, 0xf1, 0xb3,
  0x3d, 0x06, 0x9a, 0x31, 0x3b, 0x06, 0x73, 0x6b, 0x3e, 0x69, 0x32, 0xce, 0xbc,
  0x85, 0x51, 0xbb, 0xbd, 0xc7, 0x1f, 0x08, 0x3e, 0xab, 0xe9, 0xac, 0x3d, 0xb2,
  0x1b, 0x18, 0xbe, 0x12, 0xb2, 0x11, 0x3e, 0xb5, 0xd1, 0xdc, 0x3d, 0x89, 0x9b,
  0x82, 0x3e, 0x89, 0xce, 0x09, 0xbe, 0xc8, 0x90, 0x40, 0xbe, 0x24, 0x27, 0x0a,
  0x3e, 0x85, 0xad, 0x58, 0xbe, 0x19, 0x80, 0x80, 0x3e, 0x1e, 0x0d, 0xeb, 0x3d,
  0x4d, 0xc8, 0x94, 0xbe, 0xec, 0xa1, 0xb6, 0xbb, 0x0e, 0x77, 0xda, 0x3e, 0x84,
  0x15, 0xab, 0xbd, 0xaf, 0xf2, 0xb0, 0x3c, 0x79, 0x8f, 0xfe, 0x3d, 0xcc, 0x80,
  0x3b, 0x3d, 0xe2, 0x6e, 0x5d, 0x3e, 0x80, 0xd6, 0x05, 0x3e, 0x33, 0x15, 0x74,
  0x3e, 0x4b, 0xe5, 0xb2, 0x3e, 0x80, 0xea, 0x16, 0x3e, 0x88, 0xbe, 0xdc, 0x3d,
  0x4a, 0xfc, 0x5e, 0x3e, 0x23, 0x5f, 0x69, 0x0b, 0xd6, 0xa5, 0x2f, 0x3e, 0x84,
  0xd9, 0x1d, 0x3b, 0x11, 0xf3, 0x71, 0x3e, 0xfb, 0x77, 0xe3, 0xbd, 0x04, 0x16,
  0x1c, 0x3c, 0x1b, 0x89, 0x7c, 0x3d, 0xfa, 0xe0, 0xa1, 0x3d, 0xe5, 0x26, 0x83,
  0x3e, 0x11, 0x50, 0x10, 0x3e, 0x68, 0x8a, 0x92, 0x3e, 0x9a, 0x14, 0x29, 0x3e,
  0x3d, 0xcc, 0x1f, 0xbe, 0xec, 0xfb, 0x5f, 0xbe, 0x3d, 0x5e, 0xf1, 0xbd, 0xbd,
  0xdf, 0x8e, 0xbe, 0xbc, 0x5e, 0x87, 0x3e, 0x9d, 0xcd, 0x6d, 0xbe, 0x8d, 0xe0,
  0xe7, 0x3d, 0xe3, 0xab, 0x12, 0x3d, 0x31, 0x24, 0x8e, 0x3e, 0x1f, 0x7a, 0x52,
  0xbe, 0x80, 0x9a, 0x3e, 0xbe, 0x96, 0x1e, 0x48, 0x3e, 0x5b, 0x28, 0xd0, 0x3c,
  0x77, 0xf6, 0x8c, 0x3e, 0x53, 0x50, 0x02, 0x3e, 0xf6, 0xdb, 0x64, 0x3e, 0x6d,
  0xa5, 0x8f, 0xbd, 0xd5, 0xf3, 0x64, 0x3e, 0xeb, 0x12, 0xc9, 0x3d, 0x59, 0xeb,
  0x6c, 0x3e, 0x53, 0x16, 0x7a, 0x8b, 0x4b, 0x98, 0x2e, 0x3e, 0x04, 0x63, 0x2f,
  0x3b, 0xfe, 0xb1, 0x95, 0x3e, 0x86, 0xe4, 0x99, 0xbc, 0x5a, 0xb3, 0xa1, 0xba,
  0x7c, 0xab, 0x89, 0x3d, 0xa5, 0xfb, 0xe0, 0x3d, 0x85, 0x1d, 0xa5, 0xbd, 0x08,
  0xed, 0x21, 0x3e, 0x1d, 0x61, 0xef, 0xbc, 0x7d, 0x3d, 0x6b, 0x3e, 0x62, 0xe8,
  0xcc, 0xbd, 0x35, 0xcc, 0x2a, 0xbe, 0xe4, 0x92, 0x7f, 0x3e, 0xba, 0xdf, 0x8d,
  0x3e, 0xeb, 0xa1, 0x11, 0x3c, 0xeb, 0x7b, 0xb1, 0xbe, 0xb9, 0xb7, 0x65, 0xbc,
  0x9e, 0x5b, 0x6a, 0xbe, 0x41, 0x00, 0x2e, 0x3e, 0x51, 0xa7, 0x3e, 0x3c, 0x92,
  0xdc, 0xd8, 0x3e, 0x0e, 0x71, 0x71, 0xbd, 0x1f, 0xd7, 0xad, 0xbe, 0x47, 0x8a,
  0x9c, 0xbd, 0xcb, 0x45, 0xcb, 0xbe, 0xda, 0x41, 0xca, 0xbb, 0xff, 0xf3, 0x53,
  0x3e, 0x5e, 0x00, 0x34, 0x3d, 0xe6, 0x7e, 0x2b, 0xbe, 0x32, 0xb7, 0xe4, 0xbe,
  0x62, 0xaa, 0xde, 0x0a, 0xc4, 0xe0, 0xb3, 0x3b, 0x03, 0x9b, 0x7b, 0xbc, 0x54,
  0x55, 0x09, 0xbe, 0xd1, 0x45, 0x50, 0xbe, 0xe2, 0x73, 0x08, 0x3e, 0x98, 0xb5,
  0x33, 0xbe, 0x9d, 0xf6, 0xd8, 0x3e, 0x9c, 0xb0, 0x57, 0x3e, 0x28, 0xd9, 0xac,
  0xbd, 0xd4, 0x4c, 0x09, 0xbf, 0x6d, 0x93, 0xfd, 0x3d, 0xc6, 0x31, 0x12, 0x3e,
  0x50, 0x1d, 0x94, 0xbd, 0xc6, 0x26, 0x8b, 0xbe, 0xe0, 0x1c, 0x83, 0x3d, 0x03,
  0x66, 0x65, 0x3e, 0x6a, 0xaa, 0x50, 0x3d, 0xa5, 0x31, 0x47, 0xbe, 0x81, 0x3d,
  0x75, 0x3d, 0xaa, 0xd7, 0x35, 0x3e, 0x16, 0x25, 0x1b, 0xbd, 0xdc, 0x52, 0xdc,
  0xbd, 0xb9, 0xef, 0x23, 0x3c, 0x72, 0xf0, 0xae, 0x3d, 0x9c, 0x42, 0x23, 0x3e,
  0xa5, 0x09, 0x15, 0x3e, 0x3c, 0x9f, 0x20, 0x3e, 0x14, 0x5e, 0x41, 0x3e, 0x75,
  0x58, 0xcf, 0xbb, 0xc7, 0x88, 0x41, 0xbb, 0xe1, 0x78, 0x28, 0x3e, 0x96, 0xba,
  0x27, 0x8b, 0xee, 0xfb, 0x0a, 0x3e, 0xab, 0x21, 0xdd, 0x3a, 0xd3, 0xc0, 0x1c,
  0x3e, 0x1b, 0x73, 0xe6, 0x3c, 0xcf, 0xe4, 0xc1, 0x3d, 0xc4, 0x63, 0x4c, 0xbe,
  0x2d, 0x25, 0xb8, 0xbd, 0x0e, 0x72, 0x67, 0x3e, 0xd0, 0xda, 0x8d, 0x3d, 0xb3,
  0x90, 0x25, 0x3e, 0x5b, 0xb1, 0x83, 0xbd, 0xcb, 0x26, 0x08, 0xbd, 0x87, 0x95,
  0x4b, 0xbd, 0xeb, 0xd5, 0x7a, 0xbe, 0xb0, 0xdf, 0x39, 0xbe, 0x93, 0xd0, 0x45,
  0xbe, 0x38, 0xcc, 0x1b, 0xbe, 0x30, 0x94, 0x2d, 0xbe, 0x18, 0x06, 0x46, 0xbc,
  0x2f, 0x4d, 0x2a, 0x3e, 0x50, 0x7a, 0xb6, 0xbd, 0x6b, 0x26, 0x05, 0xbe, 0x67,
  0x8f, 0xeb, 0x3d, 0x47, 0xd5, 0xb2, 0xbc, 0xc6, 0xa0, 0x9d, 0x3c, 0x9c, 0x8a,
  0xc9, 0xbd, 0x4b, 0x9e, 0xa8, 0x3e, 0x04, 0x0d, 0x6b, 0x3d, 0x98, 0x33, 0xb1,
  0x3d, 0x2c, 0x48, 0x60, 0xbe, 0x7a, 0x98, 0x49, 0x3e, 0xe7, 0xcb, 0xc7, 0x8a,
  0xee, 0x44, 0x8e, 0x3d, 0x12, 0x05, 0x4e, 0x3c, 0x84, 0x97, 0x91, 0xbd, 0x14,
  0xc3, 0x1b, 0xbe, 0xb0, 0x75, 0x34, 0xbe, 0x13, 0x46, 0x01, 0x3d, 0x4c, 0xc0,
  0x03, 0x3e, 0x3d, 0xa2, 0xe1, 0xbd, 0xea, 0x0a, 0xe1, 0xbc, 0x44, 0x69, 0x33,
  0x3c, 0x17, 0x27, 0x5b, 0xbd, 0xe8, 0x79, 0x8d, 0x3d, 0xd8, 0x1c, 0x02, 0xbe,
  0xff, 0xc2, 0x90, 0x3e, 0x9b, 0x30, 0xcc, 0xbd, 0x76, 0x43, 0x2c, 0xbd, 0xd2,
  0xc6, 0x88, 0xbe, 0x37, 0x8e, 0x90, 0x3b, 0x75, 0x8c, 0x28, 0x3e, 0xa6, 0x03,
  0xb1, 0x3e, 0x47, 0xfe, 0x8b, 0x3e, 0x2a, 0x0d, 0xe8, 0xbe, 0x53, 0x73, 0xa9,
  0xbe, 0xc8, 0xa5, 0xaa, 0x3e, 0x70, 0xa6, 0x32, 0x3e, 0x39, 0x39, 0xbf, 0xbd,
  0x9d, 0x8b, 0x97, 0x3e, 0x02, 0x72, 0x50, 0xbc, 0xd1, 0x76, 0x94, 0xbe, 0x72,
  0x83, 0xcf, 0xbe, 0x0b, 0x65, 0xbc, 0x3e, 0xce, 0xbd, 0x5f, 0x0b, 0x4d, 0x57,
  0x6f, 0x3e, 0x47, 0x18, 0xdf, 0x3b, 0x8b, 0x9f, 0x8f, 0x3e, 0xff, 0xa8, 0x31,
  0xbe, 0x70, 0xc8, 0xe1, 0xbd, 0xdb, 0xcf, 0x9d, 0x3e, 0x47, 0x36, 0xa8, 0x3e,
  0xe9, 0xda, 0x07, 0xbe, 0x38, 0xc8, 0x62, 0x3d, 0xa2, 0x2b, 0xc3, 0xbd, 0x22,
  0x1e, 0x6a, 0x3e, 0x11, 0xf2, 0x12, 0xbe, 0x36, 0x65, 0x5b, 0x3e, 0x99, 0xc8,
  0x56, 0x3e, 0x63, 0xb5, 0x91, 0x3c, 0xe9, 0xd5, 0x96, 0x3e, 0x49, 0x16, 0x75,
  0xbe, 0xd6, 0x0a, 0x0c, 0x3e, 0x74, 0x3e, 0xc5, 0x3c, 0x0c, 0x1e, 0x98, 0x3e,
  0x74, 0x15, 0xb4, 0x3e, 0x13, 0x91, 0x3c, 0xbe, 0x65, 0xda, 0x75, 0xbd, 0x51,
  0x47, 0x11, 0xbd, 0x0d, 0x57, 0x12, 0x3e, 0x6b, 0x23, 0xc5, 0x3d, 0xfd, 0x16,
  0x52, 0x3e, 0xd3, 0x6e, 0x33, 0x3e, 0x87, 0x7a, 0xbe, 0xbe, 0x0a, 0x7b, 0xfd,
  0xbe, 0xfe, 0x99, 0x51, 0x3d, 0x46, 0x93, 0x52, 0x0b, 0x0c, 0xb3, 0x75, 0x3e,
  0x93, 0x87, 0xc9, 0x3b, 0x0c, 0xeb, 0x97, 0x3e, 0x58, 0x46, 0x40, 0xbd, 0xfc,
  0xc6, 0x1d, 0x3e, 0xe9, 0x82, 0xbe, 0x3e, 0x4c, 0xa9, 0x28, 0x3e, 0xa5, 0x93,
  0x96, 0x3e, 0xd6, 0x2f, 0x28, 0x3e, 0xb6, 0x93, 0xc2, 0xbe, 0x2b, 0xd1, 0x8f,
  0x3d, 0xff, 0x26, 0xa5, 0xbe, 0x94, 0x1c, 0x4f, 0x3e, 0x27, 0x70, 0x8d, 0xbe,
  0x72, 0x05, 0xb6, 0xbe, 0x93, 0xcd, 0x97, 0xbe, 0x88, 0x19, 0xc0, 0xbd, 0xd7,
  0x82, 0x18, 0x3e, 0x8b, 0x18, 0xf5, 0x3d, 0x0b, 0x2b, 0xf7, 0xbe, 0xd1, 0x0f,
  0xc5, 0xbd, 0x06, 0xdb, 0x1c, 0x3d, 0xc8, 0x7f, 0x92, 0xbe, 0x59, 0x06, 0x45,
  0xbd, 0x56, 0xff, 0x88, 0xbe, 0xf8, 0x99, 0xf8, 0xbd, 0xcf, 0xb8, 0x33, 0xbe,
  0xf2, 0x02, 0xfb, 0x3d, 0xb4, 0xe7, 0x89, 0x3e, 0x23, 0xd9, 0xbb, 0x3d, 0xaa,
  0xb0, 0x5a, 0xbe, 0xe7, 0x98, 0x7b, 0x8b, 0xbe, 0x65, 0x81, 0xbd, 0xd9, 0x1d,
  0xad, 0xba, 0x85, 0x65, 0xa9, 0xbe, 0x15, 0x0a, 0xa3, 0x3e, 0xec, 0xcd, 0x73,
  0xbd, 0x4d, 0xd2, 0xf3, 0x3d, 0xc9, 0x90, 0x3f, 0xbd, 0xec, 0x74, 0x95, 0x3e,
  0xe4, 0x05, 0x62, 0xbe, 0x80, 0xa5, 0x8e, 0x3e, 0xb6, 0x4b, 0x0c, 0xbe, 0xf0,
  0x3d, 0x03, 0x3e, 0xff, 0xdd, 0xc8, 0x3e, 0xbd, 0xbb, 0x2d, 0xbe, 0x73, 0xb1,
  0x06, 0xbe, 0xb2, 0xb7, 0x98, 0x0a, 0x60, 0x36, 0x83, 0x06, 0x2a, 0xa1, 0x02,
  0x8b, 0xd3, 0x22, 0x03, 0x8b, 0xd8, 0x0e, 0x4e, 0x8b, 0x9c, 0x87, 0x96, 0x0b,
  0xf8, 0x91, 0xc3, 0x0a, 0x3f, 0xb7, 0x32, 0x0a, 0x02, 0xad, 0x8a, 0x8b, 0x7a,
  0x86, 0x95, 0x8b, 0x74, 0x5e, 0x96, 0x0b, 0xa6, 0x14, 0xc5, 0x8a, 0x24, 0x3d,
  0x4e, 0x0a, 0x51, 0xa5, 0xa0, 0x8a, 0xa3, 0x4e, 0x41, 0x0a, 0x8a, 0xa3, 0x66,
  0x8b, 0xbc, 0xcd, 0x74, 0x0b, 0x01, 0x1a, 0xe1, 0x0a, 0xf7, 0x39, 0x4a, 0x0b,
  0x91, 0x16, 0x19, 0x8a, 0xc2, 0xd1, 0x06, 0x8a, 0x84, 0xaf, 0x0f, 0x8b, 0xfc,
  0x6d, 0xf0, 0x0a, 0xa0, 0x8d, 0x15, 0x8b, 0xec, 0xa8, 0x0c, 0x0b, 0xa3, 0x85,
  0x87, 0x8b, 0x3b, 0xf3, 0xf7, 0x0a, 0x72, 0x49, 0x0d, 0x0a, 0xc5, 0xc4, 0x60,
  0x0b, 0xb6, 0x9c, 0x27, 0x8b, 0xde, 0xa9, 0x61, 0x8b, 0x55, 0xdd, 0x95, 0x8b,
  0x16, 0xed, 0xff, 0xff, 0x04, 0x00, 0x00, 0x00, 0x80, 0x12, 0x00, 0x00, 0x77,
  0x80, 0xca, 0xbd, 0xc9, 0x43, 0x93, 0xbd, 0x49, 0xff, 0x9d, 0x3e, 0x42, 0xef,
  0xa1, 0xbd, 0xe2, 0x56, 0xa9, 0x3d, 0x49, 0x0b, 0xe6, 0x3d, 0xb0, 0xca, 0x76,
  0xbe, 0x3d, 0x06, 0xca, 0xbb, 0xa7, 0xb1, 0xe4, 0x3c, 0x5a, 0x81, 0xd3, 0xbc,
  0xac, 0x30, 0x92, 0xbd, 0x03, 0xae, 0x50, 0xbe, 0x10, 0xb1, 0x57, 0x3d, 0x72,
  0x56, 0x57, 0x3c, 0xf7, 0x6a, 0x42, 0x3d, 0x4c, 0xc5, 0x84, 0xbb, 0x09, 0x38,
  0x16, 0x3e, 0x23, 0x9b, 0xea, 0x3d, 0x71, 0x38, 0x9a, 0x3e, 0x67, 0x38, 0xf0,
  0xbc, 0xac, 0xa0, 0xb8, 0xbd, 0x97, 0x99, 0x71, 0x3d, 0xfe, 0x18, 0xfe, 0x3c,
  0xd5, 0x5d, 0x0a, 0xbe, 0x7f, 0x08, 0x91, 0xbd, 0xe1, 0x87, 0x29, 0xbc, 0xc2,
  0x60, 0x81, 0x3e, 0x87, 0xee, 0x17, 0xbe, 0xd3, 0xd0, 0xe7, 0x3a, 0xc9, 0x12,
  0x3c, 0xbe, 0x07, 0xc7, 0x7c, 0xbd, 0xfd, 0x15, 0x4d, 0xbe, 0xb6, 0x0c, 0x04,
  0xbe, 0xe2, 0xe8, 0x34, 0x3e, 0x65, 0xec, 0xed, 0x3d, 0x10, 0x4d, 0xac, 0xbe,
  0x2f, 0xe0, 0x27, 0xbe, 0x08, 0x71, 0xa6, 0xbd, 0x23, 0x99, 0x96, 0xbd, 0x60,
  0x61, 0x84, 0x3e, 0x1b, 0x95, 0xad, 0x3d, 0x40, 0x73, 0x8d, 0xbd, 0xee, 0xe3,
  0xce, 0x3d, 0xd6, 0x75, 0x90, 0xbd, 0x26, 0x51, 0xa4, 0x3d, 0x02, 0xdf, 0x31,
  0xbe, 0xcf, 0x50, 0x68, 0x3d, 0xa6, 0x5c, 0x72, 0xbe, 0x0d, 0x47, 0xf3, 0xbd,
  0x46, 0x06, 0x87, 0x3b, 0x45, 0x2c, 0xa6, 0xbd, 0xd9, 0xf6, 0xb9, 0xbe, 0xf0,
  0x04, 0x4b, 0x3e, 0x4a, 0x01, 0xa9, 0xbb, 0x8f, 0x7b, 0x5d, 0x3e, 0xca, 0x81,
  0x4c, 0x3e, 0x4a, 0xa4, 0xc1, 0x3d, 0xb9, 0xd6, 0x07, 0x3e, 0x3c, 0x46, 0x5b,
  0xbe, 0xe6, 0xf1, 0x53, 0xbb, 0xad, 0x04, 0x74, 0x3e, 0xfa, 0x4d, 0x64, 0x3e,
  0xcc, 0x01, 0xb8, 0xbd, 0x16, 0xc0, 0x0b, 0xbe, 0xf6, 0x44, 0x7a, 0xbc, 0xb1,
  0x05, 0x41, 0x3e, 0x9b, 0xad, 0x82, 0xbe, 0xc4, 0x43, 0x8f, 0xbe, 0x7d, 0xa7,
  0xec, 0x3c, 0x25, 0x9e, 0x08, 0xbc, 0x38, 0xaa, 0x5c, 0x3e, 0x47, 0x1e, 0xb9,
  0xbd, 0xd9, 0xc6, 0xcd, 0xbd, 0x8e, 0x93, 0x3f, 0xbd, 0xd4, 0x5b, 0x89, 0xbe,
  0x6f, 0xdf, 0xdf, 0x3b, 0x57, 0x12, 0x17, 0x3e, 0x08, 0xdc, 0x43, 0xbe, 0xf3,
  0xfa, 0x19, 0xbe, 0xf1, 0x85, 0x4f, 0x3e, 0x1c, 0x48, 0x60, 0x3e, 0xba, 0x2d,
  0x3c, 0xbe, 0x89, 0xef, 0x6f, 0x3d, 0x4c, 0x2a, 0x14, 0x3e, 0xbc, 0x06, 0xfc,
  0xbc, 0x05, 0x41, 0x60, 0xbe, 0x33, 0x3d, 0x07, 0x3d, 0x7d, 0xdc, 0xbf, 0xbc,
  0x33, 0x62, 0x0d, 0x3e, 0x17, 0xba, 0x2a, 0x3e, 0x23, 0x72, 0x5f, 0x3e, 0xdc,
  0x46, 0x15, 0x3d, 0xdb, 0x71, 0x31, 0x3e, 0xd9, 0xde, 0xd6, 0xbc, 0x0e, 0xfc,
  0x64, 0x3c, 0x16, 0xc0, 0xd6, 0x3a, 0xc9, 0xe6, 0x40, 0xbd, 0xa4, 0xfc, 0xc1,
  0x3d, 0xf4, 0x94, 0x21, 0x3e, 0x65, 0x0f, 0x14, 0x3e, 0xad, 0x69, 0xa4, 0x3d,
  0x2d, 0xb9, 0x3f, 0xbe, 0xb1, 0xf2, 0xff, 0x3b, 0x25, 0x9a, 0x32, 0x3e, 0x5c,
  0xf9, 0x0e, 0xbd, 0x6e, 0x32, 0x42, 0xbd, 0x8c, 0xde, 0x2a, 0x3d, 0x1c, 0x7f,
  0xa6, 0x3d, 0xcc, 0x51, 0x5a, 0x3e, 0x31, 0x32, 0x4b, 0x3d, 0xfb, 0xab, 0xdb,
  0x3d, 0x9d, 0x32, 0x50, 0xbd, 0x2f, 0xaa, 0x82, 0xbd, 0xdd, 0x72, 0x98, 0xbd,
  0x4d, 0x6f, 0x9b, 0x3d, 0xdf, 0x8b, 0xa7, 0x3c, 0xf2, 0x2b, 0x3b, 0xbe, 0x48,
  0xd0, 0xfd, 0x3c, 0x58, 0xa2, 0x2d, 0xbd, 0x2a, 0xf4, 0x22, 0x3c, 0x95, 0x6f,
  0x35, 0xbd, 0x3b, 0xd4, 0xae, 0xbc, 0x31, 0x15, 0xe2, 0xba, 0x85, 0x0b, 0x52,
  0x3d, 0xb8, 0x75, 0x2e, 0x3d, 0x35, 0xcb, 0xc1, 0x3c, 0x3e, 0xc6, 0x9b, 0xbd,
  0x1b, 0x95, 0x56, 0xbd, 0xea, 0xa3, 0xdf, 0x3a, 0x4f, 0x37, 0xba, 0xbc, 0xcc,
  0x7c, 0xa0, 0x3d, 0xaf, 0xac, 0x09, 0x3e, 0xa5, 0xbb, 0x38, 0xbd, 0x71, 0xdd,
  0x55, 0xbd, 0xe1, 0xd1, 0xc9, 0xbd, 0x6a, 0x80, 0xa6, 0xbd, 0xa7, 0x07, 0x87,
  0xbd, 0x99, 0x5a, 0xbf, 0xbd, 0xda, 0xac, 0xfd, 0x3d, 0xd8, 0x6e, 0x0b, 0x3e,
  0xb9, 0x68, 0xb7, 0xbc, 0x1a, 0xdc, 0xfa, 0x37, 0xb9, 0x26, 0x23, 0x3d, 0x12,
  0x50, 0x21, 0x3d, 0x08, 0x58, 0x5e, 0xbc, 0xf6, 0x57, 0xbb, 0xbd, 0xaa, 0x13,
  0x8f, 0x3d, 0x79, 0x81, 0x95, 0x3d, 0x54, 0x57, 0x04, 0x3e, 0x14, 0xc4, 0x82,
  0x3b, 0x9e, 0xe0, 0xfb, 0xbd, 0x6a, 0xcb, 0x1b, 0x3e, 0x65, 0x16, 0x48, 0xbd,
  0xb5, 0x15, 0xb4, 0xbe, 0x88, 0x39, 0x5b, 0x3e, 0xf7, 0x86, 0x24, 0x3e, 0x0a,
  0xc3, 0x11, 0xbd, 0x9c, 0x30, 0xff, 0xbd, 0xf9, 0xc5, 0x9a, 0xbd, 0x29, 0xf0,
  0xb1, 0x3d, 0x33, 0xef, 0x24, 0xbe, 0x40, 0x2b, 0x7b, 0x3e, 0x70, 0xbe, 0xc4,
  0x3e, 0xd3, 0x2c, 0xd0, 0xbd, 0x0d, 0x81, 0x0a, 0xbd, 0xd3, 0x76, 0x38, 0x3e,
  0x91, 0x8a, 0xa7, 0x3d, 0x32, 0x1f, 0xf6, 0x3d, 0x24, 0xb4, 0xdb, 0x3d, 0xdf,
  0xac, 0x08, 0x3c, 0x1a, 0x09, 0x54, 0x3e, 0x2f, 0xab, 0x62, 0xbe, 0x4c, 0x3a,
  0xa5, 0xbd, 0x6e, 0x9a, 0x34, 0xbe, 0x4b, 0x6b, 0x1e, 0x3e, 0x48, 0x54, 0x0a,
  0xbd, 0xd1, 0x32, 0x5d, 0xbc, 0x1c, 0x64, 0xea, 0xbd, 0xd2, 0x2f, 0x4b, 0x3e,
  0xc4, 0xea, 0x93, 0xbe, 0x23, 0xfe, 0xc2, 0xbd, 0xf0, 0xf9, 0xb2, 0xbe, 0xf2,
  0x68, 0x9d, 0xbe, 0xe1, 0xd1, 0xad, 0xbe, 0x48, 0xff, 0x50, 0xbe, 0x51, 0xac,
  0xf9, 0xbb, 0x0e, 0xfd, 0x63, 0xbe, 0x96, 0x87, 0xff, 0x3e, 0xd6, 0x0c, 0xa4,
  0xbe, 0x2d, 0x89, 0xbf, 0x3d, 0x62, 0x15, 0xe5, 0x3d, 0xb3, 0x40, 0xeb, 0xbc,
  0x42, 0xff, 0x97, 0x3d, 0x17, 0xe1, 0x3c, 0xbe, 0xb8, 0x5d, 0xb6, 0x3d, 0x6d,
  0x0d, 0xf4, 0xbc, 0x87, 0x57, 0x6c, 0xbe, 0x6c, 0x76, 0x06, 0xbe, 0xa5, 0x9c,
  0x8e, 0xbd, 0xad, 0xa6, 0x8b, 0xbd, 0xd9, 0x5c, 0xdd, 0xbc, 0x8e, 0x63, 0x0d,
  0x3e, 0x9d, 0x32, 0xd3, 0xbd, 0xd1, 0x3d, 0x6f, 0x3e, 0x44, 0x02, 0xb6, 0xbd,
  0xd1, 0x3d, 0x8d, 0x3c, 0xd0, 0xca, 0xb6, 0x3d, 0x75, 0xd8, 0x76, 0xbc, 0x22,
  0x3c, 0x95, 0xbd, 0xe2, 0x4b, 0x91, 0x3c, 0xd2, 0xf1, 0x22, 0xbd, 0xdb, 0x48,
  0x04, 0x3e, 0x7c, 0x4e, 0x32, 0x3e, 0x6d, 0xab, 0x8a, 0xbd, 0x8d, 0xa8, 0xfd,
  0xbd, 0x68, 0x5a, 0x11, 0xbe, 0xe0, 0xba, 0x2c, 0xbd, 0x1f, 0x6a, 0xdd, 0xbd,
  0x1b, 0x0a, 0x31, 0x3e, 0x36, 0xf9, 0xa8, 0xbd, 0xc4, 0x36, 0x7d, 0x3e, 0xeb,
  0x72, 0x55, 0x3e, 0xef, 0x1f, 0x0f, 0x3e, 0x8b, 0xaf, 0x07, 0x3e, 0xcb, 0x11,
  0x1a, 0x3d, 0xc1, 0x9c, 0x76, 0xbc, 0x9c, 0xcc, 0x8f, 0x3e, 0x80, 0xbc, 0x5a,
  0xbc, 0x80, 0x8e, 0xa7, 0xbd, 0x68, 0x85, 0x72, 0xbe, 0xd1, 0xe2, 0x5f, 0xbe,
  0xa5, 0xc9, 0x0e, 0xbe, 0x7c, 0xc0, 0x16, 0x3d, 0xe3, 0x7b, 0xf5, 0x3d, 0x1e,
  0x50, 0xcb, 0x3c, 0x01, 0xb5, 0x4a, 0x3e, 0x6c, 0x6e, 0x56, 0x3e, 0xeb, 0x19,
  0xaa, 0xbd, 0xc5, 0x2b, 0x21, 0x3c, 0x4f, 0x1b, 0xfb, 0xbd, 0x7a, 0xff, 0x9b,
  0xbe, 0x6b, 0xda, 0xa6, 0x3d, 0xfe, 0xdc, 0xc2, 0x3e, 0x39, 0xb8, 0xfe, 0x3c,
  0x7c, 0x2d, 0xf0, 0x3d, 0x88, 0x2a, 0x01, 0x3d, 0xf6, 0x56, 0xaf, 0x3c, 0xd8,
  0xb1, 0x9b, 0xbc, 0xe2, 0x97, 0x73, 0xbe, 0x38, 0xd3, 0xf7, 0x3d, 0x92, 0x49,
  0x20, 0x3e, 0x5b, 0x00, 0x8d, 0x3d, 0x8b, 0x5a, 0x5a, 0xbc, 0xf5, 0x66, 0x34,
  0xbe, 0xcd, 0x85, 0x49, 0x3d, 0x33, 0xec, 0xce, 0xbe, 0x65, 0x84, 0x90, 0xbe,
  0x1d, 0x7f, 0x23, 0xbe, 0xeb, 0x0b, 0x41, 0x3e, 0xcf, 0xde, 0xe5, 0xbd, 0x28,
  0x1b, 0x2f, 0xbd, 0xad, 0xb5, 0x58, 0xbd, 0x26, 0xa2, 0x03, 0x3f, 0x9b, 0x5f,
  0xc9, 0xbc, 0xe0, 0x49, 0x0d, 0x3e, 0xb2, 0x04, 0x99, 0x3e, 0x4a, 0x47, 0x85,
  0xbd, 0x8d, 0xa5, 0x13, 0x3e, 0x6e, 0xa8, 0x74, 0xbe, 0x91, 0x6c, 0x0a, 0x3e,
  0x85, 0x1a, 0xac, 0xb8, 0xb3, 0x1f, 0x3a, 0x3e, 0xbf, 0xde, 0x48, 0x3e, 0x71,
  0xb0, 0x19, 0x3c, 0x5e, 0x7a, 0xc6, 0xbd, 0x28, 0x90, 0x2d, 0xbe, 0x69, 0xcb,
  0xb9, 0xbe, 0x38, 0x3f, 0x76, 0xbe, 0xa4, 0x2a, 0x78, 0xbe, 0xc8, 0xfe, 0x7f,
  0xbd, 0x2c, 0xfe, 0x3e, 0xbe, 0xeb, 0xaf, 0x24, 0x3e, 0xb5, 0x76, 0x2f, 0x3e,
  0x18, 0x3d, 0x47, 0xbd, 0x60, 0xf5, 0xb3, 0x3c, 0x3b, 0xc4, 0x1b, 0x3d, 0xae,
  0x6b, 0xea, 0xbd, 0x9c, 0x82, 0x80, 0x3d, 0x30, 0x4d, 0x0b, 0x3c, 0x95, 0x18,
  0x42, 0x3e, 0x35, 0x5c, 0x27, 0x3e, 0xfd, 0xfd, 0x7c, 0xbd, 0x05, 0x0b, 0x52,
  0xbe, 0x6e, 0xee, 0x53, 0xbc, 0xd4, 0xde, 0xb5, 0x3d, 0x82, 0x38, 0x8f, 0xbd,
  0x29, 0x65, 0xe7, 0x3d, 0xc0, 0x6e, 0xb6, 0xbd, 0x41, 0x13, 0xa7, 0x3e, 0xba,
  0xe6, 0x1d, 0x3d, 0x2c, 0x0c, 0x09, 0xbe, 0x82, 0x01, 0x15, 0xbd, 0x2b, 0x92,
  0xdd, 0x3d, 0xde, 0xed, 0x98, 0x3c, 0x33, 0x3f, 0x33, 0x3e, 0xdb, 0x1f, 0xa5,
  0xbd, 0x63, 0xc0, 0x1a, 0x3e, 0xfc, 0x4f, 0x88, 0xbd, 0x83, 0x69, 0x90, 0xbd,
  0x9f, 0xe3, 0x06, 0xbe, 0x9e, 0xc5, 0x8d, 0xbd, 0x37, 0x2d, 0x25, 0xbd, 0xc7,
  0xf9, 0x1b, 0x3e, 0x08, 0x19, 0xff, 0xbd, 0xda, 0x74, 0x29, 0xbe, 0xc6, 0x93,
  0x9d, 0x3d, 0x5a, 0xb1, 0x2e, 0x3e, 0xb0, 0xe9, 0xc0, 0xbd, 0xba, 0x20, 0x3e,
  0xbe, 0x39, 0x92, 0x25, 0xbe, 0x3c, 0x7f, 0x64, 0x3d, 0x6d, 0xb7, 0x45, 0xbe,
  0xce, 0xee, 0xff, 0xbd, 0x2a, 0xe6, 0xca, 0x3d, 0x00, 0xc1, 0xc1, 0xbc, 0xae,
  0x26, 0x17, 0xbe, 0x23, 0x1c, 0x96, 0xbd, 0x91, 0xc6, 0x00, 0xbe, 0x77, 0xa0,
  0x90, 0x3d, 0x5f, 0x88, 0x7b, 0xbe, 0x23, 0xb4, 0x32, 0xbe, 0x96, 0x7d, 0x46,
  0x3e, 0xf3, 0x58, 0x4a, 0x3d, 0x8a, 0xc4, 0x02, 0xbe, 0xfb, 0x99, 0x07, 0xbf,
  0x1e, 0x8c, 0x30, 0x3e, 0x8e, 0xf4, 0x9e, 0x3d, 0xf5, 0xd1, 0x4c, 0x3d, 0x63,
  0xc9, 0x45, 0xbe, 0x26, 0xd4, 0x24, 0x3f, 0xf0, 0xb0, 0x14, 0xbd, 0xd0, 0x33,
  0xe2, 0xbb, 0x1d, 0x24, 0x73, 0x3d, 0x5c, 0x27, 0x64, 0xbe, 0x2a, 0x0b, 0x9c,
  0x3d, 0x46, 0xca, 0xa1, 0xbe, 0x15, 0x54, 0x1c, 0x3e, 0xb3, 0xa4, 0xe2, 0x3d,
  0x94, 0xf6, 0xee, 0xbc, 0x68, 0x99, 0x73, 0x3e, 0xf9, 0x3a, 0x29, 0x3e, 0x78,
  0x6d, 0x58, 0xbe, 0x6a, 0x99, 0x24, 0xbd, 0x47, 0xf2, 0xb9, 0xbd, 0xf0, 0xec,
  0xa5, 0x3d, 0x74, 0x4d, 0x87, 0xbe, 0x20, 0x11, 0xb3, 0x3e, 0x0e, 0x1f, 0x16,
  0xbd, 0xa3, 0x8a, 0xea, 0xbd, 0x46, 0xef, 0xb0, 0x3d, 0xa6, 0x69, 0x4e, 0x3d,
  0x55, 0xff, 0x2e, 0xbe, 0xd1, 0x96, 0x04, 0xbd, 0x3d, 0x55, 0x1a, 0xbe, 0xf6,
  0xe0, 0x5e, 0xbe, 0x6c, 0x4b, 0x8c, 0xbc, 0xfd, 0x47, 0x51, 0xbc, 0x3b, 0x61,
  0x02, 0x3e, 0x9f, 0x66, 0x49, 0x3e, 0xa6, 0x6f, 0x52, 0x3e, 0x6a, 0xb3, 0x22,
  0xbe, 0x0a, 0xf1, 0xfb, 0xbd, 0x37, 0xf0, 0x09, 0xbe, 0x39, 0x1c, 0x9a, 0x3d,
  0x68, 0xd7, 0xdb, 0x3e, 0x3e, 0x62, 0xa8, 0x3e, 0x29, 0x84, 0x0f, 0x3e, 0xbb,
  0xcf, 0xa2, 0x3d, 0x25, 0x69, 0x75, 0xbd, 0x23, 0x55, 0xa2, 0xbe, 0xd3, 0xdc,
  0x5b, 0xbd, 0xd3, 0xbe, 0x7e, 0xbd, 0x0b, 0xa4, 0x69, 0xbe, 0xde, 0x1c, 0xe0,
  0xbd, 0x7c, 0x56, 0xf4, 0x3d, 0x02, 0x08, 0x11, 0xbe, 0x6e, 0x92, 0xde, 0xbc,
  0xde, 0xf9, 0x2b, 0x3e, 0x26, 0xf0, 0x0c, 0xbe, 0xc6, 0x46, 0x24, 0xbe, 0x95,
  0xac, 0x14, 0x3e, 0x5a, 0xc2, 0x96, 0xbd, 0xf2, 0x62, 0x29, 0x3e, 0x1f, 0x7f,
  0x82, 0xbd, 0x8f, 0x28, 0x4f, 0x3e, 0xae, 0x69, 0x43, 0x3e, 0x09, 0x44, 0xb0,
  0x3d, 0x11, 0xbd, 0x63, 0xbe, 0xdb, 0x58, 0x5f, 0x3e, 0x75, 0x95, 0xea, 0xbd,
  0x80, 0x6f, 0x22, 0xbe, 0xa0, 0xe5, 0xb8, 0xbd, 0xdd, 0x48, 0x7a, 0x3e, 0x2f,
  0x9c, 0xe9, 0x3d, 0xd8, 0x52, 0x93, 0xbe, 0xfa, 0xcf, 0xc1, 0x3e, 0x8f, 0xfe,
  0x62, 0x3e, 0x6e, 0x0b, 0x37, 0x3e, 0xee, 0xe7, 0x84, 0xbe, 0xb5, 0x5b, 0xff,
  0x3e, 0x6c, 0x93, 0xa1, 0xbc, 0xf5, 0x98, 0xda, 0xbd, 0xf2, 0xda, 0xb2, 0xbe,
  0x1d, 0x93, 0x1a, 0x3e, 0xfd, 0x8e, 0x6c, 0xbc, 0xf4, 0x88, 0xce, 0x3d, 0x7c,
  0x8d, 0x13, 0x3e, 0xd6, 0xec, 0x9c, 0x3d, 0x2b, 0x8b, 0x5c, 0x3e, 0xec, 0xca,
  0xfc, 0x3d, 0xbe, 0xed, 0x1e, 0xbd, 0xa0, 0xbb, 0xb0, 0xbe, 0x5f, 0xd4, 0x08,
  0xbe, 0x47, 0xb4, 0x21, 0xbe, 0x19, 0x4f, 0x99, 0xbd, 0x2f, 0x49, 0x7a, 0xbe,
  0x9b, 0x4b, 0xf6, 0x3d, 0x5e, 0x6c, 0x1f, 0xbc, 0x96, 0x3d, 0x16, 0x3e, 0x5b,
  0x30, 0x78, 0xbd, 0xab, 0x15, 0x45, 0xbe, 0x94, 0xf3, 0x49, 0xbe, 0x41, 0x4e,
  0xe1, 0xbd, 0xd1, 0x88, 0x3f, 0x3e, 0x61, 0x06, 0x32, 0x3d, 0xec, 0x16, 0x27,
  0xbe, 0xc5, 0x42, 0x4c, 0xbd, 0x4e, 0x9f, 0x1c, 0xbe, 0xf9, 0x86, 0x1b, 0xbe,
  0x7b, 0x37, 0xac, 0x3d, 0x89, 0x40, 0xe2, 0xbd, 0xda, 0xc2, 0xd6, 0xbc, 0x92,
  0x1e, 0xc3, 0xbd, 0x30, 0x11, 0x11, 0x3e, 0x4c, 0x3e, 0xf7, 0x3e, 0x6a, 0x5c,
  0x91, 0xbc, 0xff, 0x93, 0xf6, 0x3d, 0x61, 0x14, 0x80, 0x3c, 0x86, 0xa8, 0x4d,
  0x3d, 0x1c, 0x4b, 0xda, 0x3d, 0x38, 0xcc, 0xdc, 0xbd, 0x20, 0xd3, 0x39, 0x3e,
  0x38, 0x1a, 0xa2, 0x3d, 0x90, 0xdb, 0x2c, 0x3e, 0x67, 0x81, 0x91, 0xbd, 0x45,
  0xee, 0x59, 0x3e, 0xaf, 0x6e, 0x08, 0x3e, 0x7a, 0x48, 0x13, 0x3e, 0x3f, 0xca,
  0x0b, 0x3e, 0x0f, 0xd6, 0x93, 0xbd, 0x01, 0x46, 0x15, 0xbb, 0x1a, 0xe7, 0x0e,
  0xbe, 0xed, 0x34, 0x88, 0x3d, 0x04, 0xc9, 0xd8, 0xbd, 0x28, 0x9d, 0x5f, 0xbe,
  0xd2, 0x03, 0x80, 0x3d, 0x01, 0x84, 0x94, 0x3e, 0xc8, 0xb3, 0x11, 0xbe, 0x95,
  0x50, 0x80, 0x3c, 0x19, 0x92, 0xc5, 0x3d, 0x11, 0x95, 0x95, 0x3e, 0x3e, 0xd5,
  0x60, 0xbe, 0xf5, 0x96, 0x88, 0xbe, 0x8b, 0xa1, 0x69, 0x3d, 0xd9, 0xe3, 0xfe,
  0xbd, 0xd7, 0x01, 0x2a, 0xbe, 0xfa, 0x6a, 0xe8, 0x3d, 0x60, 0x3b, 0x1b, 0xbe,
  0x09, 0x2f, 0x39, 0x3e, 0x0c, 0xb2, 0x9e, 0xbd, 0x24, 0x41, 0x98, 0x3c, 0x44,
  0xe1, 0x74, 0xbe, 0x47, 0x23, 0x85, 0x3e, 0x15, 0x2e, 0xbf, 0x3d, 0x02, 0x92,
  0xf7, 0x3d, 0xb7, 0xab, 0xa7, 0x3e, 0x52, 0x51, 0x6a, 0xbc, 0xd6, 0x7d, 0xd5,
  0x3d, 0xe8, 0xe3, 0x08, 0x3e, 0x74, 0x07, 0x33, 0xbe, 0x44, 0xfe, 0x06, 0x3e,
  0x0d, 0x0e, 0xe5, 0xbc, 0xa6, 0x65, 0x96, 0xbd, 0x15, 0xd8, 0xf1, 0x3d, 0x30,
  0x98, 0x75, 0x3d, 0xdd, 0x6a, 0x94, 0xbe, 0xc3, 0x98, 0x8a, 0xbe, 0xad, 0xd1,
  0xa1, 0xbe, 0xe2, 0x5a, 0x03, 0xbe, 0xde, 0x0d, 0x64, 0x3d, 0x35, 0xc4, 0x28,
  0xbe, 0x3d, 0x3a, 0x12, 0xbe, 0x30, 0xdd, 0x7b, 0xbd, 0x46, 0x3f, 0x4e, 0x3e,
  0xfc, 0x40, 0x02, 0x3e, 0xe6, 0x8c, 0x5d, 0xbd, 0x8d, 0x30, 0x4a, 0x3e, 0x68,
  0xa2, 0x58, 0xbe, 0xc9, 0xa9, 0x4b, 0xbe, 0xa9, 0x6a, 0xdf, 0x3d, 0x96, 0x51,
  0x20, 0xbc, 0x0a, 0x50, 0xfc, 0xbd, 0x59, 0xac, 0x9f, 0x3c, 0x3d, 0xc8, 0x8e,
  0x3e, 0x06, 0xdf, 0x27, 0x3e, 0xe8, 0xca, 0x6c, 0x3e, 0x6c, 0xcc, 0x36, 0x3e,
  0xa3, 0x63, 0xf2, 0x3d, 0x26, 0x13, 0xce, 0xbc, 0xaf, 0x40, 0x6f, 0x3d, 0x64,
  0x1c, 0x4d, 0x3d, 0x4e, 0x2c, 0x59, 0xbe, 0x4b, 0x23, 0x11, 0xbd, 0x88, 0x47,
  0xe9, 0xba, 0x89, 0x3e, 0x6f, 0xbe, 0xb7, 0xcb, 0xf6, 0xbb, 0x24, 0x12, 0x6f,
  0xbe, 0xea, 0xdb, 0x1c, 0xbe, 0x2d, 0xbc, 0x80, 0xbe, 0x8c, 0x9c, 0x40, 0x3b,
  0x74, 0x0f, 0x06, 0x3c, 0x9e, 0xbb, 0x04, 0x3e, 0x77, 0xfc, 0x82, 0x3d, 0x30,
  0xfd, 0x2b, 0xbe, 0xc7, 0xba, 0x18, 0xbd, 0xa4, 0xc3, 0x94, 0xbd, 0x17, 0xa0,
  0x72, 0x3d, 0xa3, 0x9d, 0x3b, 0x3e, 0x83, 0x0e, 0xbb, 0xbd, 0xac, 0x63, 0x74,
  0x3e, 0x2c, 0x05, 0xef, 0x3d, 0x0e, 0x6c, 0x08, 0xbe, 0x48, 0x4b, 0x19, 0x3d,
  0xc0, 0x57, 0x43, 0xbe, 0xc1, 0x7e, 0x14, 0xbb, 0xae, 0x62, 0x27, 0x3e, 0x9d,
  0x47, 0x11, 0x3e, 0x2c, 0x3a, 0x04, 0x3e, 0xe2, 0xbc, 0x89, 0x3e, 0x81, 0x55,
  0x9d, 0xbe, 0x1d, 0x31, 0x80, 0xbe, 0xbb, 0xc1, 0xba, 0xb9, 0x92, 0x7a, 0x42,
  0x3d, 0x40, 0x58, 0x5c, 0x3e, 0x30, 0x48, 0x57, 0x3e, 0x7e, 0x63, 0xa8, 0x3e,
  0xfa, 0x3d, 0x98, 0x3d, 0xcc, 0x84, 0x38, 0xbe, 0x44, 0xbc, 0x81, 0x3e, 0xb4,
  0xce, 0x33, 0xbd, 0xf6, 0x9b, 0x5a, 0x3d, 0x64, 0x9e, 0xc3, 0x3c, 0x15, 0x36,
  0xb1, 0xbb, 0x2d, 0x5c, 0x23, 0xbe, 0x1d, 0x86, 0x49, 0xbd, 0xa2, 0xb5, 0xa1,
  0x3c, 0x59, 0x6e, 0x75, 0xbd, 0x66, 0xe0, 0xd5, 0xbd, 0xc4, 0x5a, 0xee, 0xbd,
  0x11, 0x79, 0x49, 0xbe, 0x55, 0x8a, 0xab, 0x3d, 0xc9, 0x9f, 0x8c, 0x3d, 0xef,
  0x94, 0x25, 0x3c, 0x41, 0x58, 0xd2, 0x3d, 0x31, 0xb9, 0xbc, 0xbd, 0x23, 0xac,
  0x32, 0xbe, 0x4b, 0xf6, 0x33, 0xbe, 0x36, 0x6d, 0x36, 0xbe, 0xdf, 0xcf, 0xfe,
  0x3c, 0xc0, 0x78, 0x0a, 0x3d, 0xd1, 0xf1, 0xf4, 0x3d, 0x12, 0x95, 0x4c, 0x3d,
  0x53, 0x07, 0x05, 0xbd, 0xac, 0x6d, 0xae, 0xbd, 0x6f, 0xa7, 0xfa, 0x3b, 0xb2,
  0x0f, 0x79, 0x3a, 0x0c, 0xd4, 0x7c, 0x3d, 0x6f, 0x82, 0x8f, 0xbc, 0xf0, 0x83,
  0x8c, 0x3c, 0x52, 0xcd, 0x55, 0xbd, 0xf1, 0xb7, 0xd8, 0xbc, 0xdf, 0x61, 0x3c,
  0x3c, 0x0b, 0x8f, 0x4e, 0x0b, 0x2f, 0x6a, 0xdf, 0x0a, 0x05, 0xc3, 0x3d, 0x8b,
  0x57, 0xbb, 0x36, 0x8b, 0x3e, 0x12, 0x23, 0x0b, 0x2e, 0x44, 0x37, 0x8b, 0x29,
  0xe6, 0x39, 0x8b, 0x48, 0xc3, 0x52, 0x8b, 0x4d, 0x3b, 0x53, 0x8b, 0x1c, 0x60,
  0x4d, 0x8b, 0xe3, 0xd1, 0x50, 0x8b, 0x36, 0x13, 0x50, 0x8b, 0x76, 0x48, 0x51,
  0x8b, 0x8c, 0xac, 0x4b, 0x8b, 0x43, 0xa9, 0x47, 0x8b, 0xca, 0xe2, 0x48, 0x8b,
  0xc6, 0x2d, 0x4e, 0x8b, 0x6e, 0x9e, 0x46, 0x8b, 0x68, 0x64, 0x48, 0x8b, 0x1a,
  0x7e, 0x4c, 0x8b, 0xb8, 0xbf, 0x49, 0x8b, 0xb4, 0xce, 0x46, 0x8b, 0x42, 0x92,
  0x46, 0x8b, 0x6b, 0x14, 0x4f, 0x8b, 0x99, 0x7d, 0x54, 0x8b, 0xb5, 0x92, 0x48,
  0x8b, 0x13, 0xe9, 0x4c, 0x8b, 0x8d, 0xf8, 0x4d, 0x8b, 0xbe, 0xcf, 0x4b, 0x8b,
  0x09, 0x11, 0x49, 0x8b, 0xf6, 0xf5, 0x4c, 0x8b, 0xe8, 0x60, 0x4c, 0x8b, 0x0b,
  0x28, 0x47, 0x8b, 0xc1, 0x5c, 0x4b, 0x8b, 0x67, 0xe8, 0x4e, 0x8b, 0x76, 0x17,
  0x52, 0x8b, 0xfe, 0x50, 0x4e, 0x8b, 0x89, 0x1e, 0x9e, 0x3e, 0x0d, 0xb1, 0x81,
  0xbe, 0x41, 0xb0, 0x0d, 0x3b, 0xd9, 0xa8, 0x8c, 0xbd, 0xd5, 0x08, 0x5e, 0xbe,
  0x80, 0xe9, 0x16, 0x3f, 0x6c, 0x91, 0x99, 0xbe, 0x63, 0x35, 0x57, 0x3e, 0x90,
  0x01, 0xe2, 0xbc, 0x44, 0xcf, 0x84, 0x3d, 0xad, 0x27, 0xa3, 0x3c, 0xbe, 0x2a,
  0xe3, 0x3d, 0x1d, 0x40, 0xbf, 0x3c, 0x9c, 0xc4, 0xf4, 0xbd, 0xde, 0x03, 0x00,
  0x3e, 0x7f, 0xb6, 0x44, 0xbe, 0xe1, 0x7e, 0x38, 0xbd, 0xc7, 0x4c, 0xb7, 0x3d,
  0xf4, 0xd3, 0x1b, 0x3e, 0xa3, 0xce, 0x5c, 0xbe, 0x3c, 0x74, 0x82, 0xbd, 0x60,
  0xb5, 0x4e, 0xbe, 0xc3, 0x17, 0x69, 0xbd, 0xb4, 0x14, 0x2d, 0x3d, 0xff, 0x6b,
  0x5a, 0xbc, 0xbe, 0xe6, 0x3d, 0xbe, 0x10, 0x77, 0x97, 0x3d, 0x5b, 0x7b, 0xd1,
  0xbd, 0xd6, 0xd8, 0xa3, 0x3d, 0x85, 0xf0, 0x26, 0x3d, 0x2d, 0x33, 0xda, 0xbd,
  0x29, 0xb5, 0x03, 0xbe, 0x55, 0x3c, 0x33, 0x3c, 0x69, 0x1e, 0x3c, 0xbe, 0xdb,
  0x62, 0x7c, 0xbe, 0x85, 0xb1, 0x9e, 0x3d, 0xd4, 0x2c, 0x42, 0x3e, 0xae, 0xf8,
  0x7e, 0x3b, 0x93, 0x2e, 0x9a, 0x3b, 0xe4, 0xaf, 0xe7, 0x3a, 0xe4, 0xb4, 0xc2,
  0x3a, 0x80, 0xfe, 0xb8, 0x3a, 0xb7, 0x05, 0xf6, 0xbb, 0xff, 0xf4, 0xd8, 0x3b,
  0x2a, 0x90, 0x01, 0xbb, 0xc9, 0x5d, 0x15, 0xbb, 0xa7, 0x62, 0x56, 0x39, 0x43,
  0xd6, 0x4f, 0xba, 0xfa, 0x5d, 0x2a, 0x3a, 0x70, 0x70, 0x11, 0x3a, 0x56, 0x8c,
  0x14, 0xba, 0x96, 0x1e, 0x01, 0xbb, 0xc3, 0xf3, 0x7a, 0xbb, 0x35, 0xf6, 0x84,
  0xbb, 0x48, 0xa0, 0x32, 0xbb, 0x20, 0x30, 0xdf, 0xba, 0x46, 0xc3, 0x0e, 0xbc,
  0x9e, 0x3e, 0xed, 0xbb, 0xd4, 0xd2, 0x2a, 0x3b, 0x44, 0x90, 0x19, 0x3b, 0x1c,
  0x37, 0x68, 0xbb, 0xa4, 0x86, 0x68, 0xbb, 0xd3, 0xf5, 0x26, 0xba, 0x76, 0xe7,
  0xf5, 0xb9, 0x8f, 0x0f, 0x20, 0xbc, 0xb9, 0x18, 0xf4, 0xbb, 0x2a, 0x00, 0x9c,
  0x3b, 0x7d, 0x42, 0xa5, 0x3b, 0x56, 0x51, 0x96, 0xbb, 0x2b, 0x5c, 0x8f, 0xbb,
  0xa2, 0x43, 0x33, 0x3a, 0x29, 0xb5, 0xad, 0x3a, 0xa8, 0x59, 0x17, 0xbc, 0xab,
  0x59, 0xe9, 0xbb, 0xf4, 0x73, 0x64, 0x3b, 0xc3, 0x2a, 0x0a, 0xbb, 0x0b, 0xf1,
  0xdb, 0x3d, 0x70, 0x1d, 0x47, 0xbe, 0x29, 0x38, 0xb6, 0x3d, 0x22, 0x2a, 0x56,
  0x3e, 0x21, 0xae, 0x41, 0xbd, 0x98, 0x10, 0x90, 0xbe, 0xe8, 0xff, 0x2d, 0xbe,
  0xd5, 0x3c, 0xf3, 0xbc, 0x89, 0x1f, 0x1d, 0xbe, 0xd5, 0x9e, 0x8c, 0x3c, 0x56,
  0xe7, 0xa5, 0xbd, 0xe3, 0xfa, 0x1a, 0xbe, 0x25, 0xd8, 0x0e, 0xbe, 0x3b, 0xa9,
  0x95, 0xbe, 0xf9, 0x60, 0x37, 0xbe, 0xca, 0x73, 0x5c, 0x3d, 0x58, 0xde, 0x8c,
  0xbd, 0xf6, 0xbb, 0x58, 0x3e, 0xf9, 0x0e, 0x0a, 0x3e, 0x00, 0x43, 0x46, 0xbe,
  0x34, 0x25, 0x74, 0xbe, 0xc7, 0xba, 0xab, 0xbe, 0xc0, 0x0d, 0x8a, 0xbe, 0xdd,
  0xd6, 0xae, 0x3d, 0x88, 0xf5, 0xa7, 0x3d, 0x5c, 0x46, 0xa8, 0xbd, 0x3e, 0x6d,
  0xa0, 0xbc, 0x2a, 0x56, 0x07, 0xbc, 0x79, 0xaa, 0xd7, 0x3d, 0xa2, 0xfa, 0xae,
  0x3d, 0x08, 0x9c, 0x9b, 0x3d, 0x97, 0x18, 0x54, 0x3e, 0x5d, 0xec, 0x89, 0x3d,
  0xfb, 0x59, 0x39, 0x3e, 0x37, 0xe5, 0x5d, 0x3c, 0x10, 0x36, 0x99, 0xbe, 0x22,
  0xe4, 0x6f, 0xbe, 0xb5, 0xfd, 0x7b, 0x3d, 0x04, 0x88, 0x29, 0xbd, 0x5c, 0xbd,
  0x41, 0xbd, 0x5f, 0x14, 0xcc, 0xbe, 0xe1, 0x75, 0x2b, 0xbf, 0x15, 0xa2, 0xab,
  0x3d, 0x3c, 0x0c, 0x81, 0x3e, 0x9a, 0xd6, 0x25, 0xbe, 0x46, 0x18, 0xb9, 0xbd,
  0x13, 0x3b, 0x70, 0x3d, 0xab, 0x1b, 0xd0, 0x3d, 0x30, 0x8c, 0x7d, 0xbd, 0x3f,
  0x02, 0x9a, 0xbc, 0xa5, 0x2a, 0xfa, 0xbc, 0x78, 0x1a, 0xd5, 0xbc, 0x21, 0xf8,
  0xeb, 0x3d, 0xb5, 0xb8, 0xc8, 0x3e, 0x40, 0xbc, 0x2c, 0xbd, 0x75, 0xeb, 0x88,
  0x3e, 0x96, 0x75, 0x76, 0x3e, 0xdb, 0xe0, 0xef, 0x3d, 0x1a, 0x8a, 0x18, 0xbd,
  0x90, 0x0c, 0x13, 0xbd, 0x6c, 0x14, 0x8e, 0x3e, 0x67, 0x22, 0xf1, 0xbc, 0x21,
  0xdb, 0xf3, 0xbc, 0x6c, 0x75, 0xaa, 0xbd, 0x70, 0xa4, 0xc7, 0x3d, 0x12, 0x20,
  0x23, 0xbe, 0x4a, 0xf1, 0xc9, 0x3d, 0x28, 0x94, 0xec, 0xbd, 0xfb, 0xea, 0xc3,
  0x3d, 0x8a, 0x09, 0x30, 0xbe, 0x8c, 0x46, 0xde, 0xbd, 0xc8, 0xe8, 0xc8, 0x3d,
  0xaa, 0xda, 0x20, 0x3e, 0xa3, 0xba, 0x9c, 0xbd, 0x6e, 0xa4, 0xbf, 0x3d, 0x29,
  0xff, 0x6d, 0xbd, 0x90, 0x6f, 0x2f, 0x3d, 0xdf, 0x07, 0xaa, 0x3d, 0x2d, 0x67,
  0xb6, 0xbe, 0x05, 0x3d, 0xd3, 0xbd, 0xd7, 0x94, 0x98, 0x3d, 0x46, 0x64, 0xe2,
  0x3d, 0xb6, 0x6a, 0x74, 0xbc, 0x66, 0x63, 0x35, 0x3e, 0xee, 0xeb, 0x17, 0x3e,
  0x2f, 0x9e, 0x28, 0xbd, 0xdc, 0x91, 0xb6, 0xbd, 0x2c, 0xdb, 0x7a, 0xbc, 0x75,
  0x8e, 0x6e, 0xbd, 0x15, 0x7e, 0xad, 0x3d, 0xb2, 0x8a, 0xe6, 0xbd, 0x6a, 0xde,
  0x1e, 0xbe, 0xaa, 0x9e, 0x28, 0xbe, 0x77, 0xb4, 0x89, 0xbd, 0x34, 0x2c, 0x79,
  0xbe, 0x7a, 0xae, 0x2b, 0xbe, 0xc7, 0x05, 0x92, 0x3d, 0x57, 0x78, 0x40, 0xbb,
  0x39, 0xa7, 0x55, 0xbd, 0x7a, 0xf7, 0xa0, 0xbe, 0x5e, 0xce, 0xff, 0xbc, 0x74,
  0x18, 0x4c, 0x3e, 0xbc, 0xb7, 0x9c, 0x3d, 0xb3, 0xca, 0x69, 0xbd, 0x27, 0x16,
  0xa2, 0x3c, 0xe7, 0xe3, 0x0b, 0x3e, 0xc2, 0x07, 0x02, 0xbe, 0xbe, 0xca, 0x9e,
  0x3e, 0xb4, 0xc5, 0xc3, 0x3d, 0x0a, 0x5a, 0xc1, 0x3e, 0x45, 0x85, 0x11, 0xbe,
  0xe5, 0x2e, 0x21, 0x3e, 0x12, 0x00, 0x98, 0x3d, 0x3c, 0x7a, 0xdf, 0xbb, 0x86,
  0xc7, 0x96, 0x3d, 0x07, 0x24, 0x8a, 0x3c, 0xfc, 0x37, 0x49, 0xbe, 0x39, 0x63,
  0x1a, 0xbe, 0x15, 0x5a, 0x1c, 0x3e, 0x21, 0xce, 0x5f, 0xbd, 0xfe, 0x87, 0x3d,
  0x3e, 0x2e, 0x30, 0x84, 0xbd, 0x48, 0x3a, 0x60, 0xbd, 0x54, 0x9a, 0x36, 0x3d,
  0xce, 0x9f, 0xdf, 0xbd, 0x58, 0x45, 0xeb, 0xbd, 0x54, 0x39, 0xfb, 0xbd, 0xc6,
  0x01, 0x8c, 0xbd, 0x36, 0xce, 0x5d, 0xbe, 0x10, 0xc4, 0xc0, 0x3c, 0xa4, 0xed,
  0x08, 0xbb, 0xb7, 0x2a, 0xae, 0x3d, 0xc9, 0x79, 0x82, 0x3c, 0x63, 0xbc, 0x17,
  0xbe, 0x6b, 0x2b, 0x94, 0xbe, 0x22, 0x4a, 0x8a, 0xbe, 0x85, 0xdf, 0x35, 0xbe,
  0x0b, 0x56, 0xa4, 0xbe, 0x16, 0x2e, 0x89, 0x3e, 0x53, 0x19, 0x45, 0x3e, 0x3b,
  0x2e, 0x82, 0x3e, 0xe6, 0xbf, 0x83, 0x3e, 0xea, 0x27, 0x59, 0x3e, 0xf2, 0xf2,
  0x79, 0x3e, 0xff, 0xe0, 0x54, 0xbe, 0xa1, 0x64, 0x24, 0x3d, 0xaa, 0x81, 0xcd,
  0x3e, 0x9c, 0xf2, 0x81, 0x3d, 0xfe, 0xcf, 0x2f, 0x3d, 0x4d, 0xef, 0x48, 0x3e,
  0xbb, 0xd1, 0x06, 0xbe, 0xfe, 0xb0, 0x34, 0x3d, 0xe8, 0xd8, 0x94, 0x3c, 0x92,
  0xc4, 0xc3, 0xbd, 0x9e, 0x24, 0xbd, 0xbe, 0x30, 0x69, 0x4b, 0xbe, 0xa8, 0x7c,
  0x26, 0xbe, 0x84, 0xfa, 0x94, 0x3d, 0xe2, 0xa8, 0xdd, 0xbd, 0x78, 0xa1, 0x99,
  0x3d, 0xad, 0xee, 0x0d, 0x3c, 0x99, 0x19, 0x15, 0x3d, 0xf7, 0x42, 0xd3, 0x3d,
  0xb4, 0x1b, 0x86, 0xbd, 0x76, 0x4d, 0x4c, 0xbd, 0x4c, 0xbf, 0x3d, 0x3d, 0xea,
  0xc1, 0x0a, 0x3d, 0xbc, 0xf4, 0x38, 0xbe, 0xf6, 0x81, 0xf5, 0xbd, 0x8f, 0x8e,
  0xf4, 0x3c, 0xcf, 0xad, 0x0a, 0xbe, 0xb3, 0x73, 0xc2, 0xbd, 0xef, 0x06, 0x1d,
  0x3d, 0xf7, 0x19, 0x4a, 0x3d, 0x11, 0xba, 0x75, 0x3d, 0x17, 0x78, 0x96, 0x3d,
  0xc4, 0xa3, 0x5c, 0x3e, 0xd7, 0xf3, 0xf6, 0xbd, 0x4a, 0x58, 0x01, 0xbe, 0xf7,
  0x12, 0x12, 0x3e, 0xe0, 0xa3, 0x2c, 0x3e, 0x95, 0x50, 0x50, 0x3c, 0xb9, 0xa8,
  0x3a, 0x3b, 0xfa, 0xe2, 0xc9, 0x3b, 0xec, 0x1d, 0xa1, 0xbe, 0xc8, 0x25, 0x67,
  0x3e, 0xb4, 0xf1, 0x4d, 0x3e, 0x72, 0x3a, 0x59, 0xbd, 0xe5, 0xd5, 0x52, 0x3c,
  0x20, 0x3b, 0x02, 0xbf, 0x0c, 0xf5, 0x34, 0x3e, 0x41, 0xe7, 0x25, 0x3d, 0x4f,
  0xd0, 0x44, 0x3e, 0x7a, 0x2b, 0xec, 0xbc, 0x2a, 0x54, 0x1a, 0x3e, 0x1b, 0xd3,
  0x70, 0x3e, 0x03, 0xb8, 0x19, 0xbd, 0x11, 0xf5, 0x40, 0x3e, 0x4d, 0x80, 0xe5,
  0xbd, 0x0b, 0xec, 0xbf, 0x3d, 0x03, 0x8c, 0x70, 0x3d, 0x7b, 0x38, 0x05, 0xbe,
  0xe7, 0x61, 0x55, 0xbe, 0x7e, 0xd4, 0x2a, 0x3e, 0x5f, 0x34, 0x13, 0x3d, 0x3a,
  0x3b, 0xfb, 0xbd, 0x49, 0x90, 0xad, 0xbb, 0x00, 0x38, 0x3d, 0xbe, 0x30, 0xac,
  0xc5, 0x3d, 0x71, 0x6a, 0x81, 0xbe, 0x8b, 0x40, 0x78, 0xbe, 0x99, 0x33, 0x40,
  0xbe, 0x9e, 0x58, 0x48, 0xbc, 0x8a, 0x44, 0x65, 0xbe, 0x8e, 0x05, 0x5f, 0xbc,
  0x8c, 0x17, 0xd6, 0xbd, 0x5a, 0x51, 0x85, 0x3d, 0xdd, 0x5a, 0x23, 0xbe, 0xb8,
  0xcf, 0x95, 0x3e, 0xf2, 0xaf, 0x91, 0x3e, 0x04, 0xce, 0xc5, 0x3d, 0x26, 0xb6,
  0x0c, 0xbe, 0x29, 0x64, 0xf1, 0x3c, 0xa7, 0x78, 0xae, 0xbd, 0xf7, 0x2c, 0x00,
  0xbe, 0xd4, 0x54, 0x02, 0x3e, 0x12, 0x2d, 0x1a, 0xbe, 0x8a, 0xe1, 0x18, 0x3e,
  0x0e, 0xfb, 0xf8, 0x3d, 0xb1, 0x51, 0xb4, 0x3d, 0xb8, 0x90, 0xd7, 0xbd, 0xdd,
  0xba, 0x0c, 0x3b, 0xba, 0xba, 0xa1, 0xbe, 0x2f, 0x7b, 0x5f, 0x3d, 0xff, 0xc7,
  0x6e, 0x3e, 0x7a, 0x2f, 0xb0, 0xbd, 0x59, 0x7b, 0x2d, 0x3e, 0xfc, 0xd8, 0xb0,
  0xbe, 0x4d, 0x0a, 0xb4, 0xbe, 0xec, 0x8e, 0x36, 0xbe, 0xac, 0x21, 0xff, 0xbd,
  0xf1, 0x13, 0xc4, 0xbd, 0x0a, 0x95, 0x0b, 0xbc, 0x52, 0xcd, 0x04, 0x3e, 0xa5,
  0xcf, 0x7a, 0x3c, 0x4b, 0x56, 0x21, 0xbc, 0xe4, 0xf0, 0xa1, 0x3c, 0x02, 0xe6,
  0xfc, 0xbd, 0x95, 0x89, 0x79, 0xbe, 0x7d, 0x8b, 0x45, 0xb9, 0xd5, 0x49, 0xc9,
  0xbd, 0xe5, 0x62, 0x1e, 0x3d, 0x64, 0xc3, 0x02, 0x3e, 0x3d, 0x18, 0x8b, 0x3d,
  0x8a, 0x9a, 0xc0, 0x3d, 0x29, 0x12, 0x1b, 0x3e, 0x34, 0x56, 0xf3, 0x3c, 0x34,
  0x29, 0x07, 0xbd, 0xbd, 0x9b, 0xce, 0x3c, 0x4f, 0x95, 0x80, 0x3d, 0x6f, 0x8d,
  0x9b, 0x3d, 0x8d, 0x42, 0x3a, 0xbe, 0x3e, 0xd5, 0xb3, 0xbd, 0xe6, 0x80, 0x62,
  0xbd, 0x8e, 0x7b, 0x55, 0x3e, 0x84, 0x03, 0x9e, 0xbd, 0xaa, 0x26, 0x2f, 0x3d,
  0xb0, 0x3b, 0x68, 0x3e, 0xf9, 0x84, 0xdf, 0x3c, 0xc9, 0x8a, 0x09, 0xbe, 0x2b,
  0xf7, 0x57, 0x3e, 0x8d, 0xc6, 0x09, 0x3d, 0x37, 0xcd, 0x86, 0x3e, 0xab, 0x49,
  0x3d, 0xbd, 0x32, 0x4d, 0xfe, 0xbd, 0x11, 0x6b, 0xd6, 0xbd, 0x67, 0xc6, 0x5f,
  0xbc, 0xc0, 0x27, 0xbb, 0xbd, 0xaf, 0xed, 0xf0, 0x3d, 0x30, 0x83, 0xbb, 0x3e,
  0xa3, 0x3c, 0x3f, 0x3e, 0xc6, 0x12, 0xd0, 0x3d, 0x70, 0x76, 0x82, 0xbc, 0x25,
  0x16, 0xc8, 0x3c, 0x1a, 0x72, 0xbb, 0x3c, 0x0e, 0xd6, 0x61, 0xbd, 0x7c, 0x4a,
  0x7b, 0xbe, 0x31, 0x20, 0xfa, 0xbd, 0x31, 0x88, 0x1c, 0x3c, 0xcb, 0x34, 0x5c,
  0x3e, 0x43, 0x77, 0xdc, 0x3c, 0xac, 0xe2, 0x12, 0xbb, 0x8d, 0x53, 0xee, 0x3d,
  0xc0, 0xd3, 0x47, 0xbe, 0xae, 0x61, 0xaa, 0x3e, 0x5d, 0x35, 0x0a, 0x3d, 0x9b,
  0x99, 0x41, 0xbb, 0xbf, 0xd1, 0x77, 0xbe, 0x86, 0xc3, 0x9e, 0x3d, 0xa4, 0xb9,
  0xfd, 0x3c, 0xcb, 0xf0, 0x11, 0x3f, 0xca, 0x27, 0x23, 0xbe, 0xea, 0xc8, 0xe6,
  0xbd, 0xa6, 0xee, 0x41, 0x3e, 0x91, 0x5a, 0x89, 0xbe, 0xe9, 0xa0, 0x94, 0xbd,
  0x5d, 0xa4, 0x95, 0x3e, 0xa2, 0xb6, 0xe3, 0x3d, 0x6b, 0x08, 0x40, 0x3e, 0x65,
  0x8e, 0xec, 0xbd, 0xc3, 0x4e, 0xa9, 0x3e, 0x72, 0xa9, 0x8d, 0xbe, 0x83, 0x16,
  0x02, 0x3e, 0x7e, 0x06, 0xca, 0xbd, 0xdf, 0xbf, 0x28, 0x3e, 0x63, 0x35, 0x5f,
  0x3e, 0x18, 0x7a, 0x00, 0x3e, 0x4f, 0xa2, 0x22, 0xbc, 0xb7, 0x89, 0x0c, 0xbb,
  0x0a, 0xba, 0xf0, 0xbd, 0xdd, 0x29, 0x0c, 0x3c, 0xa3, 0x0f, 0x5f, 0xbe, 0x15,
  0x96, 0x67, 0xbe, 0x7e, 0x07, 0xbc, 0xbd, 0x8c, 0x35, 0x7f, 0xbd, 0x0b, 0x1f,
  0xdf, 0x3d, 0x86, 0xc4, 0xa4, 0xbd, 0x0b, 0xd7, 0x47, 0xbe, 0x7d, 0x37, 0x47,
  0xbe, 0xd7, 0xf7, 0x2f, 0x3e, 0x2c, 0xaf, 0xd9, 0x3c, 0xc6, 0x37, 0xe1, 0x3d,
  0xc7, 0x19, 0x45, 0x3c, 0xbf, 0x4e, 0x6f, 0x3c, 0x64, 0x63, 0x8f, 0xbd, 0xf9,
  0xfb, 0xd3, 0x3d, 0x43, 0xd0, 0xc8, 0x3d, 0xf2, 0xa2, 0x26, 0x3d, 0x5a, 0xe6,
  0x56, 0x3d, 0xa7, 0x2d, 0x0e, 0x3e, 0x0a, 0xa9, 0xe9, 0x3d, 0x46, 0xd9, 0x42,
  0x3e, 0xb3, 0x39, 0xe5, 0xbc, 0x1f, 0x3b, 0x29, 0xbd, 0x39, 0x67, 0xef, 0xbc,
  0x97, 0xc2, 0xee, 0xbb, 0xd1, 0xa2, 0xda, 0xbb, 0x66, 0x9e, 0xc3, 0x3b, 0x65,
  0x0e, 0x72, 0x3c, 0x50, 0x76, 0x47, 0xbd, 0xf0, 0x62, 0x12, 0xbf, 0x24, 0xf0,
  0x12, 0xbf, 0x30, 0xa4, 0x9c, 0x3d, 0x6b, 0xb2, 0x8c, 0x3d, 0xba, 0x27, 0xd6,
  0xbd, 0x23, 0x95, 0xb9, 0xbd, 0x64, 0x4d, 0x33, 0x3c, 0x52, 0x5b, 0x5d, 0xbc,
  0x62, 0xf9, 0x8a, 0xbe, 0x17, 0xa7, 0x9f, 0xbe, 0x57, 0x0f, 0xa6, 0x3c, 0x21,
  0xb3, 0xe1, 0x3c, 0x84, 0xe1, 0x79, 0xbc, 0x60, 0x83, 0x96, 0xbd, 0x59, 0xda,
  0x1d, 0x3e, 0x76, 0xfe, 0xd0, 0x3d, 0xb6, 0xf9, 0xcf, 0x3c, 0x8e, 0xdd, 0x9d,
  0xbd, 0x90, 0x52, 0x3a, 0xbd, 0xfc, 0x0f, 0xb2, 0x3e, 0x83, 0x6e, 0x3b, 0x3d,
  0x1e, 0xf2, 0xc7, 0xbd, 0x81, 0xcc, 0x17, 0x3d, 0x56, 0xb2, 0x13, 0x3e, 0xad,
  0x44, 0x09, 0x3f, 0x14, 0xfd, 0x7b, 0x3b, 0x5b, 0xcc, 0xaf, 0xbd, 0x2c, 0x36,
  0x4d, 0xbe, 0x1a, 0x00, 0x5b, 0xbc, 0xf5, 0x5a, 0x2e, 0xbd, 0x0d, 0x61, 0x2b,
  0x3d, 0xa9, 0x3d, 0x33, 0xbd, 0x98, 0xe5, 0xf5, 0x3c, 0xaa, 0xef, 0x6f, 0xbd,
  0x5e, 0x1c, 0xbc, 0x3c, 0x32, 0xc9, 0x4a, 0x3e, 0x59, 0x4a, 0xea, 0x3d, 0xcb,
  0x59, 0x7f, 0x3e, 0xfb, 0x64, 0x08, 0x3d, 0x60, 0x61, 0x40, 0xbe, 0x4b, 0xf1,
  0x51, 0xbe, 0x85, 0xb8, 0x2c, 0x3e, 0x5f, 0xc7, 0x9d, 0x3d, 0xac, 0x3e, 0xed,
  0xbd, 0x4b, 0xcf, 0xb0, 0x3d, 0x5e, 0xb2, 0xd2, 0x3d, 0xf9, 0xc8, 0x4d, 0xbe,
  0xa5, 0xc7, 0x1e, 0xbe, 0x22, 0x9e, 0x0a, 0xbd, 0xfa, 0x83, 0xa4, 0xbd, 0x12,
  0x8e, 0x10, 0xbe, 0xca, 0x6d, 0x36, 0xbd, 0x5e, 0x77, 0x3d, 0x3e, 0x55, 0x3e,
  0x8f, 0xbe, 0x88, 0xab, 0x12, 0xbb, 0xd2, 0x35, 0x47, 0x3e, 0x1d, 0x44, 0x6b,
  0xbe, 0x1b, 0x75, 0x18, 0xbe, 0xd0, 0x14, 0xda, 0x3c, 0xb1, 0x88, 0x12, 0xbe,
  0xea, 0xdc, 0xaf, 0xbe, 0x7e, 0xb1, 0xa5, 0x3e, 0xda, 0x8f, 0xda, 0x3c, 0x0a,
  0x73, 0x91, 0xbc, 0x92, 0x03, 0xca, 0x3d, 0xfa, 0x4c, 0x14, 0xbe, 0xe2, 0x74,
  0x48, 0x3e, 0x2c, 0x8f, 0xad, 0x3e, 0x14, 0xad, 0x1d, 0xbe, 0x84, 0x89, 0xd0,
  0xbd, 0x26, 0xb3, 0x26, 0xbe, 0xa8, 0x9b, 0xcc, 0x3d, 0x54, 0xaa, 0x1d, 0x3e,
  0x59, 0xbc, 0x4e, 0x3e, 0x3a, 0x8c, 0x09, 0xbe, 0xc3, 0xda, 0x08, 0x3e, 0x7e,
  0xf8, 0x36, 0xbe, 0x83, 0x53, 0xd9, 0x3d, 0xc7, 0xd7, 0x7b, 0xbe, 0xe4, 0x9a,
  0x39, 0xbd, 0x6f, 0xb7, 0x6f, 0xbd, 0x77, 0xcb, 0xd5, 0xbd, 0x42, 0x48, 0x87,
  0xbe, 0xca, 0x49, 0x11, 0xbe, 0x1e, 0x65, 0x81, 0xbe, 0x52, 0xc9, 0x27, 0x3e,
  0xbd, 0xd5, 0xc1, 0x3d, 0x0a, 0x2f, 0x8b, 0x3e, 0xc0, 0xc2, 0x60, 0xbc, 0xca,
  0xbf, 0x1e, 0x3e, 0x8a, 0xf4, 0x4c, 0x3c, 0x78, 0x22, 0xfe, 0xbd, 0xb5, 0x98,
  0xa1, 0x3d, 0xc9, 0xfa, 0xba, 0xbd, 0x80, 0x66, 0xac, 0xbc, 0x2e, 0xbf, 0x8c,
  0x3e, 0x5d, 0xc0, 0xa3, 0x3e, 0x78, 0x63, 0xd3, 0xbe, 0x35, 0xfd, 0x84, 0x3e,
  0x93, 0x53, 0x90, 0xbc, 0x69, 0xe2, 0x43, 0xbd, 0x9b, 0x3f, 0xbd, 0xbd, 0x5c,
  0x0d, 0xd2, 0xbd, 0xf6, 0xf3, 0x07, 0xbe, 0x0a, 0xda, 0x9a, 0xbd, 0x25, 0xd5,
  0xae, 0xbd, 0x72, 0x91, 0x3a, 0x3e, 0xc1, 0xdb, 0x12, 0x3e, 0x2e, 0x71, 0xc2,
  0x3d, 0x23, 0xe7, 0xba, 0x3b, 0xde, 0x86, 0xf7, 0x3d, 0x3f, 0xcf, 0x7a, 0x3e,
  0x0a, 0xa5, 0x18, 0x3e, 0x78, 0xdd, 0x0f, 0x3d, 0x31, 0xea, 0xe9, 0xbd, 0x3d,
  0x39, 0x07, 0xbe, 0x5c, 0x4f, 0x2b, 0xbe, 0x3e, 0x38, 0x51, 0x3e, 0xc4, 0x66,
  0xf2, 0xbd, 0x95, 0x01, 0xeb, 0x3d, 0xa5, 0x69, 0x3d, 0xbc, 0x71, 0x32, 0x35,
  0xbd, 0x90, 0x83, 0x4f, 0x3d, 0x15, 0xaf, 0x3a, 0xbe, 0xe4, 0x6a, 0x34, 0xbc,
  0x7a, 0x84, 0xa8, 0x3c, 0xe1, 0xc1, 0x50, 0x3d, 0x15, 0xc8, 0x5e, 0xbb, 0x30,
  0x01, 0x7a, 0x3d, 0xa2, 0xff, 0xff, 0xff, 0x04, 0x00, 0x00, 0x00, 0x04, 0x00,
  0x00, 0x00, 0x26, 0x6b, 0x81, 0x3c, 0xb2, 0xff, 0xff, 0xff, 0x04, 0x00, 0x00,
  0x00, 0x40, 0x00, 0x00, 0x00, 0x98, 0x5d, 0xba, 0x3c, 0x7e, 0x17, 0x27, 0xbd,
  0x3a, 0xbe, 0x25, 0xbd, 0xe8, 0xbf, 0xbd, 0xbd, 0xc4, 0x57, 0x37, 0x3d, 0x7e,
  0x60, 0x5d, 0xbe, 0x50, 0xfb, 0x56, 0xbd, 0x6b, 0x46, 0xa1, 0x3c, 0x05, 0xfe,
  0x0a, 0x3d, 0x77, 0xd5, 0x36, 0x3d, 0x43, 0xb0, 0x41, 0x3d, 0x14, 0x0f, 0x74,
  0xbe, 0x01, 0xe6, 0x0b, 0x3d, 0x83, 0xcd, 0x5b, 0xbe, 0xad, 0xcd, 0x6c, 0x3d,
  0x57, 0x59, 0x27, 0xbc, 0x00, 0x00, 0x06, 0x00, 0x08, 0x00, 0x04, 0x00, 0x06,
  0x00, 0x00, 0x00, 0x04, 0x00, 0x00, 0x00, 0x80, 0x00, 0x00, 0x00, 0x68, 0x0c,
  0x92, 0x3c, 0x33, 0x72, 0xab, 0x3c, 0xe7, 0x7e, 0x3c, 0xbe, 0x9c, 0xae, 0x92,
  0xbd, 0xfa, 0xa1, 0x93, 0xbd, 0x5c, 0xb3, 0x9c, 0xbe, 0x13, 0x7d, 0x2d, 0x3e,
  0x8d, 0x25, 0x19, 0xbe, 0x77, 0x8c, 0x94, 0xbe, 0x33, 0x4d, 0x9d, 0xbe, 0x77,
  0xf8, 0x5a, 0xbe, 0x45, 0x47, 0x58, 0xbe, 0x0b, 0x3a, 0x90, 0xbd, 0xbf, 0x7c,
  0x1e, 0x3e, 0x1c, 0x2f, 0x4b, 0x3d, 0x3b, 0xd4, 0xad, 0x3c, 0x56, 0x6e, 0x93,
  0xbd, 0xce, 0x17, 0x48, 0xbe, 0x27, 0xc8, 0x6e, 0x3d, 0x8b, 0xbb, 0xeb, 0x3d,
  0x92, 0xd8, 0x90, 0x3d, 0xef, 0x53, 0x73, 0x3c, 0x6a, 0x6d, 0x35, 0xbd, 0xb9,
  0x2e, 0x36, 0x3c, 0xfd, 0x31, 0xc5, 0xbd, 0x2f, 0xd0, 0xa1, 0xbe, 0x87, 0xd6,
  0xc3, 0xbc, 0x1d, 0xd7, 0x61, 0xbe, 0x38, 0x22, 0xcd, 0x3d, 0x3b, 0x4c, 0xc2,
  0x3d, 0x66, 0xd4, 0x30, 0xbe, 0xb9, 0x10, 0x5c, 0xbd, 0xe8, 0xf9, 0xff, 0xff,
  0xec, 0xf9, 0xff, 0xff, 0x0f, 0x00, 0x00, 0x00, 0x4d, 0x4c, 0x49, 0x52, 0x20,
  0x43, 0x6f, 0x6e, 0x76, 0x65, 0x72, 0x74, 0x65, 0x64, 0x2e, 0x00, 0x01, 0x00,
  0x00, 0x00, 0x14, 0x00, 0x00, 0x00, 0x00, 0x00, 0x0e, 0x00, 0x18, 0x00, 0x14,
  0x00, 0x10, 0x00, 0x0c, 0x00, 0x08, 0x00, 0x04, 0x00, 0x0e, 0x00, 0x00, 0x00,
  0x14, 0x00, 0x00, 0x00, 0x1c, 0x00, 0x00, 0x00, 0x08, 0x01, 0x00, 0x00, 0x0c,
  0x01, 0x00, 0x00, 0x10, 0x01, 0x00, 0x00, 0x04, 0x00, 0x00, 0x00, 0x6d, 0x61,
  0x69, 0x6e, 0x00, 0x00, 0x00, 0x00, 0x04, 0x00, 0x00, 0x00, 0xb0, 0x00, 0x00,
  0x00, 0x68, 0x00, 0x00, 0x00, 0x34, 0x00, 0x00, 0x00, 0x10, 0x00, 0x00, 0x00,
  0x00, 0x00, 0x0a, 0x00, 0x10, 0x00, 0x0c, 0x00, 0x08, 0x00, 0x04, 0x00, 0x0a,
  0x00, 0x00, 0x00, 0x0c, 0x00, 0x00, 0x00, 0x10, 0x00, 0x00, 0x00, 0x01, 0x00,
  0x00, 0x00, 0x01, 0x00, 0x00, 0x00, 0x0a, 0x00, 0x00, 0x00, 0x01, 0x00, 0x00,
  0x00, 0x09, 0x00, 0x00, 0x00, 0x9a, 0xff, 0xff, 0xff, 0x10, 0x00, 0x00, 0x00,
  0x00, 0x00, 0x00, 0x08, 0x0c, 0x00, 0x00, 0x00, 0x10, 0x00, 0x00, 0x00, 0x94,
  0xfa, 0xff, 0xff, 0x01, 0x00, 0x00, 0x00, 0x09, 0x00, 0x00, 0x00, 0x03, 0x00,
  0x00, 0x00, 0x08, 0x00, 0x00, 0x00, 0x06, 0x00, 0x00, 0x00, 0x03, 0x00, 0x00,
  0x00, 0xca, 0xff, 0xff, 0xff, 0x10, 0x00, 0x00, 0x00, 0x00, 0x00, 0x00, 0x08,
  0x10, 0x00, 0x00, 0x00, 0x14, 0x00, 0x00, 0x00, 0xba, 0xff, 0xff, 0xff, 0x00,
  0x00, 0x00, 0x03, 0x01, 0x00, 0x00, 0x00, 0x08, 0x00, 0x00, 0x00, 0x03, 0x00,
  0x00, 0x00, 0x07, 0x00, 0x00, 0x00, 0x05, 0x00, 0x00, 0x00, 0x02, 0x00, 0x00,
  0x00, 0x00, 0x00, 0x0e, 0x00, 0x16, 0x00, 0x00, 0x00, 0x10, 0x00, 0x0c, 0x00,
  0x0b, 0x00, 0x04, 0x00, 0x0e, 0x00, 0x00, 0x00, 0x18, 0x00, 0x00, 0x00, 0x00,
  0x00, 0x00, 0x08, 0x18, 0x00, 0x00, 0x00, 0x1c, 0x00, 0x00, 0x00, 0x00, 0x00,
  0x06, 0x00, 0x08, 0x00, 0x07, 0x00, 0x06, 0x00, 0x00, 0x00, 0x00, 0x00, 0x00,
  0x03, 0x01, 0x00, 0x00, 0x00, 0x07, 0x00, 0x00, 0x00, 0x03, 0x00, 0x00, 0x00,
  0x00, 0x00, 0x00, 0x00, 0x04, 0x00, 0x00, 0x00, 0x01, 0x00, 0x00, 0x00, 0x01,
  0x00, 0x00, 0x00, 0x0a, 0x00, 0x00, 0x00, 0x01, 0x00, 0x00, 0x00, 0x00, 0x00,
  0x00, 0x00, 0x0b, 0x00, 0x00, 0x00, 0x94, 0x04, 0x00, 0x00, 0x1c, 0x04, 0x00,
  0x00, 0xa4, 0x03, 0x00, 0x00, 0x40, 0x03, 0x00, 0x00, 0xec, 0x02, 0x00, 0x00,
  0x98, 0x02, 0x00, 0x00, 0x40, 0x02, 0x00, 0x00, 0x98, 0x01, 0x00, 0x00, 0xf0,
  0x00, 0x00, 0x00, 0x60, 0x00, 0x00, 0x00, 0x04, 0x00, 0x00, 0x00, 0xae, 0xfb,
  0xff, 0xff, 0x00, 0x00, 0x00, 0x01, 0x14, 0x00, 0x00, 0x00, 0x1c, 0x00, 0x00,
  0x00, 0x1c, 0x00, 0x00, 0x00, 0x0b, 0x00, 0x00, 0x00, 0x34, 0x00, 0x00, 0x00,
  0x02, 0x00, 0x00, 0x00, 0xff, 0xff, 0xff, 0xff, 0x01, 0x00, 0x00, 0x00, 0x98,
  0xfb, 0xff, 0xff, 0x19, 0x00, 0x00, 0x00, 0x53, 0x74, 0x61, 0x74, 0x65, 0x66,
  0x75, 0x6c, 0x50, 0x61, 0x72, 0x74, 0x69, 0x74, 0x69, 0x6f, 0x6e, 0x65, 0x64,
  0x43, 0x61, 0x6c, 0x6c, 0x3a, 0x30, 0x00, 0x00, 0x00, 0x02, 0x00, 0x00, 0x00,
  0x01, 0x00, 0x00, 0x00, 0x01, 0x00, 0x00, 0x00, 0x06, 0xfc, 0xff, 0xff, 0x00,
  0x00, 0x00, 0x01, 0x14, 0x00, 0x00, 0x00, 0x1c, 0x00, 0x00, 0x00, 0x1c, 0x00,
  0x00, 0x00, 0x0a, 0x00, 0x00, 0x00, 0x68, 0x00, 0x00, 0x00, 0x02, 0x00, 0x00,
  0x00, 0xff, 0xff, 0xff, 0xff, 0x01, 0x00, 0x00, 0x00, 0xf0, 0xfb, 0xff, 0xff,
  0x4c, 0x00, 0x00, 0x00, 0x41, 0x56, 0x32, 0x5f, 0x50, 0x61, 0x72, 0x74, 0x69,
  0x74, 0x69, 0x6f, 0x6e, 0x5f, 0x44, 0x4e, 0x4e, 0x2f, 0x6f, 0x75, 0x74, 0x70,
  0x75, 0x74, 0x5f, 0x6c, 0x61, 0x79, 0x65, 0x72, 0x2f, 0x4d, 0x61, 0x74, 0x4d,
  0x75, 0x6c, 0x3b, 0x41, 0x56, 0x32, 0x5f, 0x50, 0x61, 0x72, 0x74, 0x69, 0x74,
  0x69, 0x6f, 0x6e, 0x5f, 0x44, 0x4e, 0x4e, 0x2f, 0x6f, 0x75, 0x74, 0x70, 0x75,
  0x74, 0x5f, 0x6c, 0x61, 0x79, 0x65, 0x72, 0x2f, 0x42, 0x69, 0x61, 0x73, 0x41,
  0x64, 0x64, 0x00, 0x00, 0x00, 0x00, 0x02, 0x00, 0x00, 0x00, 0x01, 0x00, 0x00,
  0x00, 0x01, 0x00, 0x00, 0x00, 0x92, 0xfc, 0xff, 0xff, 0x00, 0x00, 0x00, 0x01,
  0x14, 0x00, 0x00, 0x00, 0x1c, 0x00, 0x00, 0x00, 0x1c, 0x00, 0x00, 0x00, 0x09,
  0x00, 0x00, 0x00, 0x80, 0x00, 0x00, 0x00, 0x02, 0x00, 0x00, 0x00, 0xff, 0xff,
  0xff, 0xff, 0x10, 0x00, 0x00, 0x00, 0x7c, 0xfc, 0xff, 0xff, 0x67, 0x00, 0x00,
  0x00, 0x41, 0x56, 0x32, 0x5f, 0x50, 0x61, 0x72, 0x74, 0x69, 0x74, 0x69, 0x6f,
  0x6e, 0x5f, 0x44, 0x4e, 0x4e, 0x2f, 0x64, 0x65, 0x6e, 0x73, 0x65, 0x5f, 0x31,
  0x2f, 0x4d, 0x61, 0x74, 0x4d, 0x75, 0x6c, 0x3b, 0x41, 0x56, 0x32, 0x5f, 0x50,
  0x61, 0x72, 0x74, 0x69, 0x74, 0x69, 0x6f, 0x6e, 0x5f, 0x44, 0x4e, 0x4e, 0x2f,
  0x64, 0x65, 0x6e, 0x73, 0x65, 0x5f, 0x31, 0x5f, 0x72, 0x65, 0x6c, 0x75, 0x2f,
  0x52, 0x65, 0x6c, 0x75, 0x36, 0x3b, 0x41, 0x56, 0x32, 0x5f, 0x50, 0x61, 0x72,
  0x74, 0x69, 0x74, 0x69, 0x6f, 0x6e, 0x5f, 0x44, 0x4e, 0x4e, 0x2f, 0x64, 0x65,
  0x6e, 0x73, 0x65, 0x5f, 0x31, 0x2f, 0x42, 0x69, 0x61, 0x73, 0x41, 0x64, 0x64,
  0x00, 0x02, 0x00, 0x00, 0x00, 0x01, 0x00, 0x00, 0x00, 0x10, 0x00, 0x00, 0x00,
  0x36, 0xfd, 0xff, 0xff, 0x00, 0x00, 0x00, 0x01, 0x14, 0x00, 0x00, 0x00, 0x1c,
  0x00, 0x00, 0x00, 0x1c, 0x00, 0x00, 0x00, 0x08, 0x00, 0x00, 0x00, 0x80, 0x00,
  0x00, 0x00, 0x02, 0x00, 0x00, 0x00, 0xff, 0xff, 0xff, 0xff, 0x20, 0x00, 0x00,
  0x00, 0x20, 0xfd, 0xff, 0xff, 0x67, 0x00, 0x00, 0x00, 0x41, 0x56, 0x32, 0x5f,
  0x50, 0x61, 0x72, 0x74, 0x69, 0x74, 0x69, 0x6f, 0x6e, 0x5f, 0x44, 0x4e, 0x4e,
  0x2f, 0x64, 0x65, 0x6e, 0x73, 0x65, 0x5f, 0x30, 0x2f, 0x4d, 0x61, 0x74, 0x4d,
  0x75, 0x6c, 0x3b, 0x41, 0x56, 0x32, 0x5f, 0x50, 0x61, 0x72, 0x74, 0x69, 0x74,
  0x69, 0x6f, 0x6e, 0x5f, 0x44, 0x4e, 0x4e, 0x2f, 0x64, 0x65, 0x6e, 0x73, 0x65,
  0x5f, 0x30, 0x5f, 0x72, 0x65, 0x6c, 0x75, 0x2f, 0x52, 0x65, 0x6c, 0x75, 0x36,
  0x3b, 0x41, 0x56, 0x32, 0x5f, 0x50, 0x61, 0x72, 0x74, 0x69, 0x74, 0x69, 0x6f,
  0x6e, 0x5f, 0x44, 0x4e, 0x4e, 0x2f, 0x64, 0x65, 0x6e, 0x73, 0x65, 0x5f, 0x30,
  0x2f, 0x42, 0x69, 0x61, 0x73, 0x41, 0x64, 0x64, 0x00, 0x02, 0x00, 0x00, 0x00,
  0x01, 0x00, 0x00, 0x00, 0x20, 0x00, 0x00, 0x00, 0x4e, 0xfe, 0xff, 0xff, 0x00,
  0x00, 0x00, 0x01, 0x10, 0x00, 0x00, 0x00, 0x10, 0x00, 0x00, 0x00, 0x07, 0x00,
  0x00, 0x00, 0x34, 0x00, 0x00, 0x00, 0xb4, 0xfd, 0xff, 0xff, 0x25, 0x00, 0x00,
  0x00, 0x41, 0x56, 0x32, 0x5f, 0x50, 0x61, 0x72, 0x74, 0x69, 0x74, 0x69, 0x6f,
  0x6e, 0x5f, 0x44, 0x4e, 0x4e, 0x2f, 0x6f, 0x75, 0x74, 0x70, 0x75, 0x74, 0x5f,
  0x6c, 0x61, 0x79, 0x65, 0x72, 0x2f, 0x4d, 0x61, 0x74, 0x4d, 0x75, 0x6c, 0x00,
  0x00, 0x00, 0x02, 0x00, 0x00, 0x00, 0x01, 0x00, 0x00, 0x00, 0x10, 0x00, 0x00,
  0x00, 0xa2, 0xfe, 0xff, 0xff, 0x00, 0x00, 0x00, 0x01, 0x10, 0x00, 0x00, 0x00,
  0x10, 0x00, 0x00, 0x00, 0x06, 0x00, 0x00, 0x00, 0x30, 0x00, 0x00, 0x00, 0x08,
  0xfe, 0xff, 0xff, 0x20, 0x00, 0x00, 0x00, 0x41, 0x56, 0x32, 0x5f, 0x50, 0x61,
  0x72, 0x74, 0x69, 0x74, 0x69, 0x6f, 0x6e, 0x5f, 0x44, 0x4e, 0x4e, 0x2f, 0x64,
  0x65, 0x6e, 0x73, 0x65, 0x5f, 0x31, 0x2f, 0x4d, 0x61, 0x74, 0x4d, 0x75, 0x6c,
  0x00, 0x00, 0x00, 0x00, 0x02, 0x00, 0x00, 0x00, 0x10, 0x00, 0x00, 0x00, 0x20,
  0x00, 0x00, 0x00, 0xf2, 0xfe, 0xff, 0xff, 0x00, 0x00, 0x00, 0x01, 0x10, 0x00,
  0x00, 0x00, 0x10, 0x00, 0x00, 0x00, 0x05, 0x00, 0x00, 0x00, 0x30, 0x00, 0x00,
  0x00, 0x58, 0xfe, 0xff, 0xff, 0x20, 0x00, 0x00, 0x00, 0x41, 0x56, 0x32, 0x5f,
  0x50, 0x61, 0x72, 0x74, 0x69, 0x74, 0x69, 0x6f, 0x6e, 0x5f, 0x44, 0x4e, 0x4e,
  0x2f, 0x64, 0x65, 0x6e, 0x73, 0x65, 0x5f, 0x30, 0x2f, 0x4d, 0x61, 0x74, 0x4d,
  0x75, 0x6c, 0x00, 0x00, 0x00, 0x00, 0x02, 0x00, 0x00, 0x00, 0x20, 0x00, 0x00,
  0x00, 0x25, 0x00, 0x00, 0x00, 0x42, 0xff, 0xff, 0xff, 0x00, 0x00, 0x00, 0x01,
  0x10, 0x00, 0x00, 0x00, 0x10, 0x00, 0x00, 0x00, 0x04, 0x00, 0x00, 0x00, 0x44,
  0x00, 0x00, 0x00, 0xa8, 0xfe, 0xff, 0xff, 0x35, 0x00, 0x00, 0x00, 0x41, 0x56,
  0x32, 0x5f, 0x50, 0x61, 0x72, 0x74, 0x69, 0x74, 0x69, 0x6f, 0x6e, 0x5f, 0x44,
  0x4e, 0x4e, 0x2f, 0x6f, 0x75, 0x74, 0x70, 0x75, 0x74, 0x5f, 0x6c, 0x61, 0x79,
  0x65, 0x72, 0x2f, 0x42, 0x69, 0x61, 0x73, 0x41, 0x64, 0x64, 0x2f, 0x52, 0x65,
  0x61, 0x64, 0x56, 0x61, 0x72, 0x69, 0x61, 0x62, 0x6c, 0x65, 0x4f, 0x70, 0x00,
  0x00, 0x00, 0x01, 0x00, 0x00, 0x00, 0x01, 0x00, 0x00, 0x00, 0xa2, 0xff, 0xff,
  0xff, 0x00, 0x00, 0x00, 0x01, 0x10, 0x00, 0x00, 0x00, 0x10, 0x00, 0x00, 0x00,
  0x03, 0x00, 0x00, 0x00, 0x40, 0x00, 0x00, 0x00, 0x08, 0xff, 0xff, 0xff, 0x30,
  0x00, 0x00, 0x00, 0x41, 0x56, 0x32, 0x5f, 0x50, 0x61, 0x72, 0x74, 0x69, 0x74,
  0x69, 0x6f, 0x6e, 0x5f, 0x44, 0x4e, 0x4e, 0x2f, 0x64, 0x65, 0x6e, 0x73, 0x65,
  0x5f, 0x31, 0x2f, 0x42, 0x69, 0x61, 0x73, 0x41, 0x64, 0x64, 0x2f, 0x52, 0x65,
  0x61, 0x64, 0x56, 0x61, 0x72, 0x69, 0x61, 0x62, 0x6c, 0x65, 0x4f, 0x70, 0x00,
  0x00, 0x00, 0x00, 0x01, 0x00, 0x00, 0x00, 0x10, 0x00, 0x00, 0x00, 0x00, 0x00,
  0x16, 0x00, 0x18, 0x00, 0x14, 0x00, 0x00, 0x00, 0x10, 0x00, 0x0c, 0x00, 0x08,
  0x00, 0x00, 0x00, 0x00, 0x00, 0x00, 0x00, 0x07, 0x00, 0x16, 0x00, 0x00, 0x00,
  0x00, 0x00, 0x00, 0x01, 0x10, 0x00, 0x00, 0x00, 0x10, 0x00, 0x00, 0x00, 0x02,
  0x00, 0x00, 0x00, 0x40, 0x00, 0x00, 0x00, 0x7c, 0xff, 0xff, 0xff, 0x30, 0x00,
  0x00, 0x00, 0x41, 0x56, 0x32, 0x5f, 0x50, 0x61, 0x72, 0x74, 0x69, 0x74, 0x69,
  0x6f, 0x6e, 0x5f, 0x44, 0x4e, 0x4e, 0x2f, 0x64, 0x65, 0x6e, 0x73, 0x65, 0x5f,
  0x30, 0x2f, 0x42, 0x69, 0x61, 0x73, 0x41, 0x64, 0x64, 0x2f, 0x52, 0x65, 0x61,
  0x64, 0x56, 0x61, 0x72, 0x69, 0x61, 0x62, 0x6c, 0x65, 0x4f, 0x70, 0x00, 0x00,
  0x00, 0x00, 0x01, 0x00, 0x00, 0x00, 0x20, 0x00, 0x00, 0x00, 0x00, 0x00, 0x16,
  0x00, 0x1c, 0x00, 0x18, 0x00, 0x00, 0x00, 0x14, 0x00, 0x10, 0x00, 0x0c, 0x00,
  0x00, 0x00, 0x00, 0x00, 0x08, 0x00, 0x07, 0x00, 0x16, 0x00, 0x00, 0x00, 0x00,
  0x00, 0x00, 0x01, 0x14, 0x00, 0x00, 0x00, 0x20, 0x00, 0x00, 0x00, 0x20, 0x00,
  0x00, 0x00, 0x01, 0x00, 0x00, 0x00, 0x34, 0x00, 0x00, 0x00, 0x02, 0x00, 0x00,
  0x00, 0xff, 0xff, 0xff, 0xff, 0x25, 0x00, 0x00, 0x00, 0x04, 0x00, 0x04, 0x00,
  0x04, 0x00, 0x00, 0x00, 0x17, 0x00, 0x00, 0x00, 0x73, 0x65, 0x72, 0x76, 0x69,
  0x6e, 0x67, 0x5f, 0x64, 0x65, 0x66, 0x61, 0x75, 0x6c, 0x74, 0x5f, 0x69, 0x6e,
  0x70, 0x75, 0x74, 0x3a, 0x30, 0x00, 0x02, 0x00, 0x00, 0x00, 0x01, 0x00, 0x00,
  0x00, 0x25, 0x00, 0x00, 0x00, 0x02, 0x00, 0x00, 0x00, 0x20, 0x00, 0x00, 0x00,
  0x04, 0x00, 0x00, 0x00, 0xf4, 0xff, 0xff, 0xff, 0x0e, 0x00, 0x00, 0x00, 0x00,
  0x00, 0x00, 0x0e, 0x0c, 0x00, 0x0c, 0x00, 0x0b, 0x00, 0x00, 0x00, 0x00, 0x00,
  0x04, 0x00, 0x0c, 0x00, 0x00, 0x00, 0x09, 0x00, 0x00, 0x00, 0x00, 0x00, 0x00,
  0x09
};
// unsigned int a3_qp96_128_160_luma_BLOCK_64X64_intra_tflite_len = 9244;
