/*
 * Copyright (c) 2023, Alliance for Open Media. All rights reserved
 *
 * This source code is subject to the terms of the BSD 2 Clause License and
 * the Alliance for Open Media Patent License 1.0. If the BSD 2 Clause License
 * was not distributed with this source code in the LICENSE file, you can
 * obtain it at www.aomedia.org/license/software. If the Alliance for Open
 * Media Patent License 1.0 was not distributed with this source code in the
 * PATENTS file, you can obtain it at www.aomedia.org/license/patent.
 */
double sms_part_none_prune_tflite_model_bs12_110_mean[] = {
  1.04041272e+01,  -5.07948638e+00, 1.71626311e-02,  3.96386080e-02,
  -3.92626787e+00, 7.74259627e-03,  1.28935720e-02,  -3.92796049e+00,
  7.79991724e-03,  1.28256441e-02,  -3.88996314e+00, 7.80028241e-03,
  1.28208697e-02,  -3.89101885e+00, 7.82211184e-03,  1.27371032e-02,
  4.84592199e+00,  -5.51672064e-02, 4.76018494e+00,  -3.94597721e-02,
  4.75378383e+00,  -4.20395730e-02, 4.75979509e+00,  -4.47647464e-02,
  4.75228356e+00,  -4.64871822e-02, 4.28692265e+00,  2.91542170e+00,
  2.92080803e+00,  2.92243643e+00,  2.92669507e+00,  1.03802476e+01,
  1.02211306e+01,  1.02227194e+01,  1.02156870e+01,  1.02165673e+01,
  -4.53133966e+00, 1.14657968e-02,  2.27805647e-02,  4.85822544e+00,
  -4.47895899e-02, 3.60205357e+00,  9.94304311e+00,  -4.50087529e+00,
  1.14580518e-02,  2.26701726e-02,  4.85634011e+00,  -5.15909501e-02,
  3.60791223e+00,  9.93795503e+00,  -4.67264682e+00, 1.13916780e-02,
  2.21931979e-02,  4.86416661e+00,  -4.45046959e-02, 3.59199639e+00,
  9.92520855e+00,  -4.66614447e+00, 1.14696790e-02,  2.21139301e-02,
  4.85960985e+00,  -4.77850140e-02, 3.59635065e+00,  9.92635354e+00,
  2.70846570e-01,  1.61524241e-01
};

double sms_part_none_prune_tflite_model_bs12_110_std[] = {
  0.03064132, 2.56670826, 0.03203299, 0.02173016, 2.76963078, 0.01856685,
  0.0117152,  2.73084347, 0.01875388, 0.01160003, 2.73379665, 0.01881135,
  0.0116296,  2.69080056, 0.01845215, 0.01149093, 1.077614,   0.54158209,
  1.22444045, 0.58814616, 1.22764119, 0.5910458,  1.22592427, 0.58649071,
  1.22658687, 0.59065203, 1.01491492, 1.01008939, 1.00663306, 1.00659187,
  1.00335492, 0.55431096, 0.63868233, 0.63001433, 0.6302269,  0.6229146,
  2.70236052, 0.02420019, 0.01575044, 1.1100346,  0.56795974, 1.00790781,
  0.58569687, 2.68357021, 0.02381933, 0.01559943, 1.11031267, 0.56562025,
  1.00258868, 0.58113922, 2.71327145, 0.02447092, 0.01515065, 1.10178231,
  0.55389446, 1.00614156, 0.57513733, 2.68236575, 0.02442065, 0.01508975,
  1.10577999, 0.55806301, 1.00412109, 0.57081559, 0.30807914, 0.21169761
};

double sms_part_none_prune_tflite_model_bs12_110_std_inv[] = {
  3.263567e+01, 3.896041e-01, 3.121782e+01, 4.601899e+01, 3.610590e-01,
  5.385943e+01, 8.535919e+01, 3.661872e-01, 5.332230e+01, 8.620667e+01,
  3.657917e-01, 5.315940e+01, 8.598748e+01, 3.716366e-01, 5.419423e+01,
  8.702516e+01, 9.279761e-01, 1.846442e+00, 8.166996e-01, 1.700258e+00,
  8.145703e-01, 1.691916e+00, 8.157111e-01, 1.705057e+00, 8.152704e-01,
  1.693044e+00, 9.853043e-01, 9.900114e-01, 9.934106e-01, 9.934513e-01,
  9.966563e-01, 1.804042e+00, 1.565724e+00, 1.587265e+00, 1.586730e+00,
  1.605356e+00, 3.700469e-01, 4.132199e+01, 6.349029e+01, 9.008728e-01,
  1.760688e+00, 9.921542e-01, 1.707368e+00, 3.726379e-01, 4.198271e+01,
  6.410491e+01, 9.006472e-01, 1.767971e+00, 9.974180e-01, 1.720758e+00,
  3.685588e-01, 4.086483e+01, 6.600377e+01, 9.076203e-01, 1.805398e+00,
  9.938959e-01, 1.738715e+00, 3.728052e-01, 4.094895e+01, 6.627015e+01,
  9.043390e-01, 1.791912e+00, 9.958958e-01, 1.751879e+00, 3.245919e+00,
  4.723719e+00
};

unsigned char sms_part_none_prune_tflite_model_bs12_110[] = {
  0x1c, 0x00, 0x00, 0x00, 0x54, 0x46, 0x4c, 0x33, 0x14, 0x00, 0x20, 0x00, 0x1c,
  0x00, 0x18, 0x00, 0x14, 0x00, 0x10, 0x00, 0x0c, 0x00, 0x00, 0x00, 0x08, 0x00,
  0x04, 0x00, 0x14, 0x00, 0x00, 0x00, 0x1c, 0x00, 0x00, 0x00, 0xd4, 0x00, 0x00,
  0x00, 0x2c, 0x01, 0x00, 0x00, 0x54, 0x0d, 0x00, 0x00, 0x64, 0x0d, 0x00, 0x00,
  0x20, 0x1c, 0x00, 0x00, 0x03, 0x00, 0x00, 0x00, 0x01, 0x00, 0x00, 0x00, 0x04,
  0x00, 0x00, 0x00, 0x3a, 0xf2, 0xff, 0xff, 0x0c, 0x00, 0x00, 0x00, 0x1c, 0x00,
  0x00, 0x00, 0x38, 0x00, 0x00, 0x00, 0x0f, 0x00, 0x00, 0x00, 0x73, 0x65, 0x72,
  0x76, 0x69, 0x6e, 0x67, 0x5f, 0x64, 0x65, 0x66, 0x61, 0x75, 0x6c, 0x74, 0x00,
  0x01, 0x00, 0x00, 0x00, 0x04, 0x00, 0x00, 0x00, 0x48, 0xff, 0xff, 0xff, 0x20,
  0x00, 0x00, 0x00, 0x04, 0x00, 0x00, 0x00, 0x07, 0x00, 0x00, 0x00, 0x64, 0x65,
  0x6e, 0x73, 0x65, 0x5f, 0x37, 0x00, 0x04, 0x00, 0x00, 0x00, 0x58, 0x00, 0x00,
  0x00, 0x3c, 0x00, 0x00, 0x00, 0x20, 0x00, 0x00, 0x00, 0x04, 0x00, 0x00, 0x00,
  0x74, 0xff, 0xff, 0xff, 0x01, 0x00, 0x00, 0x00, 0x04, 0x00, 0x00, 0x00, 0x07,
  0x00, 0x00, 0x00, 0x69, 0x6e, 0x70, 0x75, 0x74, 0x5f, 0x34, 0x00, 0x8c, 0xff,
  0xff, 0xff, 0x02, 0x00, 0x00, 0x00, 0x04, 0x00, 0x00, 0x00, 0x07, 0x00, 0x00,
  0x00, 0x69, 0x6e, 0x70, 0x75, 0x74, 0x5f, 0x33, 0x00, 0xa4, 0xff, 0xff, 0xff,
  0x03, 0x00, 0x00, 0x00, 0x04, 0x00, 0x00, 0x00, 0x07, 0x00, 0x00, 0x00, 0x69,
  0x6e, 0x70, 0x75, 0x74, 0x5f, 0x32, 0x00, 0x1e, 0xf0, 0xff, 0xff, 0x04, 0x00,
  0x00, 0x00, 0x07, 0x00, 0x00, 0x00, 0x69, 0x6e, 0x70, 0x75, 0x74, 0x5f, 0x31,
  0x00, 0x02, 0x00, 0x00, 0x00, 0x34, 0x00, 0x00, 0x00, 0x04, 0x00, 0x00, 0x00,
  0xdc, 0xff, 0xff, 0xff, 0x23, 0x00, 0x00, 0x00, 0x04, 0x00, 0x00, 0x00, 0x13,
  0x00, 0x00, 0x00, 0x43, 0x4f, 0x4e, 0x56, 0x45, 0x52, 0x53, 0x49, 0x4f, 0x4e,
  0x5f, 0x4d, 0x45, 0x54, 0x41, 0x44, 0x41, 0x54, 0x41, 0x00, 0x08, 0x00, 0x0c,
  0x00, 0x08, 0x00, 0x04, 0x00, 0x08, 0x00, 0x00, 0x00, 0x22, 0x00, 0x00, 0x00,
  0x04, 0x00, 0x00, 0x00, 0x13, 0x00, 0x00, 0x00, 0x6d, 0x69, 0x6e, 0x5f, 0x72,
  0x75, 0x6e, 0x74, 0x69, 0x6d, 0x65, 0x5f, 0x76, 0x65, 0x72, 0x73, 0x69, 0x6f,
  0x6e, 0x00, 0x24, 0x00, 0x00, 0x00, 0x24, 0x0c, 0x00, 0x00, 0x1c, 0x0c, 0x00,
  0x00, 0x14, 0x0c, 0x00, 0x00, 0x0c, 0x0c, 0x00, 0x00, 0x04, 0x0c, 0x00, 0x00,
  0xd8, 0x0b, 0x00, 0x00, 0x40, 0x0a, 0x00, 0x00, 0x68, 0x09, 0x00, 0x00, 0xc0,
  0x05, 0x00, 0x00, 0x68, 0x05, 0x00, 0x00, 0xf0, 0x03, 0x00, 0x00, 0x98, 0x03,
  0x00, 0x00, 0x20, 0x02, 0x00, 0x00, 0xe8, 0x01, 0x00, 0x00, 0xd4, 0x01, 0x00,
  0x00, 0xa8, 0x01, 0x00, 0x00, 0x8c, 0x01, 0x00, 0x00, 0x64, 0x01, 0x00, 0x00,
  0x48, 0x01, 0x00, 0x00, 0x20, 0x01, 0x00, 0x00, 0xfc, 0x00, 0x00, 0x00, 0xf4,
  0x00, 0x00, 0x00, 0xec, 0x00, 0x00, 0x00, 0xe4, 0x00, 0x00, 0x00, 0xdc, 0x00,
  0x00, 0x00, 0xd4, 0x00, 0x00, 0x00, 0xcc, 0x00, 0x00, 0x00, 0xc4, 0x00, 0x00,
  0x00, 0xbc, 0x00, 0x00, 0x00, 0xb4, 0x00, 0x00, 0x00, 0xac, 0x00, 0x00, 0x00,
  0xa4, 0x00, 0x00, 0x00, 0x9c, 0x00, 0x00, 0x00, 0x94, 0x00, 0x00, 0x00, 0x74,
  0x00, 0x00, 0x00, 0x04, 0x00, 0x00, 0x00, 0x22, 0xf1, 0xff, 0xff, 0x04, 0x00,
  0x00, 0x00, 0x60, 0x00, 0x00, 0x00, 0x10, 0x00, 0x00, 0x00, 0x00, 0x00, 0x00,
  0x00, 0x08, 0x00, 0x0e, 0x00, 0x08, 0x00, 0x04, 0x00, 0x08, 0x00, 0x00, 0x00,
  0x10, 0x00, 0x00, 0x00, 0x24, 0x00, 0x00, 0x00, 0x00, 0x00, 0x06, 0x00, 0x08,
  0x00, 0x04, 0x00, 0x06, 0x00, 0x00, 0x00, 0x04, 0x00, 0x00, 0x00, 0x00, 0x00,
  0x00, 0x00, 0x0c, 0x00, 0x18, 0x00, 0x14, 0x00, 0x10, 0x00, 0x0c, 0x00, 0x04,
  0x00, 0x0c, 0x00, 0x00, 0x00, 0x49, 0xb9, 0x9b, 0x2b, 0x1f, 0xa5, 0xba, 0xdc,
  0x02, 0x00, 0x00, 0x00, 0x02, 0x00, 0x00, 0x00, 0x04, 0x00, 0x00, 0x00, 0x06,
  0x00, 0x00, 0x00, 0x32, 0x2e, 0x31, 0x39, 0x2e, 0x30, 0x00, 0x00, 0x8e, 0xf1,
  0xff, 0xff, 0x04, 0x00, 0x00, 0x00, 0x10, 0x00, 0x00, 0x00, 0x31, 0x2e, 0x31,
  0x34, 0x2e, 0x30, 0x00, 0x00, 0x00, 0x00, 0x00, 0x00, 0x00, 0x00, 0x00, 0x00,
  0x50, 0xe6, 0xff, 0xff, 0x54, 0xe6, 0xff, 0xff, 0x58, 0xe6, 0xff, 0xff, 0x5c,
  0xe6, 0xff, 0xff, 0x60, 0xe6, 0xff, 0xff, 0x64, 0xe6, 0xff, 0xff, 0x68, 0xe6,
  0xff, 0xff, 0x6c, 0xe6, 0xff, 0xff, 0x70, 0xe6, 0xff, 0xff, 0x74, 0xe6, 0xff,
  0xff, 0x78, 0xe6, 0xff, 0xff, 0x7c, 0xe6, 0xff, 0xff, 0x80, 0xe6, 0xff, 0xff,
  0xde, 0xf1, 0xff, 0xff, 0x04, 0x00, 0x00, 0x00, 0x14, 0x00, 0x00, 0x00, 0x5f,
  0xb9, 0x2a, 0xbe, 0xe5, 0xf3, 0x4f, 0x3e, 0xce, 0x7a, 0x42, 0x3f, 0x37, 0xb6,
  0x1a, 0x3f, 0xc2, 0x8b, 0x31, 0xbe, 0xfe, 0xf1, 0xff, 0xff, 0x04, 0x00, 0x00,
  0x00, 0x18, 0x00, 0x00, 0x00, 0x04, 0xde, 0xa6, 0xbe, 0x99, 0x55, 0x12, 0xbf,
  0xb0, 0x83, 0x30, 0x3e, 0xba, 0xce, 0x2b, 0x3e, 0xe5, 0xbc, 0xc3, 0x3e, 0x9a,
  0xdc, 0x59, 0xbf, 0x22, 0xf2, 0xff, 0xff, 0x04, 0x00, 0x00, 0x00, 0x0c, 0x00,
  0x00, 0x00, 0x0a, 0xeb, 0x0b, 0x3f, 0x5c, 0xd9, 0xfa, 0xbd, 0xb7, 0xa8, 0x0d,
  0x3b, 0x3a, 0xf2, 0xff, 0xff, 0x04, 0x00, 0x00, 0x00, 0x18, 0x00, 0x00, 0x00,
  0x03, 0xe2, 0x3e, 0xbe, 0xf3, 0xe2, 0x42, 0x3d, 0x1a, 0x96, 0x1e, 0xbe, 0xd2,
  0x1a, 0x00, 0xbe, 0xfa, 0xe1, 0x85, 0x3f, 0x6e, 0xcc, 0x40, 0x3f, 0x5e, 0xf2,
  0xff, 0xff, 0x04, 0x00, 0x00, 0x00, 0x0c, 0x00, 0x00, 0x00, 0x07, 0xff, 0xa7,
  0x3d, 0x0e, 0x2f, 0xad, 0xbd, 0xcf, 0x03, 0xee, 0x3e, 0x76, 0xf2, 0xff, 0xff,
  0x04, 0x00, 0x00, 0x00, 0x1c, 0x00, 0x00, 0x00, 0x6c, 0x50, 0x16, 0x3f, 0x2f,
  0x1d, 0x4a, 0xbe, 0x66, 0x13, 0x0e, 0x3f, 0x66, 0xd7, 0x5e, 0x3e, 0xc0, 0xd5,
  0x87, 0xbe, 0x94, 0x9d, 0x43, 0x3e, 0x61, 0x85, 0x87, 0x3f, 0x9e, 0xf2, 0xff,
  0xff, 0x04, 0x00, 0x00, 0x00, 0x04, 0x00, 0x00, 0x00, 0x8b, 0xc0, 0x63, 0xbf,
  0xae, 0xf2, 0xff, 0xff, 0x04, 0x00, 0x00, 0x00, 0x28, 0x00, 0x00, 0x00, 0xca,
  0xc9, 0xcf, 0x3e, 0xac, 0xff, 0x90, 0x3e, 0x12, 0x31, 0x69, 0x3f, 0x15, 0xf0,
  0x75, 0x3e, 0xbc, 0xf1, 0xb1, 0xbe, 0xa2, 0x91, 0x95, 0x3f, 0xb6, 0xf4, 0xd1,
  0x3e, 0x52, 0xcc, 0x86, 0xbf, 0x0b, 0xbc, 0x32, 0x3f, 0x6c, 0xc1, 0x81, 0x3f,
  0xe2, 0xf2, 0xff, 0xff, 0x04, 0x00, 0x00, 0x00, 0x68, 0x01, 0x00, 0x00, 0xf7,
  0x0f, 0xd0, 0x3e, 0x26, 0x52, 0x07, 0xbe, 0x6e, 0x16, 0xa9, 0x3b, 0x0b, 0x1b,
  0x8a, 0xbe, 0xae, 0x6c, 0x1b, 0x3e, 0xe1, 0x68, 0x91, 0x3e, 0xcc, 0xe5, 0x3a,
  0xbe, 0xa2, 0x2b, 0x2c, 0xbe, 0x7e, 0x19, 0xde, 0x3e, 0xf3, 0x81, 0xf9, 0xbe,
  0x02, 0x25, 0xc4, 0x3c, 0x1d, 0x78, 0xad, 0x3e, 0xa7, 0x34, 0x52, 0xbc, 0x07,
  0xe7, 0x18, 0xbe, 0xe5, 0xfb, 0x7f, 0x3f, 0xc7, 0x09, 0x08, 0xbf, 0x91, 0xeb,
  0xdc, 0x3e, 0x31, 0x6a, 0x86, 0x3e, 0xe2, 0x7a, 0x8a, 0xbe, 0xd8, 0xb6, 0x34,
  0xbf, 0xf7, 0x02, 0xb4, 0xbe, 0x3f, 0x9e, 0x64, 0x3f, 0xe6, 0xa5, 0xbc, 0xbe,
  0xa0, 0xe5, 0x0a, 0xbf, 0x8a, 0x95, 0x8c, 0x3f, 0x16, 0x57, 0xa1, 0xbe, 0x49,
  0x7a, 0x0f, 0xbf, 0x9b, 0x69, 0x55, 0xbd, 0x2b, 0xec, 0x11, 0xbe, 0x3c, 0xd0,
  0xc9, 0xbd, 0x45, 0xd2, 0x60, 0x3e, 0xe1, 0x78, 0x91, 0xbe, 0xfa, 0x25, 0xf1,
  0xbe, 0x35, 0x2e, 0x3f, 0x3f, 0x93, 0xfd, 0xc4, 0xbd, 0xeb, 0xe5, 0x89, 0x3e,
  0xf6, 0xcf, 0x65, 0xbf, 0x01, 0x20, 0x8a, 0xbf, 0x74, 0x3f, 0x41, 0xbf, 0xa8,
  0xb0, 0x0e, 0x3e, 0xcf, 0x71, 0x18, 0x3d, 0x08, 0x7a, 0x1b, 0xbf, 0xfb, 0x6b,
  0x04, 0x3e, 0x34, 0x3d, 0xbc, 0x3e, 0x4e, 0x06, 0x7b, 0xbf, 0x50, 0xba, 0xd4,
  0xbf, 0x7c, 0x57, 0xcb, 0x3e, 0x03, 0x49, 0x3e, 0x3e, 0x49, 0xc6, 0x74, 0x3e,
  0x1a, 0x06, 0xf9, 0x3c, 0x70, 0x25, 0x5b, 0x3e, 0x7e, 0xda, 0x1b, 0xbf, 0xa7,
  0xbf, 0x72, 0x3e, 0x3b, 0xd4, 0x84, 0x3e, 0xca, 0xad, 0xd9, 0xbe, 0x51, 0x6b,
  0x16, 0xbe, 0x84, 0x94, 0x4b, 0xbe, 0xc8, 0x0e, 0x16, 0xbb, 0x06, 0x41, 0xf6,
  0x3c, 0xa4, 0xb4, 0xac, 0x3f, 0x05, 0xf5, 0xf2, 0xbe, 0x5d, 0x0b, 0x1a, 0x3d,
  0xa1, 0xd2, 0xef, 0x3c, 0xd5, 0x88, 0xed, 0xbf, 0xde, 0x1f, 0x81, 0xbf, 0x24,
  0x6c, 0x96, 0xbf, 0xf2, 0x2a, 0x79, 0xbe, 0x2f, 0x99, 0x73, 0x3e, 0xa9, 0x9c,
  0x9b, 0x3e, 0xe6, 0xfb, 0x41, 0xbd, 0x8e, 0x48, 0x95, 0x3e, 0x92, 0x97, 0xfd,
  0xbd, 0x3f, 0x4d, 0xa7, 0x3c, 0x77, 0x4b, 0x5e, 0xbe, 0x7c, 0x35, 0x0c, 0xbf,
  0x1e, 0xb8, 0x92, 0x3d, 0xb6, 0xdc, 0xea, 0xbb, 0x3f, 0xa6, 0x14, 0xbe, 0xbe,
  0xb5, 0x03, 0x3e, 0xe9, 0x09, 0xea, 0x3d, 0x41, 0x5c, 0x26, 0x3e, 0x56, 0x25,
  0x84, 0xbe, 0x60, 0xa5, 0x52, 0x3e, 0x6b, 0x78, 0xe0, 0xbe, 0x6f, 0x65, 0xa8,
  0xbe, 0xd9, 0x1e, 0x2b, 0xbe, 0x8b, 0x42, 0x04, 0xbe, 0x92, 0x77, 0xa0, 0xbd,
  0x24, 0x37, 0x50, 0xbd, 0x84, 0x55, 0xeb, 0x3e, 0x56, 0xf4, 0xff, 0xff, 0x04,
  0x00, 0x00, 0x00, 0x48, 0x00, 0x00, 0x00, 0xf8, 0xc7, 0x6c, 0x3f, 0xde, 0x25,
  0x63, 0x3f, 0x90, 0xc8, 0x16, 0xbe, 0xf5, 0x69, 0xd9, 0x3e, 0x10, 0xe9, 0xbe,
  0xbc, 0xb6, 0xe3, 0xa5, 0xbe, 0xbc, 0x27, 0xc2, 0x3e, 0x2d, 0xe6, 0x32, 0x3f,
  0x95, 0x8b, 0xe9, 0x3e, 0x13, 0x60, 0xe2, 0xbe, 0x70, 0x66, 0x28, 0xbf, 0x14,
  0xc4, 0x22, 0x3f, 0x8e, 0xd4, 0x2b, 0x3f, 0x9f, 0xb7, 0xcc, 0xbe, 0x29, 0x50,
  0x46, 0xbd, 0xe4, 0x69, 0x9e, 0x3f, 0xe1, 0x2b, 0x44, 0xbe, 0x03, 0x41, 0x39,
  0x3d, 0xaa, 0xf4, 0xff, 0xff, 0x04, 0x00, 0x00, 0x00, 0x68, 0x01, 0x00, 0x00,
  0xbe, 0x32, 0x8a, 0xbe, 0x05, 0xa9, 0xe2, 0x3e, 0x2d, 0x26, 0xdf, 0x3d, 0x10,
  0x44, 0xc9, 0xbd, 0x48, 0x45, 0x5d, 0xbe, 0x9a, 0x92, 0xff, 0x3d, 0x6e, 0x37,
  0xf5, 0x3e, 0x36, 0x42, 0xff, 0xbd, 0x42, 0x29, 0x38, 0xbe, 0x97, 0x1b, 0x33,
  0xbf, 0x7d, 0xb5, 0x11, 0x3e, 0x26, 0xc3, 0xec, 0xbe, 0xe8, 0x82, 0xf0, 0x3d,
  0x05, 0x9d, 0x08, 0xbe, 0x5d, 0x87, 0x9c, 0xbe, 0x36, 0x1c, 0x2c, 0x3d, 0xf3,
  0x56, 0x7f, 0x3e, 0x27, 0x55, 0x57, 0x3f, 0xf1, 0xc0, 0x82, 0xbd, 0xc8, 0xf9,
  0xc9, 0xbd, 0xb8, 0x17, 0xcf, 0x3e, 0xee, 0x0a, 0x01, 0xbe, 0x2b, 0x35, 0xc1,
  0x3e, 0x7b, 0xff, 0xac, 0xbe, 0x78, 0x57, 0x0e, 0xbf, 0x0d, 0x90, 0xec, 0x3e,
  0x0b, 0x3c, 0xf1, 0xbe, 0x9e, 0xb5, 0xcb, 0x3e, 0x34, 0xba, 0x35, 0xbf, 0x46,
  0xbe, 0x77, 0x3f, 0x4c, 0xeb, 0x7a, 0x3e, 0x28, 0x2c, 0x2c, 0x3e, 0xab, 0xfc,
  0x40, 0x3e, 0x1a, 0x43, 0xb5, 0x3f, 0xc1, 0x22, 0x65, 0x3e, 0x96, 0x27, 0x8a,
  0x3f, 0xde, 0xb2, 0xb5, 0x3e, 0x4b, 0x04, 0xb6, 0xbe, 0xb6, 0xc0, 0xf2, 0xbe,
  0xb9, 0x9d, 0x9a, 0x3e, 0xbd, 0x01, 0x79, 0xbe, 0xb3, 0x35, 0x25, 0xbe, 0x6c,
  0x62, 0x08, 0xbd, 0x97, 0x59, 0xc9, 0xbd, 0x76, 0x31, 0x3e, 0xbf, 0xe0, 0x52,
  0x68, 0x3f, 0x16, 0xef, 0x9a, 0x3e, 0xef, 0x8b, 0x24, 0x3e, 0xb7, 0x7c, 0x88,
  0x3e, 0x51, 0x81, 0x46, 0x3d, 0x2f, 0x19, 0x30, 0x3e, 0xbf, 0xe9, 0xfc, 0xbd,
  0x88, 0x2f, 0x50, 0x3d, 0xa5, 0x7a, 0x4d, 0xbe, 0xfe, 0xc2, 0xfe, 0xbe, 0xb9,
  0xaf, 0x4f, 0x3e, 0xe0, 0xc7, 0xac, 0x3e, 0x3b, 0x5b, 0x42, 0xbc, 0x14, 0xba,
  0xb3, 0x3a, 0x62, 0xa3, 0x88, 0xbf, 0x53, 0xa1, 0x88, 0x3e, 0xec, 0x70, 0xb8,
  0x3e, 0x26, 0x7b, 0x5f, 0xba, 0xa8, 0x17, 0xdf, 0x3e, 0xd3, 0x74, 0x26, 0xbd,
  0x36, 0x4c, 0x6f, 0x3e, 0x34, 0xe2, 0xb0, 0x3e, 0x75, 0xb5, 0x89, 0x3e, 0x5e,
  0x32, 0x96, 0xbe, 0xc6, 0x7a, 0x9f, 0x3f, 0x5a, 0x53, 0x17, 0x3d, 0x33, 0x05,
  0xd9, 0x3d, 0x64, 0xc1, 0x74, 0x3e, 0x47, 0xe5, 0x7c, 0xbe, 0x69, 0xcd, 0x99,
  0xbf, 0xe5, 0xda, 0x45, 0x3f, 0x68, 0x9d, 0xa2, 0x3d, 0xc6, 0x57, 0xc4, 0x3e,
  0x25, 0x95, 0x02, 0x3f, 0x75, 0xde, 0xd7, 0x3d, 0x6c, 0x5f, 0x03, 0x3f, 0xfe,
  0x50, 0x09, 0xbe, 0xee, 0x02, 0x76, 0xbe, 0x5b, 0xa5, 0xc4, 0x3e, 0xc1, 0x31,
  0x5b, 0x3f, 0x56, 0xd7, 0xc0, 0x3e, 0x2f, 0x07, 0xe9, 0x3e, 0xbb, 0xbe, 0xb0,
  0xbe, 0x68, 0x56, 0xca, 0x3f, 0xd1, 0x1d, 0xcc, 0x3f, 0x1e, 0xf6, 0xff, 0xff,
  0x04, 0x00, 0x00, 0x00, 0x48, 0x00, 0x00, 0x00, 0x2e, 0x3b, 0xa9, 0x3e, 0xd2,
  0x1b, 0x77, 0x3e, 0x70, 0xdf, 0x42, 0xbd, 0xf9, 0x30, 0x88, 0xbf, 0x6e, 0x36,
  0x29, 0x3f, 0x16, 0x56, 0x78, 0x3f, 0xb6, 0x13, 0x0a, 0x3f, 0xfc, 0xcd, 0x89,
  0xbe, 0x97, 0x2a, 0x00, 0x3f, 0x0b, 0x57, 0x17, 0x3f, 0x05, 0x60, 0xdd, 0xbf,
  0x26, 0xc0, 0x7e, 0xbd, 0x35, 0x08, 0xf7, 0xbe, 0x42, 0x83, 0x86, 0x3d, 0x34,
  0x1a, 0x95, 0xbe, 0x2d, 0x9a, 0x7a, 0xbd, 0x4f, 0xfb, 0x4f, 0x3f, 0x30, 0x41,
  0x1a, 0x3e, 0x72, 0xf6, 0xff, 0xff, 0x04, 0x00, 0x00, 0x00, 0x98, 0x03, 0x00,
  0x00, 0x66, 0x97, 0x45, 0xbe, 0x62, 0xb2, 0xdd, 0x3e, 0x0b, 0x07, 0x4f, 0xbe,
  0x35, 0x3e, 0x02, 0x3f, 0xc3, 0x8a, 0xff, 0x3e, 0x37, 0x5f, 0x7f, 0xbe, 0xbb,
  0x76, 0x46, 0x3e, 0xd7, 0x89, 0x00, 0xbf, 0x27, 0x75, 0x83, 0xbe, 0x22, 0xdb,
  0x25, 0xbe, 0x14, 0x59, 0x5c, 0xbf, 0xd6, 0x33, 0x07, 0x3c, 0x3d, 0xb1, 0x56,
  0xbf, 0xb5, 0xf6, 0xce, 0xbd, 0xa2, 0xba, 0x61, 0xbf, 0x33, 0x28, 0x3f, 0x3f,
  0xb6, 0x5b, 0x7b, 0x3f, 0xeb, 0xcf, 0xb1, 0x3f, 0xf1, 0xb1, 0x6a, 0x3f, 0x3f,
  0xd5, 0x60, 0x3f, 0x6f, 0x54, 0x8b, 0xbe, 0x65, 0xa4, 0x4a, 0x3d, 0x1f, 0xdf,
  0x86, 0x3d, 0xe4, 0xc1, 0x3a, 0xbf, 0xab, 0x67, 0xf0, 0xbe, 0x51, 0x6e, 0x79,
  0x3e, 0xf7, 0xe8, 0x81, 0x3f, 0x5f, 0x92, 0xf4, 0xbc, 0x0b, 0x76, 0x1b, 0xbf,
  0x67, 0x79, 0x1d, 0xbf, 0x67, 0x82, 0x85, 0xbe, 0x9b, 0x7d, 0x98, 0xbe, 0xb5,
  0x02, 0x58, 0xbe, 0xf7, 0x36, 0x9b, 0x3d, 0x77, 0x51, 0x8c, 0xbe, 0xbe, 0x2d,
  0xcc, 0x3e, 0xd8, 0xe6, 0x9d, 0xbe, 0x1b, 0x51, 0x84, 0x3d, 0x22, 0x5f, 0x62,
  0xbd, 0x49, 0xe1, 0x4b, 0x3e, 0x72, 0xc9, 0x9e, 0xbc, 0x8b, 0x3e, 0x02, 0xbf,
  0xf6, 0xaf, 0xa1, 0x3e, 0x22, 0x7a, 0x2d, 0xb8, 0x5c, 0x4d, 0x03, 0x3a, 0x21,
  0xd3, 0x81, 0x3f, 0x80, 0xf4, 0x9a, 0xbf, 0x6f, 0xad, 0xc4, 0x3d, 0x6f, 0xa7,
  0x0e, 0x3f, 0xb1, 0xc8, 0x0c, 0xbf, 0x00, 0x24, 0x7d, 0xbe, 0x4d, 0x57, 0x53,
  0xbf, 0x5e, 0x0b, 0x11, 0xbf, 0x60, 0x95, 0xf1, 0x3d, 0xd8, 0x2d, 0xa6, 0xbf,
  0xab, 0xad, 0x80, 0xbc, 0xae, 0x2a, 0x8a, 0xbe, 0x21, 0x16, 0x5f, 0x3e, 0xb5,
  0x34, 0x8c, 0xbb, 0x9d, 0x8b, 0xa2, 0xbd, 0xf8, 0x4b, 0xb3, 0xbe, 0xb8, 0x2c,
  0x1c, 0x3f, 0xfc, 0xb0, 0x8a, 0x3f, 0x97, 0x96, 0x32, 0x3e, 0xc9, 0xd4, 0x15,
  0x3f, 0x84, 0x3e, 0xfc, 0xbe, 0x5c, 0xf0, 0x51, 0x3e, 0x5b, 0x06, 0x44, 0xbd,
  0x72, 0xab, 0x34, 0xbd, 0xee, 0x89, 0xe3, 0xbe, 0x12, 0xd4, 0x26, 0x3f, 0xfc,
  0x7d, 0x46, 0x3f, 0x0d, 0x1f, 0xea, 0xbe, 0x1a, 0xdb, 0xfd, 0xbe, 0x4e, 0x20,
  0x91, 0xbe, 0x7d, 0x9d, 0x98, 0xbe, 0x57, 0x63, 0x87, 0x3d, 0x7b, 0x60, 0xae,
  0xbd, 0x1f, 0x95, 0x9e, 0xbd, 0xd8, 0xaa, 0x27, 0x3d, 0x56, 0x39, 0x0d, 0xbf,
  0xe4, 0x20, 0xd4, 0x39, 0x61, 0x97, 0x6d, 0x3e, 0xb9, 0xff, 0xbf, 0x3e, 0x18,
  0xe6, 0xcf, 0xbc, 0xa1, 0xfc, 0x9e, 0xbe, 0xc3, 0x80, 0x79, 0xbe, 0x32, 0xbb,
  0xfa, 0x3d, 0xeb, 0x28, 0xa3, 0x3e, 0x22, 0x5e, 0x59, 0xbc, 0xf1, 0x48, 0xb7,
  0xbd, 0xdb, 0x2f, 0x01, 0x3f, 0xef, 0xce, 0x3d, 0xbf, 0xbc, 0x1d, 0x35, 0x3f,
  0x07, 0x60, 0x15, 0xbf, 0x1a, 0x43, 0xc0, 0x3e, 0x2f, 0xdb, 0x58, 0x3e, 0xf2,
  0x68, 0x1d, 0x3c, 0xfc, 0xda, 0xb5, 0x3d, 0x34, 0xa6, 0x0a, 0xbf, 0xbe, 0x12,
  0x1c, 0x3e, 0xaa, 0xd0, 0x00, 0x3e, 0x90, 0x58, 0x45, 0xbe, 0x00, 0x17, 0x13,
  0x3d, 0x45, 0x64, 0xf3, 0x3d, 0x45, 0x0a, 0x94, 0xbe, 0x0e, 0x69, 0x8c, 0xbd,
  0x90, 0xc8, 0x8d, 0x3d, 0x10, 0x8f, 0xf7, 0xbe, 0x06, 0x09, 0x18, 0x3f, 0x76,
  0x82, 0x04, 0xbe, 0x71, 0x6e, 0x1c, 0xbe, 0x46, 0x7b, 0x39, 0x3b, 0x03, 0x1d,
  0x8b, 0xbd, 0x14, 0xc5, 0x32, 0x3e, 0x5b, 0x4d, 0x4b, 0xbf, 0x3c, 0x69, 0x43,
  0xbf, 0x89, 0xaa, 0x93, 0xbf, 0x56, 0xaf, 0x7a, 0xbf, 0x62, 0xbf, 0x55, 0xbf,
  0x5d, 0x40, 0xc2, 0x3e, 0x5f, 0x55, 0x72, 0x3f, 0xc8, 0x60, 0x21, 0x3f, 0xa2,
  0x0a, 0x50, 0x3f, 0x63, 0x38, 0x08, 0x3f, 0x1f, 0xa4, 0x43, 0x3f, 0xc2, 0x40,
  0xea, 0x3e, 0x3f, 0x46, 0xd9, 0x3e, 0xe4, 0x12, 0x39, 0xbc, 0x1d, 0x55, 0x09,
  0x3f, 0xf6, 0x7f, 0x5c, 0x40, 0x5b, 0x1f, 0x87, 0x3f, 0x1b, 0x7b, 0x6c, 0xbc,
  0x7b, 0xc8, 0x3e, 0x3e, 0x20, 0x2b, 0xcd, 0x3e, 0x49, 0x44, 0x8f, 0xbd, 0xb8,
  0x32, 0xeb, 0x3f, 0x39, 0x3c, 0x2d, 0xbf, 0x72, 0x77, 0xa4, 0xbf, 0x7c, 0xab,
  0xb0, 0x3e, 0xa5, 0xd6, 0xe0, 0x3e, 0x48, 0xa8, 0x10, 0x3d, 0xe3, 0xba, 0x18,
  0x3f, 0x88, 0xbc, 0x22, 0xbf, 0xdd, 0xda, 0x26, 0xbe, 0xbb, 0x9b, 0xb2, 0xbd,
  0x2e, 0x6f, 0x25, 0xbf, 0xc5, 0xae, 0xbb, 0x3d, 0xe2, 0xb8, 0x3f, 0x3e, 0x4e,
  0x26, 0x69, 0x3d, 0xeb, 0xda, 0x76, 0xbd, 0x57, 0xe4, 0x35, 0xbe, 0xb6, 0x37,
  0xce, 0xbd, 0x4f, 0x87, 0xb1, 0x3e, 0xa1, 0xd1, 0x90, 0x3d, 0xea, 0x24, 0xed,
  0xbc, 0x0d, 0xdb, 0x6a, 0x3e, 0x62, 0x0a, 0xc5, 0xbc, 0x13, 0x90, 0xa3, 0x3e,
  0x56, 0xc9, 0xd8, 0xbe, 0xaa, 0x7b, 0xfc, 0x3c, 0x79, 0x53, 0x4a, 0x3f, 0xda,
  0x1f, 0x9c, 0xbd, 0xdb, 0x89, 0xc2, 0x3d, 0x79, 0x85, 0x34, 0x3e, 0x51, 0xac,
  0x49, 0x3e, 0x72, 0x0e, 0x29, 0x3e, 0x20, 0xb1, 0x49, 0x3c, 0xd8, 0x69, 0xa3,
  0x3e, 0x6d, 0xca, 0x0e, 0xbd, 0x6d, 0xb4, 0x53, 0xbd, 0x2a, 0x70, 0xd7, 0x3e,
  0x44, 0xde, 0x81, 0x3e, 0xc6, 0x50, 0x9a, 0xbd, 0xf0, 0x1d, 0x6a, 0x3e, 0xe5,
  0x18, 0x57, 0x3d, 0xc1, 0x63, 0x94, 0xbe, 0x5e, 0x92, 0x59, 0xbe, 0x46, 0xab,
  0x44, 0xbe, 0x79, 0xfa, 0x70, 0x3e, 0x6f, 0xb5, 0x42, 0x3e, 0xf7, 0x68, 0xac,
  0x3c, 0x6f, 0x16, 0xc7, 0x3d, 0xe1, 0xe4, 0x3e, 0xbd, 0xc0, 0x79, 0xc2, 0xbd,
  0x7d, 0x0e, 0x60, 0x3e, 0x91, 0xbe, 0x53, 0x3d, 0xd7, 0x32, 0x6f, 0x3e, 0xdd,
  0x30, 0x99, 0x3e, 0xe8, 0xb4, 0x7d, 0x3f, 0x58, 0xfc, 0xb6, 0x3e, 0x97, 0x9e,
  0x1a, 0x3f, 0x49, 0x24, 0x5d, 0x3e, 0x8f, 0xd1, 0x20, 0x3f, 0x86, 0x9a, 0xc8,
  0x3e, 0xcd, 0x23, 0x8e, 0x3e, 0x4e, 0x3e, 0x6d, 0x3f, 0x3d, 0xd3, 0xc2, 0x3d,
  0xb2, 0x9d, 0xd6, 0xbd, 0x40, 0x7b, 0xb3, 0x3f, 0xea, 0xf4, 0x01, 0xbf, 0xb8,
  0xb4, 0x78, 0x3e, 0x5c, 0xd3, 0x5e, 0xbd, 0x7c, 0xa1, 0x99, 0x3f, 0x95, 0x62,
  0x41, 0xbf, 0xdb, 0x35, 0x95, 0x3f, 0xc6, 0x65, 0x8c, 0x3f, 0x90, 0x04, 0x0d,
  0xbe, 0x87, 0xeb, 0x1a, 0x3e, 0x84, 0x7e, 0x00, 0x3e, 0x17, 0x26, 0xfd, 0x3b,
  0x65, 0xb9, 0x6c, 0x3f, 0xfd, 0x4a, 0x63, 0xbf, 0xbd, 0xaa, 0xfc, 0xbe, 0xe7,
  0x6d, 0x0e, 0x3e, 0xac, 0xee, 0xe3, 0xbe, 0x7e, 0x07, 0x1c, 0xbb, 0xd2, 0xa7,
  0xe7, 0xbe, 0x9d, 0x44, 0xe9, 0x3d, 0xd8, 0xc4, 0x53, 0xbf, 0x9b, 0xa3, 0x2b,
  0xbe, 0xb5, 0xf2, 0x2a, 0xbf, 0xae, 0x3c, 0x3c, 0x3f, 0x1e, 0x72, 0xf0, 0x3e,
  0xc2, 0x48, 0xab, 0xbe, 0xe2, 0x92, 0x11, 0x3f, 0x0f, 0x5b, 0x4d, 0xbf, 0x8c,
  0x6b, 0xa7, 0x3b, 0xcf, 0x52, 0x07, 0x3e, 0x8d, 0x87, 0x86, 0x3f, 0x16, 0xfa,
  0xff, 0xff, 0x04, 0x00, 0x00, 0x00, 0xc8, 0x00, 0x00, 0x00, 0x21, 0x1e, 0xf5,
  0x3e, 0x1e, 0xd5, 0x9e, 0x3f, 0xe8, 0x97, 0xf0, 0x3e, 0x44, 0xe9, 0x86, 0x3f,
  0x13, 0x47, 0xd3, 0x3f, 0xe7, 0xac, 0x3d, 0x3f, 0xb3, 0x7f, 0xcb, 0x3d, 0xc9,
  0x9b, 0xb3, 0xbf, 0x82, 0xad, 0xbf, 0xbe, 0x9a, 0xd7, 0x3a, 0xbd, 0xaf, 0x26,
  0x87, 0x3e, 0xf8, 0x58, 0x58, 0x3e, 0x66, 0x0b, 0x60, 0xbd, 0x96, 0x54, 0xc9,
  0x3e, 0x0a, 0xe2, 0x99, 0x3e, 0x93, 0xb2, 0x92, 0x3d, 0x17, 0xa4, 0x89, 0x3e,
  0x71, 0xa6, 0x5a, 0x3f, 0x4b, 0xbf, 0x89, 0xbe, 0xb0, 0xe4, 0x80, 0xbe, 0x7d,
  0x97, 0x29, 0x3f, 0x42, 0x3d, 0x2d, 0x3f, 0x1d, 0xeb, 0xa2, 0x3e, 0x12, 0xcc,
  0xbc, 0x3f, 0x70, 0xd9, 0x34, 0x3f, 0x08, 0x76, 0x99, 0x3e, 0xe4, 0x54, 0x6f,
  0xbf, 0x63, 0x5e, 0x69, 0xbf, 0x56, 0x8a, 0x96, 0xbe, 0x58, 0x75, 0xe9, 0x3e,
  0xda, 0xfb, 0xf2, 0x3e, 0x60, 0x05, 0x97, 0x3f, 0xc4, 0x2a, 0x58, 0x3f, 0x1c,
  0xe0, 0x6e, 0x3f, 0x7b, 0x36, 0xbe, 0x3d, 0x33, 0x3e, 0xdf, 0x3e, 0x6d, 0xb0,
  0x00, 0x3f, 0xc4, 0x23, 0x8a, 0xbf, 0x99, 0xaf, 0x76, 0x3f, 0x1d, 0xb5, 0xb0,
  0x3f, 0x46, 0x80, 0xa1, 0x3e, 0xbd, 0x1f, 0xc2, 0x3f, 0x39, 0xa0, 0xc7, 0x3d,
  0x47, 0x32, 0xef, 0x3f, 0xd0, 0xc0, 0x9d, 0x3f, 0x82, 0x61, 0xb3, 0x3e, 0x38,
  0x42, 0xe9, 0x3e, 0x04, 0xd0, 0x89, 0xbf, 0x52, 0x00, 0x38, 0xbe, 0x4f, 0xad,
  0x28, 0x3f, 0xea, 0xfa, 0xff, 0xff, 0x04, 0x00, 0x00, 0x00, 0x88, 0x01, 0x00,
  0x00, 0xf8, 0x4e, 0x91, 0x3e, 0xb3, 0xa7, 0xdb, 0xbe, 0x16, 0x41, 0x01, 0xbf,
  0x46, 0xad, 0xa2, 0xbd, 0xe1, 0x90, 0x6a, 0xbf, 0x40, 0xa3, 0x05, 0x3f, 0xf4,
  0xdd, 0x65, 0xbd, 0x42, 0x94, 0xe5, 0xbe, 0x0b, 0x36, 0x22, 0x3f, 0xda, 0x01,
  0x97, 0x3d, 0x11, 0x6b, 0xd7, 0xbd, 0x48, 0xda, 0x81, 0xbe, 0x02, 0x57, 0x1e,
  0x3e, 0x65, 0xda, 0x82, 0xbe, 0x4e, 0x55, 0x8b, 0x3e, 0x3f, 0x03, 0xdd, 0xbe,
  0xe1, 0xfe, 0x55, 0xbf, 0x2a, 0x1f, 0x68, 0x3d, 0xd1, 0x65, 0xab, 0xbe, 0x05,
  0x5a, 0x4a, 0x3f, 0x49, 0x6b, 0x95, 0x3e, 0x40, 0x7e, 0x40, 0xbf, 0xa2, 0xc8,
  0x8c, 0xbd, 0xf5, 0xc0, 0x6f, 0x3f, 0x0d, 0x0f, 0xd9, 0x3e, 0x2e, 0x5a, 0xa0,
  0xbe, 0xad, 0x4a, 0xf0, 0x3e, 0x7d, 0x8f, 0x16, 0xbf, 0x88, 0x66, 0x70, 0x3e,
  0x7c, 0x32, 0x5b, 0x3f, 0xeb, 0x8e, 0xae, 0x3d, 0x39, 0x07, 0xe0, 0xbd, 0xd8,
  0x2d, 0xd1, 0xbe, 0xc0, 0x8c, 0x2c, 0x3e, 0x52, 0xbf, 0x20, 0x3e, 0x79, 0xdf,
  0x4b, 0x3e, 0xb8, 0xb3, 0x58, 0x3e, 0x37, 0x34, 0x0b, 0xbf, 0x00, 0xc8, 0x36,
  0x3f, 0x41, 0xfe, 0xed, 0x3e, 0x68, 0xd7, 0x0c, 0x3e, 0xe1, 0xd8, 0xa7, 0x3e,
  0x2f, 0xed, 0x74, 0xbe, 0x1d, 0xee, 0x8b, 0xbf, 0x55, 0x41, 0x8c, 0xbf, 0x27,
  0xaa, 0x80, 0xbe, 0x24, 0x1b, 0x82, 0x3e, 0xd3, 0x07, 0x35, 0xbe, 0x32, 0x15,
  0x6a, 0xbe, 0x49, 0x53, 0x01, 0xbf, 0xb5, 0x31, 0x42, 0xbf, 0xba, 0x94, 0x24,
  0x3f, 0x30, 0x7c, 0x69, 0x3e, 0x3f, 0x2c, 0x07, 0xbf, 0x95, 0x7b, 0xbf, 0x3e,
  0xf4, 0xb6, 0x1c, 0xbf, 0xac, 0xc1, 0x94, 0x3e, 0x80, 0x2a, 0xdf, 0xbe, 0x4e,
  0xb0, 0x09, 0xbf, 0xdc, 0x19, 0xac, 0xbd, 0xa9, 0xe7, 0x41, 0x3f, 0xce, 0x94,
  0xe9, 0xbc, 0x9f, 0xfd, 0xc8, 0x3c, 0xa3, 0xba, 0x04, 0x3e, 0x7e, 0x5e, 0x64,
  0x3e, 0xad, 0x55, 0xd4, 0x3c, 0x14, 0xe9, 0x0e, 0xbf, 0x5b, 0x62, 0xc8, 0x3e,
  0xe5, 0x68, 0x96, 0x3e, 0x54, 0x07, 0x01, 0xbf, 0xf7, 0x9b, 0x92, 0x3e, 0xd6,
  0xc1, 0xf3, 0x3e, 0xb9, 0x94, 0x95, 0xbe, 0xd6, 0x51, 0xdc, 0x3e, 0xd1, 0xf7,
  0x31, 0xbf, 0x2c, 0x7d, 0x54, 0x3f, 0xb9, 0x99, 0x3b, 0xbf, 0x00, 0x2c, 0xcf,
  0xbd, 0x79, 0xf7, 0x6e, 0x3e, 0x8f, 0x40, 0x42, 0xbf, 0x54, 0x50, 0x35, 0x3f,
  0x87, 0x6c, 0x01, 0xbd, 0xaf, 0xd5, 0x7c, 0xbf, 0x9b, 0x93, 0xcf, 0x3f, 0x81,
  0x40, 0x83, 0x3c, 0xfb, 0x94, 0x1c, 0x3f, 0xe2, 0x84, 0x12, 0x3e, 0x39, 0x9c,
  0x81, 0x3e, 0x7a, 0x02, 0xd0, 0xbd, 0x83, 0x44, 0x28, 0x3f, 0xe4, 0x8e, 0xa7,
  0xbc, 0x5a, 0xb8, 0xb9, 0x3e, 0xde, 0x18, 0x92, 0xbe, 0x0a, 0x28, 0x81, 0xbf,
  0x80, 0x92, 0xc5, 0x3e, 0x42, 0x71, 0x0e, 0xbf, 0x90, 0x04, 0x5d, 0xbf, 0xd5,
  0xd5, 0x21, 0xbe, 0x7e, 0xfc, 0xff, 0xff, 0x04, 0x00, 0x00, 0x00, 0x1c, 0x00,
  0x00, 0x00, 0x2a, 0xf1, 0x26, 0x3f, 0x45, 0x68, 0x30, 0x3e, 0xde, 0x8e, 0xcb,
  0xbe, 0x7c, 0xdf, 0xd3, 0x3e, 0xf9, 0x71, 0xf6, 0x3e, 0x7a, 0x55, 0x82, 0xbe,
  0xf9, 0xdb, 0xad, 0xbd, 0x4c, 0xf1, 0xff, 0xff, 0x50, 0xf1, 0xff, 0xff, 0x54,
  0xf1, 0xff, 0xff, 0x58, 0xf1, 0xff, 0xff, 0x5c, 0xf1, 0xff, 0xff, 0x0f, 0x00,
  0x00, 0x00, 0x4d, 0x4c, 0x49, 0x52, 0x20, 0x43, 0x6f, 0x6e, 0x76, 0x65, 0x72,
  0x74, 0x65, 0x64, 0x2e, 0x00, 0x01, 0x00, 0x00, 0x00, 0x14, 0x00, 0x00, 0x00,
  0x00, 0x00, 0x0e, 0x00, 0x18, 0x00, 0x14, 0x00, 0x10, 0x00, 0x0c, 0x00, 0x08,
  0x00, 0x04, 0x00, 0x0e, 0x00, 0x00, 0x00, 0x14, 0x00, 0x00, 0x00, 0x1c, 0x00,
  0x00, 0x00, 0x30, 0x03, 0x00, 0x00, 0x34, 0x03, 0x00, 0x00, 0x44, 0x03, 0x00,
  0x00, 0x04, 0x00, 0x00, 0x00, 0x6d, 0x61, 0x69, 0x6e, 0x00, 0x00, 0x00, 0x00,
  0x0d, 0x00, 0x00, 0x00, 0xdc, 0x02, 0x00, 0x00, 0x98, 0x02, 0x00, 0x00, 0x64,
  0x02, 0x00, 0x00, 0x20, 0x02, 0x00, 0x00, 0xd4, 0x01, 0x00, 0x00, 0x98, 0x01,
  0x00, 0x00, 0x5c, 0x01, 0x00, 0x00, 0x20, 0x01, 0x00, 0x00, 0xe4, 0x00, 0x00,
  0x00, 0xa8, 0x00, 0x00, 0x00, 0x6c, 0x00, 0x00, 0x00, 0x34, 0x00, 0x00, 0x00,
  0x10, 0x00, 0x00, 0x00, 0x00, 0x00, 0x0a, 0x00, 0x10, 0x00, 0x0c, 0x00, 0x08,
  0x00, 0x04, 0x00, 0x0a, 0x00, 0x00, 0x00, 0x0c, 0x00, 0x00, 0x00, 0x10, 0x00,
  0x00, 0x00, 0x02, 0x00, 0x00, 0x00, 0x01, 0x00, 0x00, 0x00, 0x20, 0x00, 0x00,
  0x00, 0x01, 0x00, 0x00, 0x00, 0x1f, 0x00, 0x00, 0x00, 0x42, 0xfe, 0xff, 0xff,
  0x14, 0x00, 0x00, 0x00, 0x00, 0x00, 0x00, 0x08, 0x10, 0x00, 0x00, 0x00, 0x14,
  0x00, 0x00, 0x00, 0x01, 0x00, 0x00, 0x00, 0x2c, 0xf2, 0xff, 0xff, 0x01, 0x00,
  0x00, 0x00, 0x1f, 0x00, 0x00, 0x00, 0x03, 0x00, 0x00, 0x00, 0x1e, 0x00, 0x00,
  0x00, 0x04, 0x00, 0x00, 0x00, 0x0d, 0x00, 0x00, 0x00, 0x76, 0xfe, 0xff, 0xff,
  0x14, 0x00, 0x00, 0x00, 0x00, 0x00, 0x00, 0x08, 0x14, 0x00, 0x00, 0x00, 0x18,
  0x00, 0x00, 0x00, 0x01, 0x00, 0x00, 0x00, 0x66, 0xfe, 0xff, 0xff, 0x00, 0x00,
  0x00, 0x01, 0x01, 0x00, 0x00, 0x00, 0x1e, 0x00, 0x00, 0x00, 0x03, 0x00, 0x00,
  0x00, 0x1d, 0x00, 0x00, 0x00, 0x05, 0x00, 0x00, 0x00, 0x0e, 0x00, 0x00, 0x00,
  0xfe, 0xfd, 0xff, 0xff, 0x10, 0x00, 0x00, 0x00, 0x00, 0x00, 0x00, 0x0a, 0x10,
  0x00, 0x00, 0x00, 0x14, 0x00, 0x00, 0x00, 0xee, 0xfd, 0xff, 0xff, 0x01, 0x00,
  0x00, 0x00, 0x01, 0x00, 0x00, 0x00, 0x1d, 0x00, 0x00, 0x00, 0x04, 0x00, 0x00,
  0x00, 0x00, 0x00, 0x00, 0x00, 0x1c, 0x00, 0x00, 0x00, 0x18, 0x00, 0x00, 0x00,
  0x1a, 0x00, 0x00, 0x00, 0xe6, 0xfe, 0xff, 0xff, 0x14, 0x00, 0x00, 0x00, 0x00,
  0x00, 0x00, 0x08, 0x14, 0x00, 0x00, 0x00, 0x18, 0x00, 0x00, 0x00, 0x01, 0x00,
  0x00, 0x00, 0xd6, 0xfe, 0xff, 0xff, 0x00, 0x00, 0x00, 0x01, 0x01, 0x00, 0x00,
  0x00, 0x1c, 0x00, 0x00, 0x00, 0x03, 0x00, 0x00, 0x00, 0x1b, 0x00, 0x00, 0x00,
  0x06, 0x00, 0x00, 0x00, 0x13, 0x00, 0x00, 0x00, 0x1e, 0xff, 0xff, 0xff, 0x14,
  0x00, 0x00, 0x00, 0x00, 0x00, 0x00, 0x08, 0x14, 0x00, 0x00, 0x00, 0x18, 0x00,
  0x00, 0x00, 0x01, 0x00, 0x00, 0x00, 0x0e, 0xff, 0xff, 0xff, 0x00, 0x00, 0x00,
  0x01, 0x01, 0x00, 0x00, 0x00, 0x1b, 0x00, 0x00, 0x00, 0x03, 0x00, 0x00, 0x00,
  0x14, 0x00, 0x00, 0x00, 0x07, 0x00, 0x00, 0x00, 0x0c, 0x00, 0x00, 0x00, 0x56,
  0xff, 0xff, 0xff, 0x14, 0x00, 0x00, 0x00, 0x00, 0x00, 0x00, 0x08, 0x14, 0x00,
  0x00, 0x00, 0x18, 0x00, 0x00, 0x00, 0x01, 0x00, 0x00, 0x00, 0x46, 0xff, 0xff,
  0xff, 0x00, 0x00, 0x00, 0x01, 0x01, 0x00, 0x00, 0x00, 0x1a, 0x00, 0x00, 0x00,
  0x03, 0x00, 0x00, 0x00, 0x19, 0x00, 0x00, 0x00, 0x08, 0x00, 0x00, 0x00, 0x0f,
  0x00, 0x00, 0x00, 0x8e, 0xff, 0xff, 0xff, 0x14, 0x00, 0x00, 0x00, 0x00, 0x00,
  0x00, 0x08, 0x14, 0x00, 0x00, 0x00, 0x18, 0x00, 0x00, 0x00, 0x01, 0x00, 0x00,
  0x00, 0x7e, 0xff, 0xff, 0xff, 0x00, 0x00, 0x00, 0x01, 0x01, 0x00, 0x00, 0x00,
  0x19, 0x00, 0x00, 0x00, 0x03, 0x00, 0x00, 0x00, 0x16, 0x00, 0x00, 0x00, 0x09,
  0x00, 0x00, 0x00, 0x10, 0x00, 0x00, 0x00, 0xc6, 0xff, 0xff, 0xff, 0x14, 0x00,
  0x00, 0x00, 0x00, 0x00, 0x00, 0x08, 0x14, 0x00, 0x00, 0x00, 0x18, 0x00, 0x00,
  0x00, 0x01, 0x00, 0x00, 0x00, 0xb6, 0xff, 0xff, 0xff, 0x00, 0x00, 0x00, 0x01,
  0x01, 0x00, 0x00, 0x00, 0x18, 0x00, 0x00, 0x00, 0x03, 0x00, 0x00, 0x00, 0x17,
  0x00, 0x00, 0x00, 0x0a, 0x00, 0x00, 0x00, 0x11, 0x00, 0x00, 0x00, 0x00, 0x00,
  0x0e, 0x00, 0x1a, 0x00, 0x14, 0x00, 0x10, 0x00, 0x0c, 0x00, 0x0b, 0x00, 0x04,
  0x00, 0x0e, 0x00, 0x00, 0x00, 0x1c, 0x00, 0x00, 0x00, 0x00, 0x00, 0x00, 0x08,
  0x1c, 0x00, 0x00, 0x00, 0x20, 0x00, 0x00, 0x00, 0x01, 0x00, 0x00, 0x00, 0x00,
  0x00, 0x06, 0x00, 0x08, 0x00, 0x07, 0x00, 0x06, 0x00, 0x00, 0x00, 0x00, 0x00,
  0x00, 0x01, 0x01, 0x00, 0x00, 0x00, 0x17, 0x00, 0x00, 0x00, 0x03, 0x00, 0x00,
  0x00, 0x15, 0x00, 0x00, 0x00, 0x0b, 0x00, 0x00, 0x00, 0x12, 0x00, 0x00, 0x00,
  0x9e, 0xff, 0xff, 0xff, 0x10, 0x00, 0x00, 0x00, 0x00, 0x00, 0x00, 0x0a, 0x10,
  0x00, 0x00, 0x00, 0x14, 0x00, 0x00, 0x00, 0x8e, 0xff, 0xff, 0xff, 0x01, 0x00,
  0x00, 0x00, 0x01, 0x00, 0x00, 0x00, 0x16, 0x00, 0x00, 0x00, 0x02, 0x00, 0x00,
  0x00, 0x01, 0x00, 0x00, 0x00, 0x00, 0x00, 0x00, 0x00, 0xce, 0xff, 0xff, 0xff,
  0x10, 0x00, 0x00, 0x00, 0x00, 0x00, 0x00, 0x0a, 0x10, 0x00, 0x00, 0x00, 0x14,
  0x00, 0x00, 0x00, 0xbe, 0xff, 0xff, 0xff, 0x01, 0x00, 0x00, 0x00, 0x01, 0x00,
  0x00, 0x00, 0x15, 0x00, 0x00, 0x00, 0x02, 0x00, 0x00, 0x00, 0x02, 0x00, 0x00,
  0x00, 0x00, 0x00, 0x00, 0x00, 0x00, 0x00, 0x0e, 0x00, 0x16, 0x00, 0x00, 0x00,
  0x10, 0x00, 0x0c, 0x00, 0x0b, 0x00, 0x04, 0x00, 0x0e, 0x00, 0x00, 0x00, 0x18,
  0x00, 0x00, 0x00, 0x00, 0x00, 0x00, 0x0a, 0x18, 0x00, 0x00, 0x00, 0x1c, 0x00,
  0x00, 0x00, 0x00, 0x00, 0x06, 0x00, 0x08, 0x00, 0x04, 0x00, 0x06, 0x00, 0x00,
  0x00, 0x01, 0x00, 0x00, 0x00, 0x01, 0x00, 0x00, 0x00, 0x14, 0x00, 0x00, 0x00,
  0x02, 0x00, 0x00, 0x00, 0x03, 0x00, 0x00, 0x00, 0x00, 0x00, 0x00, 0x00, 0x01,
  0x00, 0x00, 0x00, 0x20, 0x00, 0x00, 0x00, 0x04, 0x00, 0x00, 0x00, 0x00, 0x00,
  0x00, 0x00, 0x01, 0x00, 0x00, 0x00, 0x02, 0x00, 0x00, 0x00, 0x03, 0x00, 0x00,
  0x00, 0x21, 0x00, 0x00, 0x00, 0xf0, 0x0a, 0x00, 0x00, 0x7c, 0x0a, 0x00, 0x00,
  0x20, 0x0a, 0x00, 0x00, 0xc4, 0x09, 0x00, 0x00, 0x84, 0x09, 0x00, 0x00, 0x2c,
  0x09, 0x00, 0x00, 0xec, 0x08, 0x00, 0x00, 0xac, 0x08, 0x00, 0x00, 0x6c, 0x08,
  0x00, 0x00, 0x2c, 0x08, 0x00, 0x00, 0xec, 0x07, 0x00, 0x00, 0xac, 0x07, 0x00,
  0x00, 0x70, 0x07, 0x00, 0x00, 0x34, 0x07, 0x00, 0x00, 0xf4, 0x06, 0x00, 0x00,
  0xb4, 0x06, 0x00, 0x00, 0x74, 0x06, 0x00, 0x00, 0x34, 0x06, 0x00, 0x00, 0xf4,
  0x05, 0x00, 0x00, 0xb4, 0x05, 0x00, 0x00, 0x58, 0x05, 0x00, 0x00, 0xfc, 0x04,
  0x00, 0x00, 0xa0, 0x04, 0x00, 0x00, 0x20, 0x04, 0x00, 0x00, 0xa0, 0x03, 0x00,
  0x00, 0x20, 0x03, 0x00, 0x00, 0xa0, 0x02, 0x00, 0x00, 0x28, 0x02, 0x00, 0x00,
  0xa8, 0x01, 0x00, 0x00, 0x4c, 0x01, 0x00, 0x00, 0xcc, 0x00, 0x00, 0x00, 0x60,
  0x00, 0x00, 0x00, 0x04, 0x00, 0x00, 0x00, 0xaa, 0xf5, 0xff, 0xff, 0x00, 0x00,
  0x00, 0x01, 0x14, 0x00, 0x00, 0x00, 0x1c, 0x00, 0x00, 0x00, 0x1c, 0x00, 0x00,
  0x00, 0x21, 0x00, 0x00, 0x00, 0x34, 0x00, 0x00, 0x00, 0x02, 0x00, 0x00, 0x00,
  0xff, 0xff, 0xff, 0xff, 0x01, 0x00, 0x00, 0x00, 0x94, 0xf5, 0xff, 0xff, 0x19,
  0x00, 0x00, 0x00, 0x53, 0x74, 0x61, 0x74, 0x65, 0x66, 0x75, 0x6c, 0x50, 0x61,
  0x72, 0x74, 0x69, 0x74, 0x69, 0x6f, 0x6e, 0x65, 0x64, 0x43, 0x61, 0x6c, 0x6c,
  0x3a, 0x30, 0x00, 0x00, 0x00, 0x02, 0x00, 0x00, 0x00, 0x01, 0x00, 0x00, 0x00,
  0x01, 0x00, 0x00, 0x00, 0x02, 0xf6, 0xff, 0xff, 0x00, 0x00, 0x00, 0x01, 0x14,
  0x00, 0x00, 0x00, 0x1c, 0x00, 0x00, 0x00, 0x1c, 0x00, 0x00, 0x00, 0x20, 0x00,
  0x00, 0x00, 0x44, 0x00, 0x00, 0x00, 0x02, 0x00, 0x00, 0x00, 0xff, 0xff, 0xff,
  0xff, 0x01, 0x00, 0x00, 0x00, 0xec, 0xf5, 0xff, 0xff, 0x2a, 0x00, 0x00, 0x00,
  0x6d, 0x6f, 0x64, 0x65, 0x6c, 0x2f, 0x64, 0x65, 0x6e, 0x73, 0x65, 0x5f, 0x37,
  0x2f, 0x4d, 0x61, 0x74, 0x4d, 0x75, 0x6c, 0x3b, 0x6d, 0x6f, 0x64, 0x65, 0x6c,
  0x2f, 0x64, 0x65, 0x6e, 0x73, 0x65, 0x5f, 0x37, 0x2f, 0x42, 0x69, 0x61, 0x73,
  0x41, 0x64, 0x64, 0x00, 0x00, 0x02, 0x00, 0x00, 0x00, 0x01, 0x00, 0x00, 0x00,
  0x01, 0x00, 0x00, 0x00, 0x6a, 0xf6, 0xff, 0xff, 0x00, 0x00, 0x00, 0x01, 0x14,
  0x00, 0x00, 0x00, 0x1c, 0x00, 0x00, 0x00, 0x1c, 0x00, 0x00, 0x00, 0x1f, 0x00,
  0x00, 0x00, 0x58, 0x00, 0x00, 0x00, 0x02, 0x00, 0x00, 0x00, 0xff, 0xff, 0xff,
  0xff, 0x07, 0x00, 0x00, 0x00, 0x54, 0xf6, 0xff, 0xff, 0x3d, 0x00, 0x00, 0x00,
  0x6d, 0x6f, 0x64, 0x65, 0x6c, 0x2f, 0x64, 0x65, 0x6e, 0x73, 0x65, 0x5f, 0x36,
  0x2f, 0x4d, 0x61, 0x74, 0x4d, 0x75, 0x6c, 0x3b, 0x6d, 0x6f, 0x64, 0x65, 0x6c,
  0x2f, 0x64, 0x65, 0x6e, 0x73, 0x65, 0x5f, 0x36, 0x2f, 0x52, 0x65, 0x6c, 0x75,
  0x3b, 0x6d, 0x6f, 0x64, 0x65, 0x6c, 0x2f, 0x64, 0x65, 0x6e, 0x73, 0x65, 0x5f,
  0x36, 0x2f, 0x42, 0x69, 0x61, 0x73, 0x41, 0x64, 0x64, 0x00, 0x00, 0x00, 0x02,
  0x00, 0x00, 0x00, 0x01, 0x00, 0x00, 0x00, 0x07, 0x00, 0x00, 0x00, 0xe6, 0xf6,
  0xff, 0xff, 0x00, 0x00, 0x00, 0x01, 0x14, 0x00, 0x00, 0x00, 0x1c, 0x00, 0x00,
  0x00, 0x1c, 0x00, 0x00, 0x00, 0x1e, 0x00, 0x00, 0x00, 0x34, 0x00, 0x00, 0x00,
  0x02, 0x00, 0x00, 0x00, 0xff, 0xff, 0xff, 0xff, 0x0e, 0x00, 0x00, 0x00, 0xd0,
  0xf6, 0xff, 0xff, 0x1a, 0x00, 0x00, 0x00, 0x6d, 0x6f, 0x64, 0x65, 0x6c, 0x2f,
  0x63, 0x6f, 0x6e, 0x63, 0x61, 0x74, 0x65, 0x6e, 0x61, 0x74, 0x65, 0x5f, 0x33,
  0x2f, 0x63, 0x6f, 0x6e, 0x63, 0x61, 0x74, 0x00, 0x00, 0x02, 0x00, 0x00, 0x00,
  0x01, 0x00, 0x00, 0x00, 0x0e, 0x00, 0x00, 0x00, 0x3e, 0xf7, 0xff, 0xff, 0x00,
  0x00, 0x00, 0x01, 0x14, 0x00, 0x00, 0x00, 0x1c, 0x00, 0x00, 0x00, 0x1c, 0x00,
  0x00, 0x00, 0x1d, 0x00, 0x00, 0x00, 0x58, 0x00, 0x00, 0x00, 0x02, 0x00, 0x00,
  0x00, 0xff, 0xff, 0xff, 0xff, 0x05, 0x00, 0x00, 0x00, 0x28, 0xf7, 0xff, 0xff,
  0x3d, 0x00, 0x00, 0x00, 0x6d, 0x6f, 0x64, 0x65, 0x6c, 0x2f, 0x64, 0x65, 0x6e,
  0x73, 0x65, 0x5f, 0x31, 0x2f, 0x4d, 0x61, 0x74, 0x4d, 0x75, 0x6c, 0x3b, 0x6d,
  0x6f, 0x64, 0x65, 0x6c, 0x2f, 0x64, 0x65, 0x6e, 0x73, 0x65, 0x5f, 0x31, 0x2f,
  0x52, 0x65, 0x6c, 0x75, 0x3b, 0x6d, 0x6f, 0x64, 0x65, 0x6c, 0x2f, 0x64, 0x65,
  0x6e, 0x73, 0x65, 0x5f, 0x31, 0x2f, 0x42, 0x69, 0x61, 0x73, 0x41, 0x64, 0x64,
  0x00, 0x00, 0x00, 0x02, 0x00, 0x00, 0x00, 0x01, 0x00, 0x00, 0x00, 0x05, 0x00,
  0x00, 0x00, 0xba, 0xf7, 0xff, 0xff, 0x00, 0x00, 0x00, 0x01, 0x14, 0x00, 0x00,
  0x00, 0x1c, 0x00, 0x00, 0x00, 0x1c, 0x00, 0x00, 0x00, 0x1c, 0x00, 0x00, 0x00,
  0x50, 0x00, 0x00, 0x00, 0x02, 0x00, 0x00, 0x00, 0xff, 0xff, 0xff, 0xff, 0x0a,
  0x00, 0x00, 0x00, 0xa4, 0xf7, 0xff, 0xff, 0x37, 0x00, 0x00, 0x00, 0x6d, 0x6f,
  0x64, 0x65, 0x6c, 0x2f, 0x64, 0x65, 0x6e, 0x73, 0x65, 0x2f, 0x4d, 0x61, 0x74,
  0x4d, 0x75, 0x6c, 0x3b, 0x6d, 0x6f, 0x64, 0x65, 0x6c, 0x2f, 0x64, 0x65, 0x6e,
  0x73, 0x65, 0x2f, 0x52, 0x65, 0x6c, 0x75, 0x3b, 0x6d, 0x6f, 0x64, 0x65, 0x6c,
  0x2f, 0x64, 0x65, 0x6e, 0x73, 0x65, 0x2f, 0x42, 0x69, 0x61, 0x73, 0x41, 0x64,
  0x64, 0x00, 0x02, 0x00, 0x00, 0x00, 0x01, 0x00, 0x00, 0x00, 0x0a, 0x00, 0x00,
  0x00, 0x2e, 0xf8, 0xff, 0xff, 0x00, 0x00, 0x00, 0x01, 0x14, 0x00, 0x00, 0x00,
  0x1c, 0x00, 0x00, 0x00, 0x1c, 0x00, 0x00, 0x00, 0x1b, 0x00, 0x00, 0x00, 0x58,
  0x00, 0x00, 0x00, 0x02, 0x00, 0x00, 0x00, 0xff, 0xff, 0xff, 0xff, 0x03, 0x00,
  0x00, 0x00, 0x18, 0xf8, 0xff, 0xff, 0x3d, 0x00, 0x00, 0x00, 0x6d, 0x6f, 0x64,
  0x65, 0x6c, 0x2f, 0x64, 0x65, 0x6e, 0x73, 0x65, 0x5f, 0x35, 0x2f, 0x4d, 0x61,
  0x74, 0x4d, 0x75, 0x6c, 0x3b, 0x6d, 0x6f, 0x64, 0x65, 0x6c, 0x2f, 0x64, 0x65,
  0x6e, 0x73, 0x65, 0x5f, 0x35, 0x2f, 0x52, 0x65, 0x6c, 0x75, 0x3b, 0x6d, 0x6f,
  0x64, 0x65, 0x6c, 0x2f, 0x64, 0x65, 0x6e, 0x73, 0x65, 0x5f, 0x35, 0x2f, 0x42,
  0x69, 0x61, 0x73, 0x41, 0x64, 0x64, 0x00, 0x00, 0x00, 0x02, 0x00, 0x00, 0x00,
  0x01, 0x00, 0x00, 0x00, 0x03, 0x00, 0x00, 0x00, 0xaa, 0xf8, 0xff, 0xff, 0x00,
  0x00, 0x00, 0x01, 0x14, 0x00, 0x00, 0x00, 0x1c, 0x00, 0x00, 0x00, 0x1c, 0x00,
  0x00, 0x00, 0x1a, 0x00, 0x00, 0x00, 0x58, 0x00, 0x00, 0x00, 0x02, 0x00, 0x00,
  0x00, 0xff, 0xff, 0xff, 0xff, 0x06, 0x00, 0x00, 0x00, 0x94, 0xf8, 0xff, 0xff,
  0x3d, 0x00, 0x00, 0x00, 0x6d, 0x6f, 0x64, 0x65, 0x6c, 0x2f, 0x64, 0x65, 0x6e,
  0x73, 0x65, 0x5f, 0x34, 0x2f, 0x4d, 0x61, 0x74, 0x4d, 0x75, 0x6c, 0x3b, 0x6d,
  0x6f, 0x64, 0x65, 0x6c, 0x2f, 0x64, 0x65, 0x6e, 0x73, 0x65, 0x5f, 0x34, 0x2f,
  0x52, 0x65, 0x6c, 0x75, 0x3b, 0x6d, 0x6f, 0x64, 0x65, 0x6c, 0x2f, 0x64, 0x65,
  0x6e, 0x73, 0x65, 0x5f, 0x34, 0x2f, 0x42, 0x69, 0x61, 0x73, 0x41, 0x64, 0x64,
  0x00, 0x00, 0x00, 0x02, 0x00, 0x00, 0x00, 0x01, 0x00, 0x00, 0x00, 0x06, 0x00,
  0x00, 0x00, 0x26, 0xf9, 0xff, 0xff, 0x00, 0x00, 0x00, 0x01, 0x14, 0x00, 0x00,
  0x00, 0x1c, 0x00, 0x00, 0x00, 0x1c, 0x00, 0x00, 0x00, 0x19, 0x00, 0x00, 0x00,
  0x58, 0x00, 0x00, 0x00, 0x02, 0x00, 0x00, 0x00, 0xff, 0xff, 0xff, 0xff, 0x03,
  0x00, 0x00, 0x00, 0x10, 0xf9, 0xff, 0xff, 0x3d, 0x00, 0x00, 0x00, 0x6d, 0x6f,
  0x64, 0x65, 0x6c, 0x2f, 0x64, 0x65, 0x6e, 0x73, 0x65, 0x5f, 0x33, 0x2f, 0x4d,
  0x61, 0x74, 0x4d, 0x75, 0x6c, 0x3b, 0x6d, 0x6f, 0x64, 0x65, 0x6c, 0x2f, 0x64,
  0x65, 0x6e, 0x73, 0x65, 0x5f, 0x33, 0x2f, 0x52, 0x65, 0x6c, 0x75, 0x3b, 0x6d,
  0x6f, 0x64, 0x65, 0x6c, 0x2f, 0x64, 0x65, 0x6e, 0x73, 0x65, 0x5f, 0x33, 0x2f,
  0x42, 0x69, 0x61, 0x73, 0x41, 0x64, 0x64, 0x00, 0x00, 0x00, 0x02, 0x00, 0x00,
  0x00, 0x01, 0x00, 0x00, 0x00, 0x03, 0x00, 0x00, 0x00, 0xa2, 0xf9, 0xff, 0xff,
  0x00, 0x00, 0x00, 0x01, 0x14, 0x00, 0x00, 0x00, 0x1c, 0x00, 0x00, 0x00, 0x1c,
  0x00, 0x00, 0x00, 0x18, 0x00, 0x00, 0x00, 0x58, 0x00, 0x00, 0x00, 0x02, 0x00,
  0x00, 0x00, 0xff, 0xff, 0xff, 0xff, 0x06, 0x00, 0x00, 0x00, 0x8c, 0xf9, 0xff,
  0xff, 0x3d, 0x00, 0x00, 0x00, 0x6d, 0x6f, 0x64, 0x65, 0x6c, 0x2f, 0x64, 0x65,
  0x6e, 0x73, 0x65, 0x5f, 0x32, 0x2f, 0x4d, 0x61, 0x74, 0x4d, 0x75, 0x6c, 0x3b,
  0x6d, 0x6f, 0x64, 0x65, 0x6c, 0x2f, 0x64, 0x65, 0x6e, 0x73, 0x65, 0x5f, 0x32,
  0x2f, 0x52, 0x65, 0x6c, 0x75, 0x3b, 0x6d, 0x6f, 0x64, 0x65, 0x6c, 0x2f, 0x64,
  0x65, 0x6e, 0x73, 0x65, 0x5f, 0x32, 0x2f, 0x42, 0x69, 0x61, 0x73, 0x41, 0x64,
  0x64, 0x00, 0x00, 0x00, 0x02, 0x00, 0x00, 0x00, 0x01, 0x00, 0x00, 0x00, 0x06,
  0x00, 0x00, 0x00, 0x1e, 0xfa, 0xff, 0xff, 0x00, 0x00, 0x00, 0x01, 0x14, 0x00,
  0x00, 0x00, 0x1c, 0x00, 0x00, 0x00, 0x1c, 0x00, 0x00, 0x00, 0x17, 0x00, 0x00,
  0x00, 0x34, 0x00, 0x00, 0x00, 0x02, 0x00, 0x00, 0x00, 0xff, 0xff, 0xff, 0xff,
  0x0f, 0x00, 0x00, 0x00, 0x08, 0xfa, 0xff, 0xff, 0x1a, 0x00, 0x00, 0x00, 0x6d,
  0x6f, 0x64, 0x65, 0x6c, 0x2f, 0x63, 0x6f, 0x6e, 0x63, 0x61, 0x74, 0x65, 0x6e,
  0x61, 0x74, 0x65, 0x5f, 0x32, 0x2f, 0x63, 0x6f, 0x6e, 0x63, 0x61, 0x74, 0x00,
  0x00, 0x02, 0x00, 0x00, 0x00, 0x01, 0x00, 0x00, 0x00, 0x0f, 0x00, 0x00, 0x00,
  0x76, 0xfa, 0xff, 0xff, 0x00, 0x00, 0x00, 0x01, 0x14, 0x00, 0x00, 0x00, 0x1c,
  0x00, 0x00, 0x00, 0x1c, 0x00, 0x00, 0x00, 0x16, 0x00, 0x00, 0x00, 0x34, 0x00,
  0x00, 0x00, 0x02, 0x00, 0x00, 0x00, 0xff, 0xff, 0xff, 0xff, 0x0f, 0x00, 0x00,
  0x00, 0x60, 0xfa, 0xff, 0xff, 0x1a, 0x00, 0x00, 0x00, 0x6d, 0x6f, 0x64, 0x65,
  0x6c, 0x2f, 0x63, 0x6f, 0x6e, 0x63, 0x61, 0x74, 0x65, 0x6e, 0x61, 0x74, 0x65,
  0x5f, 0x31, 0x2f, 0x63, 0x6f, 0x6e, 0x63, 0x61, 0x74, 0x00, 0x00, 0x02, 0x00,
  0x00, 0x00, 0x01, 0x00, 0x00, 0x00, 0x0f, 0x00, 0x00, 0x00, 0xce, 0xfa, 0xff,
  0xff, 0x00, 0x00, 0x00, 0x01, 0x14, 0x00, 0x00, 0x00, 0x1c, 0x00, 0x00, 0x00,
  0x1c, 0x00, 0x00, 0x00, 0x15, 0x00, 0x00, 0x00, 0x34, 0x00, 0x00, 0x00, 0x02,
  0x00, 0x00, 0x00, 0xff, 0xff, 0xff, 0xff, 0x17, 0x00, 0x00, 0x00, 0xb8, 0xfa,
  0xff, 0xff, 0x18, 0x00, 0x00, 0x00, 0x6d, 0x6f, 0x64, 0x65, 0x6c, 0x2f, 0x63,
  0x6f, 0x6e, 0x63, 0x61, 0x74, 0x65, 0x6e, 0x61, 0x74, 0x65, 0x2f, 0x63, 0x6f,
  0x6e, 0x63, 0x61, 0x74, 0x00, 0x00, 0x00, 0x00, 0x02, 0x00, 0x00, 0x00, 0x01,
  0x00, 0x00, 0x00, 0x17, 0x00, 0x00, 0x00, 0x82, 0xfc, 0xff, 0xff, 0x00, 0x00,
  0x00, 0x01, 0x10, 0x00, 0x00, 0x00, 0x10, 0x00, 0x00, 0x00, 0x14, 0x00, 0x00,
  0x00, 0x20, 0x00, 0x00, 0x00, 0x00, 0xfb, 0xff, 0xff, 0x10, 0x00, 0x00, 0x00,
  0x61, 0x72, 0x69, 0x74, 0x68, 0x2e, 0x63, 0x6f, 0x6e, 0x73, 0x74, 0x61, 0x6e,
  0x74, 0x31, 0x35, 0x00, 0x00, 0x00, 0x00, 0x01, 0x00, 0x00, 0x00, 0x05, 0x00,
  0x00, 0x00, 0xbe, 0xfc, 0xff, 0xff, 0x00, 0x00, 0x00, 0x01, 0x10, 0x00, 0x00,
  0x00, 0x10, 0x00, 0x00, 0x00, 0x13, 0x00, 0x00, 0x00, 0x20, 0x00, 0x00, 0x00,
  0x3c, 0xfb, 0xff, 0xff, 0x10, 0x00, 0x00, 0x00, 0x61, 0x72, 0x69, 0x74, 0x68,
  0x2e, 0x63, 0x6f, 0x6e, 0x73, 0x74, 0x61, 0x6e, 0x74, 0x31, 0x34, 0x00, 0x00,
  0x00, 0x00, 0x01, 0x00, 0x00, 0x00, 0x06, 0x00, 0x00, 0x00, 0xfa, 0xfc, 0xff,
  0xff, 0x00, 0x00, 0x00, 0x01, 0x10, 0x00, 0x00, 0x00, 0x10, 0x00, 0x00, 0x00,
  0x12, 0x00, 0x00, 0x00, 0x20, 0x00, 0x00, 0x00, 0x78, 0xfb, 0xff, 0xff, 0x10,
  0x00, 0x00, 0x00, 0x61, 0x72, 0x69, 0x74, 0x68, 0x2e, 0x63, 0x6f, 0x6e, 0x73,
  0x74, 0x61, 0x6e, 0x74, 0x31, 0x33, 0x00, 0x00, 0x00, 0x00, 0x01, 0x00, 0x00,
  0x00, 0x03, 0x00, 0x00, 0x00, 0x36, 0xfd, 0xff, 0xff, 0x00, 0x00, 0x00, 0x01,
  0x10, 0x00, 0x00, 0x00, 0x10, 0x00, 0x00, 0x00, 0x11, 0x00, 0x00, 0x00, 0x20,
  0x00, 0x00, 0x00, 0xb4, 0xfb, 0xff, 0xff, 0x10, 0x00, 0x00, 0x00, 0x61, 0x72,
  0x69, 0x74, 0x68, 0x2e, 0x63, 0x6f, 0x6e, 0x73, 0x74, 0x61, 0x6e, 0x74, 0x31,
  0x32, 0x00, 0x00, 0x00, 0x00, 0x01, 0x00, 0x00, 0x00, 0x06, 0x00, 0x00, 0x00,
  0x72, 0xfd, 0xff, 0xff, 0x00, 0x00, 0x00, 0x01, 0x10, 0x00, 0x00, 0x00, 0x10,
  0x00, 0x00, 0x00, 0x10, 0x00, 0x00, 0x00, 0x20, 0x00, 0x00, 0x00, 0xf0, 0xfb,
  0xff, 0xff, 0x10, 0x00, 0x00, 0x00, 0x61, 0x72, 0x69, 0x74, 0x68, 0x2e, 0x63,
  0x6f, 0x6e, 0x73, 0x74, 0x61, 0x6e, 0x74, 0x31, 0x31, 0x00, 0x00, 0x00, 0x00,
  0x01, 0x00, 0x00, 0x00, 0x03, 0x00, 0x00, 0x00, 0xae, 0xfd, 0xff, 0xff, 0x00,
  0x00, 0x00, 0x01, 0x10, 0x00, 0x00, 0x00, 0x10, 0x00, 0x00, 0x00, 0x0f, 0x00,
  0x00, 0x00, 0x20, 0x00, 0x00, 0x00, 0x2c, 0xfc, 0xff, 0xff, 0x10, 0x00, 0x00,
  0x00, 0x61, 0x72, 0x69, 0x74, 0x68, 0x2e, 0x63, 0x6f, 0x6e, 0x73, 0x74, 0x61,
  0x6e, 0x74, 0x31, 0x30, 0x00, 0x00, 0x00, 0x00, 0x01, 0x00, 0x00, 0x00, 0x07,
  0x00, 0x00, 0x00, 0xea, 0xfd, 0xff, 0xff, 0x00, 0x00, 0x00, 0x01, 0x10, 0x00,
  0x00, 0x00, 0x10, 0x00, 0x00, 0x00, 0x0e, 0x00, 0x00, 0x00, 0x1c, 0x00, 0x00,
  0x00, 0x68, 0xfc, 0xff, 0xff, 0x0f, 0x00, 0x00, 0x00, 0x61, 0x72, 0x69, 0x74,
  0x68, 0x2e, 0x63, 0x6f, 0x6e, 0x73, 0x74, 0x61, 0x6e, 0x74, 0x39, 0x00, 0x01,
  0x00, 0x00, 0x00, 0x01, 0x00, 0x00, 0x00, 0x22, 0xfe, 0xff, 0xff, 0x00, 0x00,
  0x00, 0x01, 0x10, 0x00, 0x00, 0x00, 0x10, 0x00, 0x00, 0x00, 0x0d, 0x00, 0x00,
  0x00, 0x1c, 0x00, 0x00, 0x00, 0xa0, 0xfc, 0xff, 0xff, 0x0f, 0x00, 0x00, 0x00,
  0x61, 0x72, 0x69, 0x74, 0x68, 0x2e, 0x63, 0x6f, 0x6e, 0x73, 0x74, 0x61, 0x6e,
  0x74, 0x38, 0x00, 0x01, 0x00, 0x00, 0x00, 0x0a, 0x00, 0x00, 0x00, 0x5a, 0xfe,
  0xff, 0xff, 0x00, 0x00, 0x00, 0x01, 0x10, 0x00, 0x00, 0x00, 0x10, 0x00, 0x00,
  0x00, 0x0c, 0x00, 0x00, 0x00, 0x1c, 0x00, 0x00, 0x00, 0xd8, 0xfc, 0xff, 0xff,
  0x0f, 0x00, 0x00, 0x00, 0x61, 0x72, 0x69, 0x74, 0x68, 0x2e, 0x63, 0x6f, 0x6e,
  0x73, 0x74, 0x61, 0x6e, 0x74, 0x37, 0x00, 0x02, 0x00, 0x00, 0x00, 0x06, 0x00,
  0x00, 0x00, 0x0f, 0x00, 0x00, 0x00, 0x96, 0xfe, 0xff, 0xff, 0x00, 0x00, 0x00,
  0x01, 0x10, 0x00, 0x00, 0x00, 0x10, 0x00, 0x00, 0x00, 0x0b, 0x00, 0x00, 0x00,
  0x1c, 0x00, 0x00, 0x00, 0x14, 0xfd, 0xff, 0xff, 0x0f, 0x00, 0x00, 0x00, 0x61,
  0x72, 0x69, 0x74, 0x68, 0x2e, 0x63, 0x6f, 0x6e, 0x73, 0x74, 0x61, 0x6e, 0x74,
  0x36, 0x00, 0x02, 0x00, 0x00, 0x00, 0x03, 0x00, 0x00, 0x00, 0x06, 0x00, 0x00,
  0x00, 0xd2, 0xfe, 0xff, 0xff, 0x00, 0x00, 0x00, 0x01, 0x10, 0x00, 0x00, 0x00,
  0x10, 0x00, 0x00, 0x00, 0x0a, 0x00, 0x00, 0x00, 0x1c, 0x00, 0x00, 0x00, 0x50,
  0xfd, 0xff, 0xff, 0x0f, 0x00, 0x00, 0x00, 0x61, 0x72, 0x69, 0x74, 0x68, 0x2e,
  0x63, 0x6f, 0x6e, 0x73, 0x74, 0x61, 0x6e, 0x74, 0x35, 0x00, 0x02, 0x00, 0x00,
  0x00, 0x06, 0x00, 0x00, 0x00, 0x0f, 0x00, 0x00, 0x00, 0x0e, 0xff, 0xff, 0xff,
  0x00, 0x00, 0x00, 0x01, 0x10, 0x00, 0x00, 0x00, 0x10, 0x00, 0x00, 0x00, 0x09,
  0x00, 0x00, 0x00, 0x1c, 0x00, 0x00, 0x00, 0x8c, 0xfd, 0xff, 0xff, 0x0f, 0x00,
  0x00, 0x00, 0x61, 0x72, 0x69, 0x74, 0x68, 0x2e, 0x63, 0x6f, 0x6e, 0x73, 0x74,
  0x61, 0x6e, 0x74, 0x34, 0x00, 0x02, 0x00, 0x00, 0x00, 0x03, 0x00, 0x00, 0x00,
  0x06, 0x00, 0x00, 0x00, 0x4a, 0xff, 0xff, 0xff, 0x00, 0x00, 0x00, 0x01, 0x10,
  0x00, 0x00, 0x00, 0x10, 0x00, 0x00, 0x00, 0x08, 0x00, 0x00, 0x00, 0x1c, 0x00,
  0x00, 0x00, 0xc8, 0xfd, 0xff, 0xff, 0x0f, 0x00, 0x00, 0x00, 0x61, 0x72, 0x69,
  0x74, 0x68, 0x2e, 0x63, 0x6f, 0x6e, 0x73, 0x74, 0x61, 0x6e, 0x74, 0x33, 0x00,
  0x02, 0x00, 0x00, 0x00, 0x0a, 0x00, 0x00, 0x00, 0x17, 0x00, 0x00, 0x00, 0x86,
  0xff, 0xff, 0xff, 0x00, 0x00, 0x00, 0x01, 0x10, 0x00, 0x00, 0x00, 0x10, 0x00,
  0x00, 0x00, 0x07, 0x00, 0x00, 0x00, 0x1c, 0x00, 0x00, 0x00, 0x04, 0xfe, 0xff,
  0xff, 0x0f, 0x00, 0x00, 0x00, 0x61, 0x72, 0x69, 0x74, 0x68, 0x2e, 0x63, 0x6f,
  0x6e, 0x73, 0x74, 0x61, 0x6e, 0x74, 0x32, 0x00, 0x02, 0x00, 0x00, 0x00, 0x05,
  0x00, 0x00, 0x00, 0x0a, 0x00, 0x00, 0x00, 0xc2, 0xff, 0xff, 0xff, 0x00, 0x00,
  0x00, 0x01, 0x10, 0x00, 0x00, 0x00, 0x10, 0x00, 0x00, 0x00, 0x06, 0x00, 0x00,
  0x00, 0x1c, 0x00, 0x00, 0x00, 0x40, 0xfe, 0xff, 0xff, 0x0f, 0x00, 0x00, 0x00,
  0x61, 0x72, 0x69, 0x74, 0x68, 0x2e, 0x63, 0x6f, 0x6e, 0x73, 0x74, 0x61, 0x6e,
  0x74, 0x31, 0x00, 0x02, 0x00, 0x00, 0x00, 0x07, 0x00, 0x00, 0x00, 0x0e, 0x00,
  0x00, 0x00, 0x00, 0x00, 0x16, 0x00, 0x18, 0x00, 0x14, 0x00, 0x00, 0x00, 0x10,
  0x00, 0x0c, 0x00, 0x08, 0x00, 0x00, 0x00, 0x00, 0x00, 0x00, 0x00, 0x07, 0x00,
  0x16, 0x00, 0x00, 0x00, 0x00, 0x00, 0x00, 0x01, 0x10, 0x00, 0x00, 0x00, 0x10,
  0x00, 0x00, 0x00, 0x05, 0x00, 0x00, 0x00, 0x1c, 0x00, 0x00, 0x00, 0x94, 0xfe,
  0xff, 0xff, 0x0e, 0x00, 0x00, 0x00, 0x61, 0x72, 0x69, 0x74, 0x68, 0x2e, 0x63,
  0x6f, 0x6e, 0x73, 0x74, 0x61, 0x6e, 0x74, 0x00, 0x00, 0x02, 0x00, 0x00, 0x00,
  0x01, 0x00, 0x00, 0x00, 0x07, 0x00, 0x00, 0x00, 0xf6, 0xfe, 0xff, 0xff, 0x00,
  0x00, 0x00, 0x01, 0x14, 0x00, 0x00, 0x00, 0x1c, 0x00, 0x00, 0x00, 0x1c, 0x00,
  0x00, 0x00, 0x04, 0x00, 0x00, 0x00, 0x34, 0x00, 0x00, 0x00, 0x02, 0x00, 0x00,
  0x00, 0xff, 0xff, 0xff, 0xff, 0x14, 0x00, 0x00, 0x00, 0xe0, 0xfe, 0xff, 0xff,
  0x19, 0x00, 0x00, 0x00, 0x73, 0x65, 0x72, 0x76, 0x69, 0x6e, 0x67, 0x5f, 0x64,
  0x65, 0x66, 0x61, 0x75, 0x6c, 0x74, 0x5f, 0x69, 0x6e, 0x70, 0x75, 0x74, 0x5f,
  0x32, 0x3a, 0x30, 0x00, 0x00, 0x00, 0x02, 0x00, 0x00, 0x00, 0x01, 0x00, 0x00,
  0x00, 0x14, 0x00, 0x00, 0x00, 0x4e, 0xff, 0xff, 0xff, 0x00, 0x00, 0x00, 0x01,
  0x14, 0x00, 0x00, 0x00, 0x1c, 0x00, 0x00, 0x00, 0x1c, 0x00, 0x00, 0x00, 0x03,
  0x00, 0x00, 0x00, 0x34, 0x00, 0x00, 0x00, 0x02, 0x00, 0x00, 0x00, 0xff, 0xff,
  0xff, 0xff, 0x0c, 0x00, 0x00, 0x00, 0x38, 0xff, 0xff, 0xff, 0x19, 0x00, 0x00,
  0x00, 0x73, 0x65, 0x72, 0x76, 0x69, 0x6e, 0x67, 0x5f, 0x64, 0x65, 0x66, 0x61,
  0x75, 0x6c, 0x74, 0x5f, 0x69, 0x6e, 0x70, 0x75, 0x74, 0x5f, 0x33, 0x3a, 0x30,
  0x00, 0x00, 0x00, 0x02, 0x00, 0x00, 0x00, 0x01, 0x00, 0x00, 0x00, 0x0c, 0x00,
  0x00, 0x00, 0xa6, 0xff, 0xff, 0xff, 0x00, 0x00, 0x00, 0x01, 0x14, 0x00, 0x00,
  0x00, 0x1c, 0x00, 0x00, 0x00, 0x1c, 0x00, 0x00, 0x00, 0x02, 0x00, 0x00, 0x00,
  0x34, 0x00, 0x00, 0x00, 0x02, 0x00, 0x00, 0x00, 0xff, 0xff, 0xff, 0xff, 0x0c,
  0x00, 0x00, 0x00, 0x90, 0xff, 0xff, 0xff, 0x19, 0x00, 0x00, 0x00, 0x73, 0x65,
  0x72, 0x76, 0x69, 0x6e, 0x67, 0x5f, 0x64, 0x65, 0x66, 0x61, 0x75, 0x6c, 0x74,
  0x5f, 0x69, 0x6e, 0x70, 0x75, 0x74, 0x5f, 0x34, 0x3a, 0x30, 0x00, 0x00, 0x00,
  0x02, 0x00, 0x00, 0x00, 0x01, 0x00, 0x00, 0x00, 0x0c, 0x00, 0x00, 0x00, 0x00,
  0x00, 0x16, 0x00, 0x1c, 0x00, 0x18, 0x00, 0x00, 0x00, 0x14, 0x00, 0x10, 0x00,
  0x0c, 0x00, 0x00, 0x00, 0x00, 0x00, 0x08, 0x00, 0x07, 0x00, 0x16, 0x00, 0x00,
  0x00, 0x00, 0x00, 0x00, 0x01, 0x14, 0x00, 0x00, 0x00, 0x20, 0x00, 0x00, 0x00,
  0x20, 0x00, 0x00, 0x00, 0x01, 0x00, 0x00, 0x00, 0x38, 0x00, 0x00, 0x00, 0x02,
  0x00, 0x00, 0x00, 0xff, 0xff, 0xff, 0xff, 0x03, 0x00, 0x00, 0x00, 0x04, 0x00,
  0x04, 0x00, 0x04, 0x00, 0x00, 0x00, 0x19, 0x00, 0x00, 0x00, 0x73, 0x65, 0x72,
  0x76, 0x69, 0x6e, 0x67, 0x5f, 0x64, 0x65, 0x66, 0x61, 0x75, 0x6c, 0x74, 0x5f,
  0x69, 0x6e, 0x70, 0x75, 0x74, 0x5f, 0x31, 0x3a, 0x30, 0x00, 0x00, 0x00, 0x02,
  0x00, 0x00, 0x00, 0x01, 0x00, 0x00, 0x00, 0x03, 0x00, 0x00, 0x00, 0x03, 0x00,
  0x00, 0x00, 0x30, 0x00, 0x00, 0x00, 0x14, 0x00, 0x00, 0x00, 0x04, 0x00, 0x00,
  0x00, 0xe8, 0xff, 0xff, 0xff, 0x0e, 0x00, 0x00, 0x00, 0x00, 0x00, 0x00, 0x0e,
  0xf4, 0xff, 0xff, 0xff, 0x09, 0x00, 0x00, 0x00, 0x00, 0x00, 0x00, 0x09, 0x0c,
  0x00, 0x0c, 0x00, 0x0b, 0x00, 0x00, 0x00, 0x00, 0x00, 0x04, 0x00, 0x0c, 0x00,
  0x00, 0x00, 0x02, 0x00, 0x00, 0x00, 0x00, 0x00, 0x00, 0x02
};

double sms_part_none_prune_tflite_model_bs12_135_mean[] = {
  1.20058371e+01,  -6.73118354e+00, 6.69347697e-03,  1.75047469e-02,
  -6.02177589e+00, 3.17125525e-03,  4.65474487e-03,  -6.03247930e+00,
  3.18257200e-03,  4.65477711e-03,  -5.99292411e+00, 3.19305110e-03,
  4.63202604e-03,  -5.99578083e+00, 3.21472449e-03,  4.62125057e-03,
  4.56376223e+00,  -5.98920205e-02, 4.30042978e+00,  -4.56473798e-02,
  4.29260448e+00,  -4.84030301e-02, 4.30481246e+00,  -5.16186279e-02,
  4.29311793e+00,  -5.36426808e-02, 2.87983715e+00,  1.71068827e+00,
  1.71669581e+00,  1.71430377e+00,  1.72050712e+00,  1.03665635e+01,
  1.02258556e+01,  1.02283540e+01,  1.02205858e+01,  1.02218707e+01,
  -6.37439947e+00, 4.44625976e-03,  9.09521663e-03,  4.53813311e+00,
  -4.99169793e-02, 2.26178137e+00,  9.93606851e+00,  -6.34571613e+00,
  4.44242194e-03,  9.04371479e-03,  4.54387433e+00,  -5.58342776e-02,
  2.26598401e+00,  9.93060208e+00,  -6.43540720e+00, 4.41005840e-03,
  8.89476085e-03,  4.54143727e+00,  -4.89855566e-02, 2.25231473e+00,
  9.91578855e+00,  -6.43756033e+00, 4.44503259e-03,  8.89369815e-03,
  4.53652545e+00,  -5.17081920e-02, 2.25813135e+00,  9.91755618e+00,
  1.55092099e-01,  9.58963865e-02
};

double sms_part_none_prune_tflite_model_bs12_135_std[] = {
  0.02227795, 2.63964732, 0.01072177, 0.01460983, 3.08175955, 0.00647646,
  0.00665682, 3.04498798, 0.00638495, 0.00659149, 3.06685465, 0.00645002,
  0.00657236, 3.02195241, 0.00644511, 0.00649242, 1.078931,   0.50768389,
  1.29667734, 0.54355019, 1.29603716, 0.54707144, 1.2959067,  0.54249053,
  1.29672201, 0.54639504, 1.08934399, 0.97495578, 0.97650029, 0.97303876,
  0.97223188, 0.53201081, 0.60511369, 0.59536511, 0.59960174, 0.59501904,
  2.86396311, 0.00788067, 0.0097309,  1.11690036, 0.53045152, 1.03972492,
  0.55850366, 2.85176803, 0.00770698, 0.0095531,  1.11547971, 0.52794,
  1.03601518, 0.55771806, 2.84250516, 0.00785648, 0.00937334, 1.11213764,
  0.51850147, 1.03445152, 0.55192627, 2.81120433, 0.00802132, 0.00937087,
  1.11651118, 0.52228065, 1.03620484, 0.54743166, 0.25064415, 0.24080757
};

double sms_part_none_prune_tflite_model_bs12_135_std_inv[] = {
  4.488743e+01, 3.788385e-01, 9.326818e+01, 6.844707e+01, 3.244899e-01,
  1.544053e+02, 1.502219e+02, 3.284085e-01, 1.566183e+02, 1.517108e+02,
  3.260670e-01, 1.550383e+02, 1.521523e+02, 3.309119e-01, 1.551564e+02,
  1.540258e+02, 9.268433e-01, 1.969730e+00, 7.712019e-01, 1.839757e+00,
  7.715828e-01, 1.827915e+00, 7.716605e-01, 1.843350e+00, 7.711753e-01,
  1.830178e+00, 9.179837e-01, 1.025688e+00, 1.024065e+00, 1.027708e+00,
  1.028561e+00, 1.879661e+00, 1.652582e+00, 1.679642e+00, 1.667774e+00,
  1.680618e+00, 3.491665e-01, 1.268928e+02, 1.027654e+02, 8.953350e-01,
  1.885186e+00, 9.617929e-01, 1.790499e+00, 3.506597e-01, 1.297525e+02,
  1.046781e+02, 8.964753e-01, 1.894155e+00, 9.652368e-01, 1.793021e+00,
  3.518024e-01, 1.272835e+02, 1.066856e+02, 8.991693e-01, 1.928635e+00,
  9.666959e-01, 1.811836e+00, 3.557194e-01, 1.246678e+02, 1.067137e+02,
  8.956471e-01, 1.914679e+00, 9.650602e-01, 1.826712e+00, 3.989720e+00,
  4.152693e+00
};

unsigned char sms_part_none_prune_tflite_model_bs12_135[] = {
  0x1c, 0x00, 0x00, 0x00, 0x54, 0x46, 0x4c, 0x33, 0x14, 0x00, 0x20, 0x00, 0x1c,
  0x00, 0x18, 0x00, 0x14, 0x00, 0x10, 0x00, 0x0c, 0x00, 0x00, 0x00, 0x08, 0x00,
  0x04, 0x00, 0x14, 0x00, 0x00, 0x00, 0x1c, 0x00, 0x00, 0x00, 0xd4, 0x00, 0x00,
  0x00, 0x2c, 0x01, 0x00, 0x00, 0x54, 0x0d, 0x00, 0x00, 0x64, 0x0d, 0x00, 0x00,
  0x20, 0x1c, 0x00, 0x00, 0x03, 0x00, 0x00, 0x00, 0x01, 0x00, 0x00, 0x00, 0x04,
  0x00, 0x00, 0x00, 0x3a, 0xf2, 0xff, 0xff, 0x0c, 0x00, 0x00, 0x00, 0x1c, 0x00,
  0x00, 0x00, 0x38, 0x00, 0x00, 0x00, 0x0f, 0x00, 0x00, 0x00, 0x73, 0x65, 0x72,
  0x76, 0x69, 0x6e, 0x67, 0x5f, 0x64, 0x65, 0x66, 0x61, 0x75, 0x6c, 0x74, 0x00,
  0x01, 0x00, 0x00, 0x00, 0x04, 0x00, 0x00, 0x00, 0x48, 0xff, 0xff, 0xff, 0x20,
  0x00, 0x00, 0x00, 0x04, 0x00, 0x00, 0x00, 0x07, 0x00, 0x00, 0x00, 0x64, 0x65,
  0x6e, 0x73, 0x65, 0x5f, 0x37, 0x00, 0x04, 0x00, 0x00, 0x00, 0x58, 0x00, 0x00,
  0x00, 0x3c, 0x00, 0x00, 0x00, 0x20, 0x00, 0x00, 0x00, 0x04, 0x00, 0x00, 0x00,
  0x74, 0xff, 0xff, 0xff, 0x01, 0x00, 0x00, 0x00, 0x04, 0x00, 0x00, 0x00, 0x07,
  0x00, 0x00, 0x00, 0x69, 0x6e, 0x70, 0x75, 0x74, 0x5f, 0x34, 0x00, 0x8c, 0xff,
  0xff, 0xff, 0x02, 0x00, 0x00, 0x00, 0x04, 0x00, 0x00, 0x00, 0x07, 0x00, 0x00,
  0x00, 0x69, 0x6e, 0x70, 0x75, 0x74, 0x5f, 0x33, 0x00, 0xa4, 0xff, 0xff, 0xff,
  0x03, 0x00, 0x00, 0x00, 0x04, 0x00, 0x00, 0x00, 0x07, 0x00, 0x00, 0x00, 0x69,
  0x6e, 0x70, 0x75, 0x74, 0x5f, 0x32, 0x00, 0x1e, 0xf0, 0xff, 0xff, 0x04, 0x00,
  0x00, 0x00, 0x07, 0x00, 0x00, 0x00, 0x69, 0x6e, 0x70, 0x75, 0x74, 0x5f, 0x31,
  0x00, 0x02, 0x00, 0x00, 0x00, 0x34, 0x00, 0x00, 0x00, 0x04, 0x00, 0x00, 0x00,
  0xdc, 0xff, 0xff, 0xff, 0x23, 0x00, 0x00, 0x00, 0x04, 0x00, 0x00, 0x00, 0x13,
  0x00, 0x00, 0x00, 0x43, 0x4f, 0x4e, 0x56, 0x45, 0x52, 0x53, 0x49, 0x4f, 0x4e,
  0x5f, 0x4d, 0x45, 0x54, 0x41, 0x44, 0x41, 0x54, 0x41, 0x00, 0x08, 0x00, 0x0c,
  0x00, 0x08, 0x00, 0x04, 0x00, 0x08, 0x00, 0x00, 0x00, 0x22, 0x00, 0x00, 0x00,
  0x04, 0x00, 0x00, 0x00, 0x13, 0x00, 0x00, 0x00, 0x6d, 0x69, 0x6e, 0x5f, 0x72,
  0x75, 0x6e, 0x74, 0x69, 0x6d, 0x65, 0x5f, 0x76, 0x65, 0x72, 0x73, 0x69, 0x6f,
  0x6e, 0x00, 0x24, 0x00, 0x00, 0x00, 0x24, 0x0c, 0x00, 0x00, 0x1c, 0x0c, 0x00,
  0x00, 0x14, 0x0c, 0x00, 0x00, 0x0c, 0x0c, 0x00, 0x00, 0x04, 0x0c, 0x00, 0x00,
  0xd8, 0x0b, 0x00, 0x00, 0x40, 0x0a, 0x00, 0x00, 0x68, 0x09, 0x00, 0x00, 0xc0,
  0x05, 0x00, 0x00, 0x68, 0x05, 0x00, 0x00, 0xf0, 0x03, 0x00, 0x00, 0x98, 0x03,
  0x00, 0x00, 0x20, 0x02, 0x00, 0x00, 0xe8, 0x01, 0x00, 0x00, 0xd4, 0x01, 0x00,
  0x00, 0xa8, 0x01, 0x00, 0x00, 0x8c, 0x01, 0x00, 0x00, 0x64, 0x01, 0x00, 0x00,
  0x48, 0x01, 0x00, 0x00, 0x20, 0x01, 0x00, 0x00, 0xfc, 0x00, 0x00, 0x00, 0xf4,
  0x00, 0x00, 0x00, 0xec, 0x00, 0x00, 0x00, 0xe4, 0x00, 0x00, 0x00, 0xdc, 0x00,
  0x00, 0x00, 0xd4, 0x00, 0x00, 0x00, 0xcc, 0x00, 0x00, 0x00, 0xc4, 0x00, 0x00,
  0x00, 0xbc, 0x00, 0x00, 0x00, 0xb4, 0x00, 0x00, 0x00, 0xac, 0x00, 0x00, 0x00,
  0xa4, 0x00, 0x00, 0x00, 0x9c, 0x00, 0x00, 0x00, 0x94, 0x00, 0x00, 0x00, 0x74,
  0x00, 0x00, 0x00, 0x04, 0x00, 0x00, 0x00, 0x22, 0xf1, 0xff, 0xff, 0x04, 0x00,
  0x00, 0x00, 0x60, 0x00, 0x00, 0x00, 0x10, 0x00, 0x00, 0x00, 0x00, 0x00, 0x00,
  0x00, 0x08, 0x00, 0x0e, 0x00, 0x08, 0x00, 0x04, 0x00, 0x08, 0x00, 0x00, 0x00,
  0x10, 0x00, 0x00, 0x00, 0x24, 0x00, 0x00, 0x00, 0x00, 0x00, 0x06, 0x00, 0x08,
  0x00, 0x04, 0x00, 0x06, 0x00, 0x00, 0x00, 0x04, 0x00, 0x00, 0x00, 0x00, 0x00,
  0x00, 0x00, 0x0c, 0x00, 0x18, 0x00, 0x14, 0x00, 0x10, 0x00, 0x0c, 0x00, 0x04,
  0x00, 0x0c, 0x00, 0x00, 0x00, 0x49, 0xb9, 0x9b, 0x2b, 0x1f, 0xa5, 0xba, 0xdc,
  0x02, 0x00, 0x00, 0x00, 0x02, 0x00, 0x00, 0x00, 0x04, 0x00, 0x00, 0x00, 0x06,
  0x00, 0x00, 0x00, 0x32, 0x2e, 0x31, 0x39, 0x2e, 0x30, 0x00, 0x00, 0x8e, 0xf1,
  0xff, 0xff, 0x04, 0x00, 0x00, 0x00, 0x10, 0x00, 0x00, 0x00, 0x31, 0x2e, 0x31,
  0x34, 0x2e, 0x30, 0x00, 0x00, 0x00, 0x00, 0x00, 0x00, 0x00, 0x00, 0x00, 0x00,
  0x50, 0xe6, 0xff, 0xff, 0x54, 0xe6, 0xff, 0xff, 0x58, 0xe6, 0xff, 0xff, 0x5c,
  0xe6, 0xff, 0xff, 0x60, 0xe6, 0xff, 0xff, 0x64, 0xe6, 0xff, 0xff, 0x68, 0xe6,
  0xff, 0xff, 0x6c, 0xe6, 0xff, 0xff, 0x70, 0xe6, 0xff, 0xff, 0x74, 0xe6, 0xff,
  0xff, 0x78, 0xe6, 0xff, 0xff, 0x7c, 0xe6, 0xff, 0xff, 0x80, 0xe6, 0xff, 0xff,
  0xde, 0xf1, 0xff, 0xff, 0x04, 0x00, 0x00, 0x00, 0x14, 0x00, 0x00, 0x00, 0xff,
  0xff, 0x4b, 0x3a, 0x8f, 0xf2, 0x14, 0x3f, 0x87, 0x25, 0xb7, 0x3e, 0x16, 0xa1,
  0x51, 0xbe, 0x2c, 0x28, 0xa7, 0xbd, 0xfe, 0xf1, 0xff, 0xff, 0x04, 0x00, 0x00,
  0x00, 0x18, 0x00, 0x00, 0x00, 0x9a, 0xf2, 0x18, 0xbf, 0xf7, 0x61, 0x0f, 0x3e,
  0x9c, 0x38, 0x9e, 0x3f, 0x32, 0xe1, 0xff, 0xbe, 0x42, 0xa4, 0xfd, 0xbd, 0xb8,
  0xb7, 0xb4, 0x3d, 0x22, 0xf2, 0xff, 0xff, 0x04, 0x00, 0x00, 0x00, 0x0c, 0x00,
  0x00, 0x00, 0x91, 0x06, 0xa3, 0x3e, 0x83, 0xf7, 0x9e, 0x3f, 0x5b, 0x7a, 0xb9,
  0x3e, 0x3a, 0xf2, 0xff, 0xff, 0x04, 0x00, 0x00, 0x00, 0x18, 0x00, 0x00, 0x00,
  0xff, 0xdd, 0x79, 0xbe, 0xe8, 0x97, 0xca, 0x3e, 0x8c, 0xaf, 0xe6, 0x3e, 0x2d,
  0x24, 0x82, 0x3e, 0x99, 0xb3, 0xc6, 0xbd, 0xc3, 0x9d, 0x5d, 0x3f, 0x5e, 0xf2,
  0xff, 0xff, 0x04, 0x00, 0x00, 0x00, 0x0c, 0x00, 0x00, 0x00, 0xd8, 0x90, 0xc5,
  0xbe, 0xf5, 0x93, 0x87, 0x3d, 0x2e, 0x4f, 0xc7, 0x3e, 0x76, 0xf2, 0xff, 0xff,
  0x04, 0x00, 0x00, 0x00, 0x1c, 0x00, 0x00, 0x00, 0x68, 0x92, 0x8a, 0xbd, 0xa5,
  0x65, 0x5c, 0x3f, 0xa3, 0x68, 0xe4, 0x3e, 0x77, 0xe5, 0x3a, 0xbe, 0x2d, 0x6a,
  0xba, 0xbe, 0x6c, 0x19, 0x79, 0xbd, 0x29, 0xdb, 0x14, 0xbd, 0x9e, 0xf2, 0xff,
  0xff, 0x04, 0x00, 0x00, 0x00, 0x04, 0x00, 0x00, 0x00, 0xf4, 0x90, 0x5a, 0xbe,
  0xae, 0xf2, 0xff, 0xff, 0x04, 0x00, 0x00, 0x00, 0x28, 0x00, 0x00, 0x00, 0xb0,
  0x55, 0xd8, 0x3c, 0xcc, 0xe5, 0x02, 0x3d, 0x35, 0xd4, 0x5a, 0x3f, 0x4a, 0xd7,
  0x99, 0xbc, 0xbb, 0x1e, 0x70, 0xbd, 0x7c, 0x4e, 0xac, 0x3c, 0x29, 0x25, 0xaa,
  0x3e, 0x6d, 0x5c, 0x56, 0x3e, 0xfb, 0x27, 0x43, 0xbc, 0x8d, 0xc1, 0xad, 0xbd,
  0xe2, 0xf2, 0xff, 0xff, 0x04, 0x00, 0x00, 0x00, 0x68, 0x01, 0x00, 0x00, 0x27,
  0x91, 0x56, 0xbf, 0x5d, 0x5a, 0xfd, 0x3e, 0x28, 0x43, 0xdc, 0xbf, 0x7e, 0xf7,
  0x83, 0x3f, 0x50, 0x30, 0xa8, 0x3e, 0x2b, 0xac, 0x5d, 0x3f, 0xb7, 0xbf, 0xb2,
  0x3e, 0xc0, 0xaa, 0x13, 0x3e, 0x96, 0x2b, 0x50, 0x3f, 0x9c, 0xd6, 0x91, 0xbe,
  0x16, 0x01, 0xae, 0xbf, 0x67, 0x56, 0x5b, 0x3e, 0xa3, 0x20, 0x3d, 0xbe, 0x8e,
  0x19, 0x0e, 0x40, 0x76, 0xd2, 0x82, 0x40, 0xe3, 0xce, 0x91, 0x3e, 0x8b, 0xab,
  0x3a, 0x3e, 0x36, 0xf3, 0x19, 0xbe, 0x53, 0x20, 0xff, 0xbe, 0x53, 0xbb, 0x8e,
  0xbe, 0xc2, 0x3d, 0xe7, 0x3b, 0x65, 0x08, 0xa4, 0x3e, 0x23, 0xe0, 0x13, 0x3f,
  0x55, 0xca, 0x49, 0x3f, 0x3a, 0xee, 0x98, 0xbe, 0xdb, 0x30, 0x40, 0xbe, 0xcf,
  0x5c, 0x0c, 0x3d, 0xae, 0xa4, 0x8d, 0xbe, 0xa1, 0x84, 0xa9, 0xbe, 0xae, 0x31,
  0x0e, 0xbe, 0xa3, 0x7e, 0x9a, 0x3e, 0xab, 0x85, 0x22, 0xbe, 0xef, 0x33, 0xb3,
  0x3e, 0x81, 0xe7, 0x30, 0xbf, 0x02, 0x92, 0x36, 0xbe, 0x0c, 0x82, 0x01, 0xbf,
  0x69, 0x8d, 0x68, 0x3e, 0x82, 0x40, 0x1e, 0xbe, 0x87, 0x16, 0xce, 0xbe, 0xe3,
  0xc6, 0x8d, 0x3f, 0x4c, 0x34, 0x61, 0x3f, 0x69, 0xb6, 0x66, 0x3f, 0x73, 0x65,
  0x77, 0xbe, 0xb4, 0x44, 0x8a, 0x3e, 0x1e, 0xc4, 0x9a, 0x3f, 0x00, 0xc2, 0x14,
  0x3f, 0x04, 0xe3, 0x16, 0x3e, 0x55, 0x23, 0x1d, 0x3e, 0xda, 0x80, 0x54, 0x3e,
  0x17, 0x45, 0x76, 0x3e, 0x18, 0xf5, 0x78, 0x3e, 0x9b, 0x80, 0x49, 0x3f, 0x29,
  0x67, 0xf8, 0xbe, 0xa3, 0x0a, 0x06, 0xbf, 0x5b, 0xef, 0xf4, 0x3e, 0xd7, 0xd5,
  0x0d, 0xbf, 0x4a, 0x20, 0xc3, 0xbe, 0x50, 0x03, 0x35, 0xbc, 0xed, 0x76, 0x3d,
  0xbe, 0xf4, 0x23, 0x12, 0xbf, 0x5b, 0x8b, 0x7f, 0xbf, 0x56, 0x77, 0x85, 0x3e,
  0xf8, 0xf6, 0xfc, 0x3d, 0x2f, 0x41, 0x43, 0xbe, 0x47, 0x72, 0x45, 0xbe, 0xb8,
  0x8d, 0x40, 0xbe, 0x53, 0x4b, 0x3a, 0x3f, 0x24, 0xbe, 0x67, 0xbd, 0x25, 0x32,
  0x86, 0xbd, 0xe4, 0xd3, 0xfd, 0x3e, 0x23, 0x8d, 0x60, 0xbe, 0x30, 0xfc, 0xf1,
  0xbe, 0x3e, 0xbf, 0x47, 0xbd, 0x5d, 0x56, 0x77, 0xbe, 0xaf, 0x31, 0x86, 0xbe,
  0x51, 0x28, 0x0e, 0x3f, 0xde, 0x1a, 0x08, 0x3f, 0x29, 0x3e, 0xfa, 0x3e, 0x79,
  0xec, 0x4f, 0xbe, 0xb5, 0xc4, 0x2a, 0xbf, 0x1f, 0xd9, 0x31, 0xbf, 0x74, 0xc5,
  0xbb, 0x3d, 0x18, 0x1c, 0xfd, 0xbd, 0x5b, 0xdd, 0xe1, 0xbe, 0x65, 0x91, 0xd1,
  0x3e, 0x1f, 0xb1, 0x81, 0xbe, 0xc7, 0x2b, 0xba, 0xbf, 0x29, 0x3c, 0x2d, 0xbf,
  0xe6, 0xf9, 0x5b, 0xbf, 0xc1, 0x5e, 0x90, 0xbf, 0x56, 0xf4, 0xff, 0xff, 0x04,
  0x00, 0x00, 0x00, 0x48, 0x00, 0x00, 0x00, 0x9a, 0x88, 0x91, 0x3e, 0x00, 0x49,
  0xf4, 0x3d, 0x1d, 0xf1, 0x7d, 0x3f, 0x80, 0xf2, 0x88, 0x3e, 0x6e, 0x3d, 0x0a,
  0x3f, 0xe7, 0x28, 0xcf, 0x3e, 0x51, 0x35, 0x30, 0x3f, 0x52, 0xcc, 0xaf, 0x3e,
  0x8d, 0xe5, 0xb8, 0x3f, 0x5e, 0x63, 0xa8, 0xbf, 0x30, 0x2b, 0x6e, 0x3d, 0xba,
  0xa8, 0xfd, 0xbd, 0x1e, 0x3e, 0x8d, 0x3e, 0x51, 0x21, 0x4f, 0xbf, 0xbc, 0x5a,
  0x02, 0x3f, 0x42, 0xc2, 0x14, 0xbe, 0x64, 0x90, 0xb0, 0xbe, 0x2a, 0xb2, 0x29,
  0x3e, 0xaa, 0xf4, 0xff, 0xff, 0x04, 0x00, 0x00, 0x00, 0x68, 0x01, 0x00, 0x00,
  0x47, 0x7a, 0xbe, 0x3d, 0x8d, 0xe9, 0x11, 0x3e, 0xec, 0x2d, 0x4c, 0xbe, 0xc5,
  0x85, 0x4f, 0xbf, 0x76, 0x36, 0x65, 0x3f, 0x72, 0x3c, 0x65, 0x3d, 0xfb, 0x40,
  0xfb, 0xbe, 0x71, 0x1a, 0x40, 0xbe, 0x01, 0x95, 0x91, 0x3e, 0x3e, 0xf9, 0x5a,
  0xbd, 0x3d, 0x72, 0xa3, 0x3e, 0x80, 0x27, 0xa1, 0x3f, 0x4b, 0x85, 0xc0, 0xbe,
  0xd5, 0x0d, 0x8b, 0xbe, 0x14, 0x6a, 0xb8, 0x3d, 0x3f, 0x52, 0x67, 0xbf, 0x6b,
  0xaa, 0x48, 0xbf, 0x8e, 0x72, 0xc4, 0xbe, 0xd7, 0xda, 0xe3, 0xbf, 0x3a, 0xaa,
  0x2f, 0xbf, 0x10, 0xbd, 0x97, 0xbe, 0x58, 0xac, 0x4c, 0xbf, 0x37, 0x47, 0x32,
  0xbf, 0xb8, 0xbd, 0x8e, 0x3e, 0xfd, 0x07, 0x2d, 0xbf, 0x8d, 0x4c, 0xf7, 0x3e,
  0xf2, 0x09, 0x9f, 0x3e, 0x78, 0x42, 0xbc, 0xbe, 0x06, 0x9e, 0xcd, 0xbd, 0x0f,
  0x29, 0x25, 0x3d, 0x39, 0x3b, 0xd7, 0xbd, 0x2a, 0xf9, 0x59, 0xbe, 0x41, 0xdd,
  0xd2, 0x3d, 0x1b, 0x92, 0xea, 0x3e, 0x05, 0xda, 0x56, 0x3f, 0x26, 0x13, 0x13,
  0x3f, 0xd1, 0x43, 0x83, 0x3f, 0xc3, 0xc7, 0x56, 0x3f, 0x01, 0xa1, 0x8c, 0x3e,
  0x38, 0x9a, 0x7b, 0x3f, 0x9a, 0x22, 0x8e, 0x3b, 0xc9, 0x0e, 0x9b, 0x3d, 0x6f,
  0x32, 0x6e, 0x3e, 0x99, 0x55, 0xec, 0x3d, 0x84, 0x61, 0x0e, 0xbf, 0xb6, 0xb8,
  0xe8, 0xbf, 0x66, 0xb8, 0x8a, 0xbe, 0x34, 0x09, 0xbf, 0xbe, 0x78, 0xb7, 0xa3,
  0xbf, 0x46, 0x07, 0xab, 0xbf, 0xf4, 0x10, 0x8b, 0xbf, 0x7e, 0x4b, 0xa0, 0xbe,
  0x77, 0xa3, 0xdc, 0xbe, 0x69, 0xca, 0x21, 0xbf, 0xd5, 0xe1, 0x48, 0xbf, 0xdb,
  0x8c, 0x39, 0xbf, 0x3e, 0xa7, 0x0f, 0x3f, 0x1b, 0xde, 0xa3, 0x3e, 0xd0, 0xc3,
  0x34, 0xbf, 0x16, 0xbb, 0xf0, 0xbc, 0x1b, 0xff, 0x1f, 0x3f, 0xbe, 0xa4, 0x7d,
  0x3e, 0x25, 0xf0, 0xfe, 0x3d, 0x7c, 0x2c, 0x22, 0x3f, 0x96, 0x58, 0x8a, 0x3f,
  0x5e, 0x19, 0x5a, 0x3f, 0xfd, 0xa2, 0x30, 0xbf, 0x4c, 0xd7, 0xba, 0xbe, 0x3f,
  0xf3, 0x2f, 0x3e, 0x1a, 0x5b, 0xc4, 0xbe, 0x5a, 0x0a, 0x9e, 0x3e, 0xd7, 0x53,
  0x7d, 0x3e, 0xd8, 0x4b, 0x00, 0x3d, 0x97, 0xd5, 0xa9, 0xbd, 0x29, 0x73, 0x0d,
  0xbe, 0x0a, 0x55, 0xb5, 0x3f, 0x92, 0x5d, 0x10, 0x3f, 0x19, 0x42, 0x56, 0x3e,
  0xea, 0xd1, 0x9d, 0xbd, 0x31, 0x34, 0xa8, 0x3e, 0xfc, 0xbb, 0x8d, 0x3e, 0xe2,
  0xfc, 0xd8, 0xbe, 0x0a, 0x99, 0x2a, 0xbf, 0x1a, 0xb5, 0x98, 0xbe, 0x0b, 0x68,
  0xa3, 0x3f, 0x3a, 0xa0, 0x2c, 0x3f, 0x99, 0x34, 0xf3, 0x3e, 0x9d, 0x26, 0x7f,
  0x3e, 0x3e, 0xcb, 0x99, 0xbe, 0x42, 0x95, 0xca, 0xbe, 0x1e, 0xf6, 0xff, 0xff,
  0x04, 0x00, 0x00, 0x00, 0x48, 0x00, 0x00, 0x00, 0xe8, 0xbe, 0xbf, 0xbe, 0x3c,
  0xb4, 0xda, 0x3e, 0xfe, 0x40, 0xf4, 0x3e, 0x9f, 0xac, 0x26, 0xbc, 0x4e, 0x73,
  0xc2, 0xbe, 0x69, 0xc1, 0x7f, 0x3c, 0xba, 0x59, 0x5c, 0x3d, 0x7d, 0xac, 0xa2,
  0x3d, 0x73, 0x2d, 0x90, 0x3f, 0x65, 0x18, 0x14, 0xbe, 0x1a, 0x94, 0x82, 0xbf,
  0x7b, 0xa3, 0x26, 0x3f, 0xf8, 0x90, 0x0a, 0x3f, 0xfa, 0xc0, 0x1f, 0x3f, 0xad,
  0x6d, 0xf1, 0xbe, 0x5b, 0xec, 0xcc, 0x3e, 0xa4, 0x40, 0x2f, 0xbf, 0x41, 0xa7,
  0x4e, 0x3e, 0x72, 0xf6, 0xff, 0xff, 0x04, 0x00, 0x00, 0x00, 0x98, 0x03, 0x00,
  0x00, 0xc1, 0xbe, 0x1b, 0x3d, 0xa7, 0xfb, 0xdb, 0xbe, 0x51, 0xcb, 0x84, 0xbe,
  0x3d, 0xca, 0xbb, 0x3e, 0xf7, 0x2b, 0x22, 0xbe, 0xb1, 0x73, 0x1b, 0x3e, 0x8a,
  0xe7, 0x06, 0x3e, 0x1e, 0x97, 0xd6, 0x3d, 0x18, 0x5d, 0xcd, 0xbc, 0x63, 0x7c,
  0xad, 0x3e, 0x81, 0xdd, 0x31, 0x3f, 0x35, 0x15, 0x8c, 0x3e, 0x32, 0xdc, 0x30,
  0x3e, 0xb8, 0xe6, 0xc8, 0xbd, 0xa4, 0xf6, 0xaf, 0x3d, 0xb0, 0xd7, 0x11, 0x3d,
  0x5f, 0x62, 0x57, 0x3e, 0x5b, 0x61, 0x8e, 0x3c, 0x0b, 0x31, 0x1c, 0x3e, 0xb9,
  0xbb, 0x93, 0xbd, 0x71, 0x68, 0xd3, 0xbd, 0x6a, 0xdf, 0x52, 0x3e, 0x9e, 0xa9,
  0xdf, 0x3f, 0x51, 0xd3, 0x46, 0xbf, 0xe6, 0xb9, 0x55, 0x3e, 0xb4, 0x2a, 0xd6,
  0x3b, 0x9f, 0xe6, 0x70, 0x3d, 0x89, 0x5a, 0x99, 0xbe, 0x9b, 0x7d, 0x71, 0xbf,
  0x84, 0x17, 0xab, 0x3d, 0xa2, 0x54, 0x8d, 0x3d, 0x59, 0x85, 0xb0, 0xbe, 0xe7,
  0x7f, 0xec, 0x3d, 0xa0, 0xa2, 0x52, 0xbf, 0x5e, 0xec, 0xb6, 0x3e, 0xe1, 0x2b,
  0xd1, 0x3c, 0x53, 0x28, 0x38, 0x3e, 0x3e, 0xa2, 0x29, 0xbe, 0x8e, 0x6c, 0xba,
  0xbe, 0x7e, 0x33, 0xab, 0x3e, 0x3e, 0x76, 0x83, 0x3e, 0xc7, 0x63, 0xda, 0x3e,
  0x84, 0x82, 0x29, 0x3d, 0x9c, 0xec, 0x21, 0xbc, 0x00, 0xf2, 0x43, 0x3e, 0x4f,
  0xe4, 0xfd, 0x3f, 0x37, 0x4a, 0x0f, 0xbf, 0x3c, 0x6b, 0xd5, 0x3d, 0x86, 0x7d,
  0x29, 0xbe, 0x9b, 0x7b, 0x27, 0xbd, 0xd0, 0x17, 0x9e, 0x3e, 0xea, 0x8d, 0x51,
  0x3e, 0xb2, 0x83, 0x70, 0xbe, 0xae, 0xf8, 0x0f, 0x3e, 0xe2, 0xc8, 0xe2, 0x3e,
  0x2b, 0x36, 0x2a, 0x3f, 0xd7, 0xe8, 0x43, 0xbe, 0x9e, 0x18, 0xbb, 0x3e, 0xb9,
  0x0b, 0xa9, 0xbd, 0x11, 0x18, 0x2b, 0x3e, 0xf3, 0xb3, 0xce, 0xbe, 0x32, 0xa9,
  0xa9, 0x3f, 0xd0, 0x99, 0x7a, 0x3e, 0xb3, 0xaf, 0x67, 0xbe, 0x68, 0x5f, 0xf0,
  0x3d, 0xbf, 0xb5, 0xbf, 0xbe, 0x43, 0xc6, 0xb0, 0xbe, 0x9f, 0xff, 0x88, 0xbd,
  0x7b, 0x86, 0x83, 0x3f, 0xb3, 0x15, 0xa9, 0x3f, 0x2c, 0x8d, 0x03, 0x3d, 0xf9,
  0x55, 0x67, 0xbf, 0x94, 0xb2, 0x8c, 0xbe, 0x28, 0x7d, 0x16, 0xbf, 0x47, 0xaf,
  0xf8, 0x3b, 0xd6, 0x35, 0x06, 0x3e, 0x83, 0xba, 0x3a, 0x3d, 0x38, 0xd8, 0x24,
  0x3e, 0x63, 0x47, 0x9d, 0x3e, 0x19, 0x7b, 0x3d, 0xbf, 0x3e, 0xd2, 0xed, 0x3e,
  0xa5, 0x2c, 0xa2, 0x3c, 0x10, 0x5d, 0x40, 0x3e, 0x76, 0x78, 0x0f, 0x3e, 0x2b,
  0xc9, 0x3a, 0xbf, 0xc7, 0x0c, 0x16, 0x3e, 0xfa, 0xea, 0xaf, 0x3d, 0x31, 0xea,
  0x0f, 0x3e, 0xbe, 0x5d, 0x22, 0x3c, 0xfa, 0x65, 0x7c, 0xbc, 0x2b, 0xd4, 0xc2,
  0x3c, 0xd4, 0x65, 0x08, 0xbf, 0x45, 0x0c, 0x1f, 0xbf, 0xc2, 0x68, 0x81, 0x3e,
  0xa5, 0xe0, 0x90, 0x3e, 0xd8, 0xcd, 0xcc, 0x3e, 0xb2, 0xa9, 0x39, 0x3e, 0xf7,
  0x41, 0x20, 0xbf, 0x85, 0x0a, 0x56, 0xbd, 0x61, 0x3c, 0x1c, 0xbf, 0x97, 0x17,
  0xde, 0xbe, 0x6a, 0x67, 0x4e, 0xbf, 0xfc, 0xfb, 0xa7, 0x3e, 0x7a, 0x49, 0xa2,
  0x3e, 0xb5, 0x02, 0x12, 0x3e, 0x16, 0x79, 0x26, 0xbe, 0x55, 0x90, 0xb9, 0xbd,
  0x2b, 0xea, 0xf1, 0xbd, 0xad, 0xf5, 0x50, 0xbe, 0x06, 0x1b, 0xac, 0xbe, 0x13,
  0x78, 0xd6, 0x3d, 0x92, 0xe6, 0x3c, 0xbd, 0xdc, 0x18, 0x31, 0xbe, 0xc2, 0xa6,
  0x4b, 0x3e, 0x3b, 0x11, 0x0d, 0xbf, 0x23, 0xc9, 0x7f, 0xbf, 0xd6, 0x01, 0x17,
  0x3f, 0xcb, 0xe8, 0x89, 0xbe, 0xba, 0x3c, 0xe8, 0x3e, 0x59, 0xa0, 0x8b, 0x3e,
  0xbf, 0x8f, 0xb5, 0xbe, 0xbf, 0x1f, 0x87, 0x3d, 0x5f, 0xfb, 0xdb, 0xbd, 0x4a,
  0xbc, 0x14, 0x3e, 0xd5, 0xae, 0x77, 0x3e, 0x31, 0x0a, 0x7d, 0xbf, 0xc7, 0xff,
  0x4a, 0x3e, 0x90, 0x52, 0xcf, 0x3e, 0x25, 0xe7, 0x27, 0x3e, 0x7f, 0xc5, 0xad,
  0x3e, 0x68, 0x24, 0xd0, 0xbe, 0x6b, 0x2f, 0x91, 0xbd, 0x6b, 0xf1, 0x03, 0xbc,
  0xf8, 0x13, 0xff, 0xbd, 0x78, 0xd1, 0xe0, 0xbd, 0x2a, 0x00, 0xa5, 0x3e, 0x9f,
  0x48, 0xa0, 0x3e, 0x2a, 0x1a, 0x7a, 0x3e, 0x59, 0x2d, 0x12, 0x3f, 0xca, 0x01,
  0xe2, 0xbe, 0x57, 0xc4, 0x40, 0xbe, 0x8b, 0xbb, 0xe2, 0xbe, 0x28, 0xf1, 0x2a,
  0xbf, 0xc2, 0x93, 0x16, 0x3e, 0x3f, 0xba, 0x6f, 0x3e, 0x76, 0x5d, 0xa7, 0x3e,
  0x2b, 0x3c, 0xdf, 0x3c, 0x61, 0x8a, 0x48, 0x3e, 0x84, 0xd1, 0x54, 0xbf, 0x49,
  0xf6, 0xf5, 0x3e, 0x95, 0xc7, 0xa4, 0x3d, 0xee, 0x4a, 0xbb, 0xbe, 0x5c, 0x88,
  0x1b, 0xbe, 0x9b, 0x28, 0x70, 0xbf, 0xac, 0x6f, 0x1d, 0xbe, 0x95, 0x1a, 0x1e,
  0xbe, 0xf3, 0x83, 0xc9, 0x3d, 0x56, 0x69, 0x45, 0x3c, 0x7f, 0x21, 0x14, 0xbf,
  0x05, 0x60, 0x4a, 0xbe, 0xd7, 0x5b, 0xc3, 0xbf, 0x61, 0x59, 0xcc, 0x3f, 0xb9,
  0x15, 0x96, 0xbf, 0x30, 0xa6, 0x9e, 0x3d, 0xb6, 0x64, 0xa4, 0xbe, 0xec, 0x6a,
  0x72, 0xbe, 0xa3, 0x57, 0xb8, 0x3e, 0x0a, 0x4e, 0x50, 0x3c, 0x04, 0xad, 0xe4,
  0x3d, 0xfd, 0x0c, 0xc3, 0x3c, 0xde, 0x10, 0xf6, 0x3d, 0x50, 0x4b, 0x68, 0xbf,
  0xb0, 0x87, 0xf5, 0xbe, 0x18, 0x08, 0x62, 0xbd, 0x70, 0x08, 0x8d, 0xbe, 0x82,
  0x47, 0x62, 0xbe, 0x14, 0x37, 0x92, 0xbf, 0xba, 0xde, 0x72, 0xbd, 0x64, 0xce,
  0xde, 0xbe, 0x4a, 0x1c, 0x82, 0xbe, 0x68, 0x49, 0xd8, 0xbe, 0xe6, 0x40, 0x51,
  0xbd, 0xfb, 0xb5, 0xce, 0x3d, 0x43, 0xd4, 0x48, 0xbf, 0xe2, 0x2b, 0xaa, 0x3d,
  0x76, 0xf5, 0x01, 0x3f, 0x66, 0xa7, 0x27, 0xbf, 0x5a, 0xcd, 0x7f, 0x3e, 0x47,
  0x6a, 0x3b, 0xbf, 0xc6, 0x04, 0xa0, 0xbe, 0x24, 0x3f, 0xd5, 0x3e, 0x0b, 0xd3,
  0x0f, 0xbe, 0x20, 0x88, 0xb0, 0x3e, 0x38, 0x4f, 0xf1, 0xbd, 0xa7, 0xce, 0x6e,
  0x3d, 0x82, 0xa5, 0x5e, 0xbf, 0x74, 0x7d, 0xed, 0x3e, 0x86, 0x18, 0xa8, 0xbe,
  0xaf, 0xe1, 0xb5, 0x3f, 0x43, 0x9b, 0x77, 0x3f, 0xaf, 0xd6, 0x06, 0xbf, 0x71,
  0x54, 0xda, 0x3e, 0x3a, 0x45, 0x31, 0xbf, 0x2a, 0x44, 0x59, 0x3f, 0xe9, 0x6e,
  0x68, 0xbd, 0x18, 0xa8, 0xb0, 0x3f, 0xb9, 0x46, 0x61, 0x3f, 0x94, 0x50, 0x49,
  0xbf, 0xf6, 0x61, 0xbb, 0xbe, 0x93, 0x50, 0x7f, 0x3f, 0x61, 0x13, 0x92, 0x3e,
  0xb6, 0x84, 0x0e, 0x3e, 0x30, 0x80, 0x0e, 0xbf, 0x62, 0xae, 0xc6, 0xbe, 0x92,
  0xd9, 0x41, 0xbe, 0xd1, 0x68, 0x0a, 0xbf, 0x77, 0x69, 0xdf, 0x3b, 0xf9, 0x37,
  0x32, 0xbe, 0xff, 0xba, 0xd0, 0xbd, 0xa7, 0x40, 0x9b, 0xbc, 0xcc, 0x38, 0xb7,
  0x3d, 0x06, 0xaf, 0xdf, 0xbd, 0x46, 0x5a, 0x48, 0xbe, 0xa6, 0x59, 0xb5, 0x3e,
  0x7e, 0x1e, 0x8f, 0xbe, 0xba, 0x47, 0x0e, 0x3e, 0xfb, 0xcb, 0x6c, 0xbe, 0xfc,
  0xca, 0x8d, 0xbc, 0xff, 0x70, 0x3e, 0x3d, 0x26, 0x21, 0x91, 0x3f, 0x16, 0xfa,
  0xff, 0xff, 0x04, 0x00, 0x00, 0x00, 0xc8, 0x00, 0x00, 0x00, 0x69, 0x04, 0x79,
  0x3e, 0x6b, 0x9b, 0x1d, 0x3f, 0x9f, 0xee, 0xf0, 0x3c, 0x7f, 0x1b, 0x26, 0xbf,
  0x8d, 0x28, 0x33, 0xbf, 0x90, 0xed, 0x20, 0x3f, 0xc1, 0x0a, 0xf8, 0xbc, 0x6f,
  0x3e, 0x8f, 0xbe, 0x3e, 0x4a, 0x23, 0xbe, 0x72, 0x26, 0xc9, 0x3e, 0x3a, 0x88,
  0x21, 0xbf, 0x1b, 0xca, 0x99, 0x3e, 0x1e, 0x3e, 0x2d, 0x3f, 0x08, 0xab, 0x8d,
  0xbf, 0x10, 0xcd, 0x63, 0x3e, 0xf9, 0xd4, 0x4f, 0xbe, 0x83, 0x60, 0x08, 0x3d,
  0xc4, 0x04, 0xfd, 0xbe, 0xe5, 0x8d, 0x3b, 0x3f, 0x36, 0x76, 0x67, 0x3e, 0x7f,
  0xe9, 0xef, 0x3e, 0x73, 0xf5, 0x10, 0x3f, 0x1a, 0x67, 0xc0, 0x3e, 0x76, 0x43,
  0x16, 0xbf, 0x5a, 0xcb, 0xc8, 0xbe, 0x4e, 0xc8, 0x0f, 0x3e, 0x72, 0x55, 0x2b,
  0xbc, 0xa2, 0x0b, 0xf6, 0x3e, 0xe4, 0x41, 0x4d, 0x3e, 0x02, 0xd3, 0xa0, 0x3e,
  0xcc, 0xf3, 0x2d, 0xbf, 0x15, 0xea, 0xcc, 0x3e, 0x1c, 0x35, 0xf7, 0x3d, 0x84,
  0x16, 0x04, 0x3f, 0x24, 0xf9, 0x47, 0xbe, 0x31, 0x69, 0xf3, 0xbe, 0xfa, 0xce,
  0x86, 0x3e, 0x4e, 0x89, 0x64, 0x3f, 0x90, 0x28, 0xb4, 0xbd, 0xcb, 0x7a, 0x4e,
  0xbf, 0x42, 0x58, 0x16, 0xbf, 0x4f, 0x1d, 0xa2, 0x3e, 0x5c, 0xca, 0x88, 0xbe,
  0xb3, 0x75, 0x21, 0x3f, 0x7f, 0xdd, 0x4c, 0x3f, 0x36, 0xd8, 0x8d, 0x3e, 0xdf,
  0x27, 0x2b, 0xbd, 0x66, 0xe0, 0x9a, 0xbe, 0x5d, 0xf1, 0x81, 0xbe, 0x9d, 0xf8,
  0x71, 0xbf, 0xea, 0xfa, 0xff, 0xff, 0x04, 0x00, 0x00, 0x00, 0x88, 0x01, 0x00,
  0x00, 0xd7, 0xd8, 0x06, 0x3f, 0x2e, 0x75, 0x38, 0x3e, 0xab, 0x64, 0x7c, 0x3c,
  0x39, 0x00, 0xf7, 0xbe, 0x0f, 0x50, 0x35, 0xbe, 0x64, 0x50, 0x89, 0xbe, 0xb3,
  0x99, 0x1f, 0x3f, 0x68, 0x56, 0x97, 0x3c, 0xd7, 0xb2, 0x22, 0x3f, 0x59, 0xf8,
  0x32, 0x3a, 0x33, 0xfb, 0x81, 0xbf, 0x61, 0x92, 0xb2, 0x3d, 0x1b, 0xc2, 0x0a,
  0xbf, 0x0a, 0xc5, 0x82, 0xbe, 0x43, 0xca, 0x4f, 0x3f, 0xed, 0xef, 0x80, 0xbe,
  0x11, 0x00, 0x8d, 0xbe, 0xae, 0x93, 0x10, 0x3f, 0x5d, 0x8c, 0x8b, 0x3f, 0xd5,
  0xbe, 0xfb, 0x3e, 0x91, 0xfe, 0xdc, 0xbe, 0xfc, 0x09, 0xd0, 0x3e, 0xb3, 0x4b,
  0x35, 0x3e, 0xa0, 0x13, 0xa3, 0x3f, 0x05, 0x82, 0xe4, 0x3f, 0x54, 0x7c, 0xc9,
  0x3f, 0xa7, 0x43, 0x7d, 0x3f, 0x23, 0x01, 0x32, 0x3f, 0x1e, 0x65, 0xb6, 0x3e,
  0x79, 0x4f, 0x04, 0x3f, 0x16, 0xdf, 0x61, 0x3f, 0xfa, 0x89, 0x1f, 0x3f, 0x9c,
  0x0b, 0x25, 0x3f, 0x7c, 0xb0, 0xe4, 0x3e, 0xee, 0x4b, 0x78, 0xbe, 0x7b, 0xc8,
  0xf8, 0x3e, 0x79, 0x88, 0xfa, 0xbd, 0x76, 0xb8, 0x34, 0x3f, 0xcd, 0xe0, 0x87,
  0x3f, 0x42, 0xe8, 0xe1, 0x3e, 0x6f, 0xb2, 0xf0, 0x3e, 0x2b, 0xa6, 0x88, 0xbc,
  0x34, 0x47, 0x9d, 0xbe, 0xf4, 0x7c, 0x3f, 0x3e, 0xb1, 0xb0, 0xd2, 0xbe, 0x3f,
  0x89, 0x80, 0xbe, 0xab, 0xfe, 0x81, 0xbe, 0xf3, 0x90, 0xf8, 0xbe, 0xa1, 0x04,
  0x26, 0x3f, 0x48, 0x6c, 0xad, 0xbf, 0x37, 0x98, 0xd7, 0xbd, 0x4b, 0xaa, 0xff,
  0xbe, 0xc9, 0xf8, 0x25, 0xbf, 0x0b, 0xd8, 0xaf, 0xbe, 0x90, 0x20, 0x08, 0xbf,
  0xf2, 0x05, 0xd4, 0xbd, 0x19, 0xc1, 0x39, 0x3e, 0xab, 0xef, 0x88, 0xbd, 0x0a,
  0xde, 0x80, 0x3e, 0x76, 0x3b, 0x62, 0xbf, 0x09, 0xd9, 0x06, 0x3e, 0x80, 0x87,
  0xaa, 0xbe, 0x8e, 0xb1, 0x24, 0x3f, 0xd7, 0xb1, 0x65, 0xbf, 0xc4, 0x3f, 0x76,
  0x3d, 0x07, 0x04, 0xfd, 0x3d, 0x22, 0x34, 0x7c, 0x3e, 0xd4, 0x51, 0x86, 0xbe,
  0x7c, 0x8a, 0x83, 0xbe, 0x49, 0xdd, 0x05, 0xbe, 0x15, 0x96, 0x69, 0x3e, 0x7c,
  0xde, 0xf1, 0xbe, 0xe0, 0x0f, 0xa0, 0xbf, 0x2b, 0xea, 0x66, 0xbd, 0x81, 0x0c,
  0x90, 0x3e, 0x46, 0x44, 0x96, 0x3e, 0x15, 0x4e, 0x30, 0xbf, 0x1e, 0x6d, 0x53,
  0x3f, 0x43, 0x70, 0x3f, 0x3f, 0x5a, 0xaa, 0xf0, 0xbd, 0xcf, 0x55, 0x78, 0xbf,
  0xc9, 0x87, 0xdc, 0xbf, 0x04, 0x0a, 0x15, 0xbd, 0x29, 0xe6, 0x52, 0xbf, 0xfb,
  0x96, 0x0c, 0x3f, 0x7a, 0x93, 0xca, 0xbe, 0xee, 0x4f, 0x7b, 0xbf, 0x43, 0x53,
  0x3c, 0xbf, 0x47, 0x2e, 0x99, 0xbe, 0x6a, 0x41, 0x1a, 0x3e, 0x69, 0x9c, 0xe3,
  0xbd, 0x06, 0xe9, 0xae, 0x3e, 0xf5, 0x46, 0x8f, 0x3e, 0x79, 0xd9, 0x30, 0x3f,
  0x59, 0x67, 0x77, 0xbf, 0x07, 0xe5, 0xb0, 0xbd, 0xae, 0x3e, 0x4f, 0xbf, 0xb8,
  0x11, 0xc4, 0xbe, 0x7e, 0xfc, 0xff, 0xff, 0x04, 0x00, 0x00, 0x00, 0x1c, 0x00,
  0x00, 0x00, 0xaf, 0x19, 0xc2, 0x3e, 0xc0, 0x39, 0x18, 0x3d, 0x40, 0x83, 0x9f,
  0xbe, 0xaa, 0x43, 0xa1, 0x3e, 0x2f, 0x65, 0x2f, 0x3f, 0xab, 0xc2, 0x5b, 0x3e,
  0xe5, 0x4f, 0x48, 0x3e, 0x4c, 0xf1, 0xff, 0xff, 0x50, 0xf1, 0xff, 0xff, 0x54,
  0xf1, 0xff, 0xff, 0x58, 0xf1, 0xff, 0xff, 0x5c, 0xf1, 0xff, 0xff, 0x0f, 0x00,
  0x00, 0x00, 0x4d, 0x4c, 0x49, 0x52, 0x20, 0x43, 0x6f, 0x6e, 0x76, 0x65, 0x72,
  0x74, 0x65, 0x64, 0x2e, 0x00, 0x01, 0x00, 0x00, 0x00, 0x14, 0x00, 0x00, 0x00,
  0x00, 0x00, 0x0e, 0x00, 0x18, 0x00, 0x14, 0x00, 0x10, 0x00, 0x0c, 0x00, 0x08,
  0x00, 0x04, 0x00, 0x0e, 0x00, 0x00, 0x00, 0x14, 0x00, 0x00, 0x00, 0x1c, 0x00,
  0x00, 0x00, 0x30, 0x03, 0x00, 0x00, 0x34, 0x03, 0x00, 0x00, 0x44, 0x03, 0x00,
  0x00, 0x04, 0x00, 0x00, 0x00, 0x6d, 0x61, 0x69, 0x6e, 0x00, 0x00, 0x00, 0x00,
  0x0d, 0x00, 0x00, 0x00, 0xdc, 0x02, 0x00, 0x00, 0x98, 0x02, 0x00, 0x00, 0x64,
  0x02, 0x00, 0x00, 0x20, 0x02, 0x00, 0x00, 0xd4, 0x01, 0x00, 0x00, 0x98, 0x01,
  0x00, 0x00, 0x5c, 0x01, 0x00, 0x00, 0x20, 0x01, 0x00, 0x00, 0xe4, 0x00, 0x00,
  0x00, 0xa8, 0x00, 0x00, 0x00, 0x6c, 0x00, 0x00, 0x00, 0x34, 0x00, 0x00, 0x00,
  0x10, 0x00, 0x00, 0x00, 0x00, 0x00, 0x0a, 0x00, 0x10, 0x00, 0x0c, 0x00, 0x08,
  0x00, 0x04, 0x00, 0x0a, 0x00, 0x00, 0x00, 0x0c, 0x00, 0x00, 0x00, 0x10, 0x00,
  0x00, 0x00, 0x02, 0x00, 0x00, 0x00, 0x01, 0x00, 0x00, 0x00, 0x20, 0x00, 0x00,
  0x00, 0x01, 0x00, 0x00, 0x00, 0x1f, 0x00, 0x00, 0x00, 0x42, 0xfe, 0xff, 0xff,
  0x14, 0x00, 0x00, 0x00, 0x00, 0x00, 0x00, 0x08, 0x10, 0x00, 0x00, 0x00, 0x14,
  0x00, 0x00, 0x00, 0x01, 0x00, 0x00, 0x00, 0x2c, 0xf2, 0xff, 0xff, 0x01, 0x00,
  0x00, 0x00, 0x1f, 0x00, 0x00, 0x00, 0x03, 0x00, 0x00, 0x00, 0x1e, 0x00, 0x00,
  0x00, 0x04, 0x00, 0x00, 0x00, 0x0d, 0x00, 0x00, 0x00, 0x76, 0xfe, 0xff, 0xff,
  0x14, 0x00, 0x00, 0x00, 0x00, 0x00, 0x00, 0x08, 0x14, 0x00, 0x00, 0x00, 0x18,
  0x00, 0x00, 0x00, 0x01, 0x00, 0x00, 0x00, 0x66, 0xfe, 0xff, 0xff, 0x00, 0x00,
  0x00, 0x01, 0x01, 0x00, 0x00, 0x00, 0x1e, 0x00, 0x00, 0x00, 0x03, 0x00, 0x00,
  0x00, 0x1d, 0x00, 0x00, 0x00, 0x05, 0x00, 0x00, 0x00, 0x0e, 0x00, 0x00, 0x00,
  0xfe, 0xfd, 0xff, 0xff, 0x10, 0x00, 0x00, 0x00, 0x00, 0x00, 0x00, 0x0a, 0x10,
  0x00, 0x00, 0x00, 0x14, 0x00, 0x00, 0x00, 0xee, 0xfd, 0xff, 0xff, 0x01, 0x00,
  0x00, 0x00, 0x01, 0x00, 0x00, 0x00, 0x1d, 0x00, 0x00, 0x00, 0x04, 0x00, 0x00,
  0x00, 0x00, 0x00, 0x00, 0x00, 0x1c, 0x00, 0x00, 0x00, 0x18, 0x00, 0x00, 0x00,
  0x1a, 0x00, 0x00, 0x00, 0xe6, 0xfe, 0xff, 0xff, 0x14, 0x00, 0x00, 0x00, 0x00,
  0x00, 0x00, 0x08, 0x14, 0x00, 0x00, 0x00, 0x18, 0x00, 0x00, 0x00, 0x01, 0x00,
  0x00, 0x00, 0xd6, 0xfe, 0xff, 0xff, 0x00, 0x00, 0x00, 0x01, 0x01, 0x00, 0x00,
  0x00, 0x1c, 0x00, 0x00, 0x00, 0x03, 0x00, 0x00, 0x00, 0x1b, 0x00, 0x00, 0x00,
  0x06, 0x00, 0x00, 0x00, 0x13, 0x00, 0x00, 0x00, 0x1e, 0xff, 0xff, 0xff, 0x14,
  0x00, 0x00, 0x00, 0x00, 0x00, 0x00, 0x08, 0x14, 0x00, 0x00, 0x00, 0x18, 0x00,
  0x00, 0x00, 0x01, 0x00, 0x00, 0x00, 0x0e, 0xff, 0xff, 0xff, 0x00, 0x00, 0x00,
  0x01, 0x01, 0x00, 0x00, 0x00, 0x1b, 0x00, 0x00, 0x00, 0x03, 0x00, 0x00, 0x00,
  0x14, 0x00, 0x00, 0x00, 0x07, 0x00, 0x00, 0x00, 0x0c, 0x00, 0x00, 0x00, 0x56,
  0xff, 0xff, 0xff, 0x14, 0x00, 0x00, 0x00, 0x00, 0x00, 0x00, 0x08, 0x14, 0x00,
  0x00, 0x00, 0x18, 0x00, 0x00, 0x00, 0x01, 0x00, 0x00, 0x00, 0x46, 0xff, 0xff,
  0xff, 0x00, 0x00, 0x00, 0x01, 0x01, 0x00, 0x00, 0x00, 0x1a, 0x00, 0x00, 0x00,
  0x03, 0x00, 0x00, 0x00, 0x19, 0x00, 0x00, 0x00, 0x08, 0x00, 0x00, 0x00, 0x0f,
  0x00, 0x00, 0x00, 0x8e, 0xff, 0xff, 0xff, 0x14, 0x00, 0x00, 0x00, 0x00, 0x00,
  0x00, 0x08, 0x14, 0x00, 0x00, 0x00, 0x18, 0x00, 0x00, 0x00, 0x01, 0x00, 0x00,
  0x00, 0x7e, 0xff, 0xff, 0xff, 0x00, 0x00, 0x00, 0x01, 0x01, 0x00, 0x00, 0x00,
  0x19, 0x00, 0x00, 0x00, 0x03, 0x00, 0x00, 0x00, 0x16, 0x00, 0x00, 0x00, 0x09,
  0x00, 0x00, 0x00, 0x10, 0x00, 0x00, 0x00, 0xc6, 0xff, 0xff, 0xff, 0x14, 0x00,
  0x00, 0x00, 0x00, 0x00, 0x00, 0x08, 0x14, 0x00, 0x00, 0x00, 0x18, 0x00, 0x00,
  0x00, 0x01, 0x00, 0x00, 0x00, 0xb6, 0xff, 0xff, 0xff, 0x00, 0x00, 0x00, 0x01,
  0x01, 0x00, 0x00, 0x00, 0x18, 0x00, 0x00, 0x00, 0x03, 0x00, 0x00, 0x00, 0x17,
  0x00, 0x00, 0x00, 0x0a, 0x00, 0x00, 0x00, 0x11, 0x00, 0x00, 0x00, 0x00, 0x00,
  0x0e, 0x00, 0x1a, 0x00, 0x14, 0x00, 0x10, 0x00, 0x0c, 0x00, 0x0b, 0x00, 0x04,
  0x00, 0x0e, 0x00, 0x00, 0x00, 0x1c, 0x00, 0x00, 0x00, 0x00, 0x00, 0x00, 0x08,
  0x1c, 0x00, 0x00, 0x00, 0x20, 0x00, 0x00, 0x00, 0x01, 0x00, 0x00, 0x00, 0x00,
  0x00, 0x06, 0x00, 0x08, 0x00, 0x07, 0x00, 0x06, 0x00, 0x00, 0x00, 0x00, 0x00,
  0x00, 0x01, 0x01, 0x00, 0x00, 0x00, 0x17, 0x00, 0x00, 0x00, 0x03, 0x00, 0x00,
  0x00, 0x15, 0x00, 0x00, 0x00, 0x0b, 0x00, 0x00, 0x00, 0x12, 0x00, 0x00, 0x00,
  0x9e, 0xff, 0xff, 0xff, 0x10, 0x00, 0x00, 0x00, 0x00, 0x00, 0x00, 0x0a, 0x10,
  0x00, 0x00, 0x00, 0x14, 0x00, 0x00, 0x00, 0x8e, 0xff, 0xff, 0xff, 0x01, 0x00,
  0x00, 0x00, 0x01, 0x00, 0x00, 0x00, 0x16, 0x00, 0x00, 0x00, 0x02, 0x00, 0x00,
  0x00, 0x01, 0x00, 0x00, 0x00, 0x00, 0x00, 0x00, 0x00, 0xce, 0xff, 0xff, 0xff,
  0x10, 0x00, 0x00, 0x00, 0x00, 0x00, 0x00, 0x0a, 0x10, 0x00, 0x00, 0x00, 0x14,
  0x00, 0x00, 0x00, 0xbe, 0xff, 0xff, 0xff, 0x01, 0x00, 0x00, 0x00, 0x01, 0x00,
  0x00, 0x00, 0x15, 0x00, 0x00, 0x00, 0x02, 0x00, 0x00, 0x00, 0x02, 0x00, 0x00,
  0x00, 0x00, 0x00, 0x00, 0x00, 0x00, 0x00, 0x0e, 0x00, 0x16, 0x00, 0x00, 0x00,
  0x10, 0x00, 0x0c, 0x00, 0x0b, 0x00, 0x04, 0x00, 0x0e, 0x00, 0x00, 0x00, 0x18,
  0x00, 0x00, 0x00, 0x00, 0x00, 0x00, 0x0a, 0x18, 0x00, 0x00, 0x00, 0x1c, 0x00,
  0x00, 0x00, 0x00, 0x00, 0x06, 0x00, 0x08, 0x00, 0x04, 0x00, 0x06, 0x00, 0x00,
  0x00, 0x01, 0x00, 0x00, 0x00, 0x01, 0x00, 0x00, 0x00, 0x14, 0x00, 0x00, 0x00,
  0x02, 0x00, 0x00, 0x00, 0x03, 0x00, 0x00, 0x00, 0x00, 0x00, 0x00, 0x00, 0x01,
  0x00, 0x00, 0x00, 0x20, 0x00, 0x00, 0x00, 0x04, 0x00, 0x00, 0x00, 0x00, 0x00,
  0x00, 0x00, 0x01, 0x00, 0x00, 0x00, 0x02, 0x00, 0x00, 0x00, 0x03, 0x00, 0x00,
  0x00, 0x21, 0x00, 0x00, 0x00, 0xf0, 0x0a, 0x00, 0x00, 0x7c, 0x0a, 0x00, 0x00,
  0x20, 0x0a, 0x00, 0x00, 0xc4, 0x09, 0x00, 0x00, 0x84, 0x09, 0x00, 0x00, 0x2c,
  0x09, 0x00, 0x00, 0xec, 0x08, 0x00, 0x00, 0xac, 0x08, 0x00, 0x00, 0x6c, 0x08,
  0x00, 0x00, 0x2c, 0x08, 0x00, 0x00, 0xec, 0x07, 0x00, 0x00, 0xac, 0x07, 0x00,
  0x00, 0x70, 0x07, 0x00, 0x00, 0x34, 0x07, 0x00, 0x00, 0xf4, 0x06, 0x00, 0x00,
  0xb4, 0x06, 0x00, 0x00, 0x74, 0x06, 0x00, 0x00, 0x34, 0x06, 0x00, 0x00, 0xf4,
  0x05, 0x00, 0x00, 0xb4, 0x05, 0x00, 0x00, 0x58, 0x05, 0x00, 0x00, 0xfc, 0x04,
  0x00, 0x00, 0xa0, 0x04, 0x00, 0x00, 0x20, 0x04, 0x00, 0x00, 0xa0, 0x03, 0x00,
  0x00, 0x20, 0x03, 0x00, 0x00, 0xa0, 0x02, 0x00, 0x00, 0x28, 0x02, 0x00, 0x00,
  0xa8, 0x01, 0x00, 0x00, 0x4c, 0x01, 0x00, 0x00, 0xcc, 0x00, 0x00, 0x00, 0x60,
  0x00, 0x00, 0x00, 0x04, 0x00, 0x00, 0x00, 0xaa, 0xf5, 0xff, 0xff, 0x00, 0x00,
  0x00, 0x01, 0x14, 0x00, 0x00, 0x00, 0x1c, 0x00, 0x00, 0x00, 0x1c, 0x00, 0x00,
  0x00, 0x21, 0x00, 0x00, 0x00, 0x34, 0x00, 0x00, 0x00, 0x02, 0x00, 0x00, 0x00,
  0xff, 0xff, 0xff, 0xff, 0x01, 0x00, 0x00, 0x00, 0x94, 0xf5, 0xff, 0xff, 0x19,
  0x00, 0x00, 0x00, 0x53, 0x74, 0x61, 0x74, 0x65, 0x66, 0x75, 0x6c, 0x50, 0x61,
  0x72, 0x74, 0x69, 0x74, 0x69, 0x6f, 0x6e, 0x65, 0x64, 0x43, 0x61, 0x6c, 0x6c,
  0x3a, 0x30, 0x00, 0x00, 0x00, 0x02, 0x00, 0x00, 0x00, 0x01, 0x00, 0x00, 0x00,
  0x01, 0x00, 0x00, 0x00, 0x02, 0xf6, 0xff, 0xff, 0x00, 0x00, 0x00, 0x01, 0x14,
  0x00, 0x00, 0x00, 0x1c, 0x00, 0x00, 0x00, 0x1c, 0x00, 0x00, 0x00, 0x20, 0x00,
  0x00, 0x00, 0x44, 0x00, 0x00, 0x00, 0x02, 0x00, 0x00, 0x00, 0xff, 0xff, 0xff,
  0xff, 0x01, 0x00, 0x00, 0x00, 0xec, 0xf5, 0xff, 0xff, 0x2a, 0x00, 0x00, 0x00,
  0x6d, 0x6f, 0x64, 0x65, 0x6c, 0x2f, 0x64, 0x65, 0x6e, 0x73, 0x65, 0x5f, 0x37,
  0x2f, 0x4d, 0x61, 0x74, 0x4d, 0x75, 0x6c, 0x3b, 0x6d, 0x6f, 0x64, 0x65, 0x6c,
  0x2f, 0x64, 0x65, 0x6e, 0x73, 0x65, 0x5f, 0x37, 0x2f, 0x42, 0x69, 0x61, 0x73,
  0x41, 0x64, 0x64, 0x00, 0x00, 0x02, 0x00, 0x00, 0x00, 0x01, 0x00, 0x00, 0x00,
  0x01, 0x00, 0x00, 0x00, 0x6a, 0xf6, 0xff, 0xff, 0x00, 0x00, 0x00, 0x01, 0x14,
  0x00, 0x00, 0x00, 0x1c, 0x00, 0x00, 0x00, 0x1c, 0x00, 0x00, 0x00, 0x1f, 0x00,
  0x00, 0x00, 0x58, 0x00, 0x00, 0x00, 0x02, 0x00, 0x00, 0x00, 0xff, 0xff, 0xff,
  0xff, 0x07, 0x00, 0x00, 0x00, 0x54, 0xf6, 0xff, 0xff, 0x3d, 0x00, 0x00, 0x00,
  0x6d, 0x6f, 0x64, 0x65, 0x6c, 0x2f, 0x64, 0x65, 0x6e, 0x73, 0x65, 0x5f, 0x36,
  0x2f, 0x4d, 0x61, 0x74, 0x4d, 0x75, 0x6c, 0x3b, 0x6d, 0x6f, 0x64, 0x65, 0x6c,
  0x2f, 0x64, 0x65, 0x6e, 0x73, 0x65, 0x5f, 0x36, 0x2f, 0x52, 0x65, 0x6c, 0x75,
  0x3b, 0x6d, 0x6f, 0x64, 0x65, 0x6c, 0x2f, 0x64, 0x65, 0x6e, 0x73, 0x65, 0x5f,
  0x36, 0x2f, 0x42, 0x69, 0x61, 0x73, 0x41, 0x64, 0x64, 0x00, 0x00, 0x00, 0x02,
  0x00, 0x00, 0x00, 0x01, 0x00, 0x00, 0x00, 0x07, 0x00, 0x00, 0x00, 0xe6, 0xf6,
  0xff, 0xff, 0x00, 0x00, 0x00, 0x01, 0x14, 0x00, 0x00, 0x00, 0x1c, 0x00, 0x00,
  0x00, 0x1c, 0x00, 0x00, 0x00, 0x1e, 0x00, 0x00, 0x00, 0x34, 0x00, 0x00, 0x00,
  0x02, 0x00, 0x00, 0x00, 0xff, 0xff, 0xff, 0xff, 0x0e, 0x00, 0x00, 0x00, 0xd0,
  0xf6, 0xff, 0xff, 0x1a, 0x00, 0x00, 0x00, 0x6d, 0x6f, 0x64, 0x65, 0x6c, 0x2f,
  0x63, 0x6f, 0x6e, 0x63, 0x61, 0x74, 0x65, 0x6e, 0x61, 0x74, 0x65, 0x5f, 0x33,
  0x2f, 0x63, 0x6f, 0x6e, 0x63, 0x61, 0x74, 0x00, 0x00, 0x02, 0x00, 0x00, 0x00,
  0x01, 0x00, 0x00, 0x00, 0x0e, 0x00, 0x00, 0x00, 0x3e, 0xf7, 0xff, 0xff, 0x00,
  0x00, 0x00, 0x01, 0x14, 0x00, 0x00, 0x00, 0x1c, 0x00, 0x00, 0x00, 0x1c, 0x00,
  0x00, 0x00, 0x1d, 0x00, 0x00, 0x00, 0x58, 0x00, 0x00, 0x00, 0x02, 0x00, 0x00,
  0x00, 0xff, 0xff, 0xff, 0xff, 0x05, 0x00, 0x00, 0x00, 0x28, 0xf7, 0xff, 0xff,
  0x3d, 0x00, 0x00, 0x00, 0x6d, 0x6f, 0x64, 0x65, 0x6c, 0x2f, 0x64, 0x65, 0x6e,
  0x73, 0x65, 0x5f, 0x31, 0x2f, 0x4d, 0x61, 0x74, 0x4d, 0x75, 0x6c, 0x3b, 0x6d,
  0x6f, 0x64, 0x65, 0x6c, 0x2f, 0x64, 0x65, 0x6e, 0x73, 0x65, 0x5f, 0x31, 0x2f,
  0x52, 0x65, 0x6c, 0x75, 0x3b, 0x6d, 0x6f, 0x64, 0x65, 0x6c, 0x2f, 0x64, 0x65,
  0x6e, 0x73, 0x65, 0x5f, 0x31, 0x2f, 0x42, 0x69, 0x61, 0x73, 0x41, 0x64, 0x64,
  0x00, 0x00, 0x00, 0x02, 0x00, 0x00, 0x00, 0x01, 0x00, 0x00, 0x00, 0x05, 0x00,
  0x00, 0x00, 0xba, 0xf7, 0xff, 0xff, 0x00, 0x00, 0x00, 0x01, 0x14, 0x00, 0x00,
  0x00, 0x1c, 0x00, 0x00, 0x00, 0x1c, 0x00, 0x00, 0x00, 0x1c, 0x00, 0x00, 0x00,
  0x50, 0x00, 0x00, 0x00, 0x02, 0x00, 0x00, 0x00, 0xff, 0xff, 0xff, 0xff, 0x0a,
  0x00, 0x00, 0x00, 0xa4, 0xf7, 0xff, 0xff, 0x37, 0x00, 0x00, 0x00, 0x6d, 0x6f,
  0x64, 0x65, 0x6c, 0x2f, 0x64, 0x65, 0x6e, 0x73, 0x65, 0x2f, 0x4d, 0x61, 0x74,
  0x4d, 0x75, 0x6c, 0x3b, 0x6d, 0x6f, 0x64, 0x65, 0x6c, 0x2f, 0x64, 0x65, 0x6e,
  0x73, 0x65, 0x2f, 0x52, 0x65, 0x6c, 0x75, 0x3b, 0x6d, 0x6f, 0x64, 0x65, 0x6c,
  0x2f, 0x64, 0x65, 0x6e, 0x73, 0x65, 0x2f, 0x42, 0x69, 0x61, 0x73, 0x41, 0x64,
  0x64, 0x00, 0x02, 0x00, 0x00, 0x00, 0x01, 0x00, 0x00, 0x00, 0x0a, 0x00, 0x00,
  0x00, 0x2e, 0xf8, 0xff, 0xff, 0x00, 0x00, 0x00, 0x01, 0x14, 0x00, 0x00, 0x00,
  0x1c, 0x00, 0x00, 0x00, 0x1c, 0x00, 0x00, 0x00, 0x1b, 0x00, 0x00, 0x00, 0x58,
  0x00, 0x00, 0x00, 0x02, 0x00, 0x00, 0x00, 0xff, 0xff, 0xff, 0xff, 0x03, 0x00,
  0x00, 0x00, 0x18, 0xf8, 0xff, 0xff, 0x3d, 0x00, 0x00, 0x00, 0x6d, 0x6f, 0x64,
  0x65, 0x6c, 0x2f, 0x64, 0x65, 0x6e, 0x73, 0x65, 0x5f, 0x35, 0x2f, 0x4d, 0x61,
  0x74, 0x4d, 0x75, 0x6c, 0x3b, 0x6d, 0x6f, 0x64, 0x65, 0x6c, 0x2f, 0x64, 0x65,
  0x6e, 0x73, 0x65, 0x5f, 0x35, 0x2f, 0x52, 0x65, 0x6c, 0x75, 0x3b, 0x6d, 0x6f,
  0x64, 0x65, 0x6c, 0x2f, 0x64, 0x65, 0x6e, 0x73, 0x65, 0x5f, 0x35, 0x2f, 0x42,
  0x69, 0x61, 0x73, 0x41, 0x64, 0x64, 0x00, 0x00, 0x00, 0x02, 0x00, 0x00, 0x00,
  0x01, 0x00, 0x00, 0x00, 0x03, 0x00, 0x00, 0x00, 0xaa, 0xf8, 0xff, 0xff, 0x00,
  0x00, 0x00, 0x01, 0x14, 0x00, 0x00, 0x00, 0x1c, 0x00, 0x00, 0x00, 0x1c, 0x00,
  0x00, 0x00, 0x1a, 0x00, 0x00, 0x00, 0x58, 0x00, 0x00, 0x00, 0x02, 0x00, 0x00,
  0x00, 0xff, 0xff, 0xff, 0xff, 0x06, 0x00, 0x00, 0x00, 0x94, 0xf8, 0xff, 0xff,
  0x3d, 0x00, 0x00, 0x00, 0x6d, 0x6f, 0x64, 0x65, 0x6c, 0x2f, 0x64, 0x65, 0x6e,
  0x73, 0x65, 0x5f, 0x34, 0x2f, 0x4d, 0x61, 0x74, 0x4d, 0x75, 0x6c, 0x3b, 0x6d,
  0x6f, 0x64, 0x65, 0x6c, 0x2f, 0x64, 0x65, 0x6e, 0x73, 0x65, 0x5f, 0x34, 0x2f,
  0x52, 0x65, 0x6c, 0x75, 0x3b, 0x6d, 0x6f, 0x64, 0x65, 0x6c, 0x2f, 0x64, 0x65,
  0x6e, 0x73, 0x65, 0x5f, 0x34, 0x2f, 0x42, 0x69, 0x61, 0x73, 0x41, 0x64, 0x64,
  0x00, 0x00, 0x00, 0x02, 0x00, 0x00, 0x00, 0x01, 0x00, 0x00, 0x00, 0x06, 0x00,
  0x00, 0x00, 0x26, 0xf9, 0xff, 0xff, 0x00, 0x00, 0x00, 0x01, 0x14, 0x00, 0x00,
  0x00, 0x1c, 0x00, 0x00, 0x00, 0x1c, 0x00, 0x00, 0x00, 0x19, 0x00, 0x00, 0x00,
  0x58, 0x00, 0x00, 0x00, 0x02, 0x00, 0x00, 0x00, 0xff, 0xff, 0xff, 0xff, 0x03,
  0x00, 0x00, 0x00, 0x10, 0xf9, 0xff, 0xff, 0x3d, 0x00, 0x00, 0x00, 0x6d, 0x6f,
  0x64, 0x65, 0x6c, 0x2f, 0x64, 0x65, 0x6e, 0x73, 0x65, 0x5f, 0x33, 0x2f, 0x4d,
  0x61, 0x74, 0x4d, 0x75, 0x6c, 0x3b, 0x6d, 0x6f, 0x64, 0x65, 0x6c, 0x2f, 0x64,
  0x65, 0x6e, 0x73, 0x65, 0x5f, 0x33, 0x2f, 0x52, 0x65, 0x6c, 0x75, 0x3b, 0x6d,
  0x6f, 0x64, 0x65, 0x6c, 0x2f, 0x64, 0x65, 0x6e, 0x73, 0x65, 0x5f, 0x33, 0x2f,
  0x42, 0x69, 0x61, 0x73, 0x41, 0x64, 0x64, 0x00, 0x00, 0x00, 0x02, 0x00, 0x00,
  0x00, 0x01, 0x00, 0x00, 0x00, 0x03, 0x00, 0x00, 0x00, 0xa2, 0xf9, 0xff, 0xff,
  0x00, 0x00, 0x00, 0x01, 0x14, 0x00, 0x00, 0x00, 0x1c, 0x00, 0x00, 0x00, 0x1c,
  0x00, 0x00, 0x00, 0x18, 0x00, 0x00, 0x00, 0x58, 0x00, 0x00, 0x00, 0x02, 0x00,
  0x00, 0x00, 0xff, 0xff, 0xff, 0xff, 0x06, 0x00, 0x00, 0x00, 0x8c, 0xf9, 0xff,
  0xff, 0x3d, 0x00, 0x00, 0x00, 0x6d, 0x6f, 0x64, 0x65, 0x6c, 0x2f, 0x64, 0x65,
  0x6e, 0x73, 0x65, 0x5f, 0x32, 0x2f, 0x4d, 0x61, 0x74, 0x4d, 0x75, 0x6c, 0x3b,
  0x6d, 0x6f, 0x64, 0x65, 0x6c, 0x2f, 0x64, 0x65, 0x6e, 0x73, 0x65, 0x5f, 0x32,
  0x2f, 0x52, 0x65, 0x6c, 0x75, 0x3b, 0x6d, 0x6f, 0x64, 0x65, 0x6c, 0x2f, 0x64,
  0x65, 0x6e, 0x73, 0x65, 0x5f, 0x32, 0x2f, 0x42, 0x69, 0x61, 0x73, 0x41, 0x64,
  0x64, 0x00, 0x00, 0x00, 0x02, 0x00, 0x00, 0x00, 0x01, 0x00, 0x00, 0x00, 0x06,
  0x00, 0x00, 0x00, 0x1e, 0xfa, 0xff, 0xff, 0x00, 0x00, 0x00, 0x01, 0x14, 0x00,
  0x00, 0x00, 0x1c, 0x00, 0x00, 0x00, 0x1c, 0x00, 0x00, 0x00, 0x17, 0x00, 0x00,
  0x00, 0x34, 0x00, 0x00, 0x00, 0x02, 0x00, 0x00, 0x00, 0xff, 0xff, 0xff, 0xff,
  0x0f, 0x00, 0x00, 0x00, 0x08, 0xfa, 0xff, 0xff, 0x1a, 0x00, 0x00, 0x00, 0x6d,
  0x6f, 0x64, 0x65, 0x6c, 0x2f, 0x63, 0x6f, 0x6e, 0x63, 0x61, 0x74, 0x65, 0x6e,
  0x61, 0x74, 0x65, 0x5f, 0x32, 0x2f, 0x63, 0x6f, 0x6e, 0x63, 0x61, 0x74, 0x00,
  0x00, 0x02, 0x00, 0x00, 0x00, 0x01, 0x00, 0x00, 0x00, 0x0f, 0x00, 0x00, 0x00,
  0x76, 0xfa, 0xff, 0xff, 0x00, 0x00, 0x00, 0x01, 0x14, 0x00, 0x00, 0x00, 0x1c,
  0x00, 0x00, 0x00, 0x1c, 0x00, 0x00, 0x00, 0x16, 0x00, 0x00, 0x00, 0x34, 0x00,
  0x00, 0x00, 0x02, 0x00, 0x00, 0x00, 0xff, 0xff, 0xff, 0xff, 0x0f, 0x00, 0x00,
  0x00, 0x60, 0xfa, 0xff, 0xff, 0x1a, 0x00, 0x00, 0x00, 0x6d, 0x6f, 0x64, 0x65,
  0x6c, 0x2f, 0x63, 0x6f, 0x6e, 0x63, 0x61, 0x74, 0x65, 0x6e, 0x61, 0x74, 0x65,
  0x5f, 0x31, 0x2f, 0x63, 0x6f, 0x6e, 0x63, 0x61, 0x74, 0x00, 0x00, 0x02, 0x00,
  0x00, 0x00, 0x01, 0x00, 0x00, 0x00, 0x0f, 0x00, 0x00, 0x00, 0xce, 0xfa, 0xff,
  0xff, 0x00, 0x00, 0x00, 0x01, 0x14, 0x00, 0x00, 0x00, 0x1c, 0x00, 0x00, 0x00,
  0x1c, 0x00, 0x00, 0x00, 0x15, 0x00, 0x00, 0x00, 0x34, 0x00, 0x00, 0x00, 0x02,
  0x00, 0x00, 0x00, 0xff, 0xff, 0xff, 0xff, 0x17, 0x00, 0x00, 0x00, 0xb8, 0xfa,
  0xff, 0xff, 0x18, 0x00, 0x00, 0x00, 0x6d, 0x6f, 0x64, 0x65, 0x6c, 0x2f, 0x63,
  0x6f, 0x6e, 0x63, 0x61, 0x74, 0x65, 0x6e, 0x61, 0x74, 0x65, 0x2f, 0x63, 0x6f,
  0x6e, 0x63, 0x61, 0x74, 0x00, 0x00, 0x00, 0x00, 0x02, 0x00, 0x00, 0x00, 0x01,
  0x00, 0x00, 0x00, 0x17, 0x00, 0x00, 0x00, 0x82, 0xfc, 0xff, 0xff, 0x00, 0x00,
  0x00, 0x01, 0x10, 0x00, 0x00, 0x00, 0x10, 0x00, 0x00, 0x00, 0x14, 0x00, 0x00,
  0x00, 0x20, 0x00, 0x00, 0x00, 0x00, 0xfb, 0xff, 0xff, 0x10, 0x00, 0x00, 0x00,
  0x61, 0x72, 0x69, 0x74, 0x68, 0x2e, 0x63, 0x6f, 0x6e, 0x73, 0x74, 0x61, 0x6e,
  0x74, 0x31, 0x35, 0x00, 0x00, 0x00, 0x00, 0x01, 0x00, 0x00, 0x00, 0x05, 0x00,
  0x00, 0x00, 0xbe, 0xfc, 0xff, 0xff, 0x00, 0x00, 0x00, 0x01, 0x10, 0x00, 0x00,
  0x00, 0x10, 0x00, 0x00, 0x00, 0x13, 0x00, 0x00, 0x00, 0x20, 0x00, 0x00, 0x00,
  0x3c, 0xfb, 0xff, 0xff, 0x10, 0x00, 0x00, 0x00, 0x61, 0x72, 0x69, 0x74, 0x68,
  0x2e, 0x63, 0x6f, 0x6e, 0x73, 0x74, 0x61, 0x6e, 0x74, 0x31, 0x34, 0x00, 0x00,
  0x00, 0x00, 0x01, 0x00, 0x00, 0x00, 0x06, 0x00, 0x00, 0x00, 0xfa, 0xfc, 0xff,
  0xff, 0x00, 0x00, 0x00, 0x01, 0x10, 0x00, 0x00, 0x00, 0x10, 0x00, 0x00, 0x00,
  0x12, 0x00, 0x00, 0x00, 0x20, 0x00, 0x00, 0x00, 0x78, 0xfb, 0xff, 0xff, 0x10,
  0x00, 0x00, 0x00, 0x61, 0x72, 0x69, 0x74, 0x68, 0x2e, 0x63, 0x6f, 0x6e, 0x73,
  0x74, 0x61, 0x6e, 0x74, 0x31, 0x33, 0x00, 0x00, 0x00, 0x00, 0x01, 0x00, 0x00,
  0x00, 0x03, 0x00, 0x00, 0x00, 0x36, 0xfd, 0xff, 0xff, 0x00, 0x00, 0x00, 0x01,
  0x10, 0x00, 0x00, 0x00, 0x10, 0x00, 0x00, 0x00, 0x11, 0x00, 0x00, 0x00, 0x20,
  0x00, 0x00, 0x00, 0xb4, 0xfb, 0xff, 0xff, 0x10, 0x00, 0x00, 0x00, 0x61, 0x72,
  0x69, 0x74, 0x68, 0x2e, 0x63, 0x6f, 0x6e, 0x73, 0x74, 0x61, 0x6e, 0x74, 0x31,
  0x32, 0x00, 0x00, 0x00, 0x00, 0x01, 0x00, 0x00, 0x00, 0x06, 0x00, 0x00, 0x00,
  0x72, 0xfd, 0xff, 0xff, 0x00, 0x00, 0x00, 0x01, 0x10, 0x00, 0x00, 0x00, 0x10,
  0x00, 0x00, 0x00, 0x10, 0x00, 0x00, 0x00, 0x20, 0x00, 0x00, 0x00, 0xf0, 0xfb,
  0xff, 0xff, 0x10, 0x00, 0x00, 0x00, 0x61, 0x72, 0x69, 0x74, 0x68, 0x2e, 0x63,
  0x6f, 0x6e, 0x73, 0x74, 0x61, 0x6e, 0x74, 0x31, 0x31, 0x00, 0x00, 0x00, 0x00,
  0x01, 0x00, 0x00, 0x00, 0x03, 0x00, 0x00, 0x00, 0xae, 0xfd, 0xff, 0xff, 0x00,
  0x00, 0x00, 0x01, 0x10, 0x00, 0x00, 0x00, 0x10, 0x00, 0x00, 0x00, 0x0f, 0x00,
  0x00, 0x00, 0x20, 0x00, 0x00, 0x00, 0x2c, 0xfc, 0xff, 0xff, 0x10, 0x00, 0x00,
  0x00, 0x61, 0x72, 0x69, 0x74, 0x68, 0x2e, 0x63, 0x6f, 0x6e, 0x73, 0x74, 0x61,
  0x6e, 0x74, 0x31, 0x30, 0x00, 0x00, 0x00, 0x00, 0x01, 0x00, 0x00, 0x00, 0x07,
  0x00, 0x00, 0x00, 0xea, 0xfd, 0xff, 0xff, 0x00, 0x00, 0x00, 0x01, 0x10, 0x00,
  0x00, 0x00, 0x10, 0x00, 0x00, 0x00, 0x0e, 0x00, 0x00, 0x00, 0x1c, 0x00, 0x00,
  0x00, 0x68, 0xfc, 0xff, 0xff, 0x0f, 0x00, 0x00, 0x00, 0x61, 0x72, 0x69, 0x74,
  0x68, 0x2e, 0x63, 0x6f, 0x6e, 0x73, 0x74, 0x61, 0x6e, 0x74, 0x39, 0x00, 0x01,
  0x00, 0x00, 0x00, 0x01, 0x00, 0x00, 0x00, 0x22, 0xfe, 0xff, 0xff, 0x00, 0x00,
  0x00, 0x01, 0x10, 0x00, 0x00, 0x00, 0x10, 0x00, 0x00, 0x00, 0x0d, 0x00, 0x00,
  0x00, 0x1c, 0x00, 0x00, 0x00, 0xa0, 0xfc, 0xff, 0xff, 0x0f, 0x00, 0x00, 0x00,
  0x61, 0x72, 0x69, 0x74, 0x68, 0x2e, 0x63, 0x6f, 0x6e, 0x73, 0x74, 0x61, 0x6e,
  0x74, 0x38, 0x00, 0x01, 0x00, 0x00, 0x00, 0x0a, 0x00, 0x00, 0x00, 0x5a, 0xfe,
  0xff, 0xff, 0x00, 0x00, 0x00, 0x01, 0x10, 0x00, 0x00, 0x00, 0x10, 0x00, 0x00,
  0x00, 0x0c, 0x00, 0x00, 0x00, 0x1c, 0x00, 0x00, 0x00, 0xd8, 0xfc, 0xff, 0xff,
  0x0f, 0x00, 0x00, 0x00, 0x61, 0x72, 0x69, 0x74, 0x68, 0x2e, 0x63, 0x6f, 0x6e,
  0x73, 0x74, 0x61, 0x6e, 0x74, 0x37, 0x00, 0x02, 0x00, 0x00, 0x00, 0x06, 0x00,
  0x00, 0x00, 0x0f, 0x00, 0x00, 0x00, 0x96, 0xfe, 0xff, 0xff, 0x00, 0x00, 0x00,
  0x01, 0x10, 0x00, 0x00, 0x00, 0x10, 0x00, 0x00, 0x00, 0x0b, 0x00, 0x00, 0x00,
  0x1c, 0x00, 0x00, 0x00, 0x14, 0xfd, 0xff, 0xff, 0x0f, 0x00, 0x00, 0x00, 0x61,
  0x72, 0x69, 0x74, 0x68, 0x2e, 0x63, 0x6f, 0x6e, 0x73, 0x74, 0x61, 0x6e, 0x74,
  0x36, 0x00, 0x02, 0x00, 0x00, 0x00, 0x03, 0x00, 0x00, 0x00, 0x06, 0x00, 0x00,
  0x00, 0xd2, 0xfe, 0xff, 0xff, 0x00, 0x00, 0x00, 0x01, 0x10, 0x00, 0x00, 0x00,
  0x10, 0x00, 0x00, 0x00, 0x0a, 0x00, 0x00, 0x00, 0x1c, 0x00, 0x00, 0x00, 0x50,
  0xfd, 0xff, 0xff, 0x0f, 0x00, 0x00, 0x00, 0x61, 0x72, 0x69, 0x74, 0x68, 0x2e,
  0x63, 0x6f, 0x6e, 0x73, 0x74, 0x61, 0x6e, 0x74, 0x35, 0x00, 0x02, 0x00, 0x00,
  0x00, 0x06, 0x00, 0x00, 0x00, 0x0f, 0x00, 0x00, 0x00, 0x0e, 0xff, 0xff, 0xff,
  0x00, 0x00, 0x00, 0x01, 0x10, 0x00, 0x00, 0x00, 0x10, 0x00, 0x00, 0x00, 0x09,
  0x00, 0x00, 0x00, 0x1c, 0x00, 0x00, 0x00, 0x8c, 0xfd, 0xff, 0xff, 0x0f, 0x00,
  0x00, 0x00, 0x61, 0x72, 0x69, 0x74, 0x68, 0x2e, 0x63, 0x6f, 0x6e, 0x73, 0x74,
  0x61, 0x6e, 0x74, 0x34, 0x00, 0x02, 0x00, 0x00, 0x00, 0x03, 0x00, 0x00, 0x00,
  0x06, 0x00, 0x00, 0x00, 0x4a, 0xff, 0xff, 0xff, 0x00, 0x00, 0x00, 0x01, 0x10,
  0x00, 0x00, 0x00, 0x10, 0x00, 0x00, 0x00, 0x08, 0x00, 0x00, 0x00, 0x1c, 0x00,
  0x00, 0x00, 0xc8, 0xfd, 0xff, 0xff, 0x0f, 0x00, 0x00, 0x00, 0x61, 0x72, 0x69,
  0x74, 0x68, 0x2e, 0x63, 0x6f, 0x6e, 0x73, 0x74, 0x61, 0x6e, 0x74, 0x33, 0x00,
  0x02, 0x00, 0x00, 0x00, 0x0a, 0x00, 0x00, 0x00, 0x17, 0x00, 0x00, 0x00, 0x86,
  0xff, 0xff, 0xff, 0x00, 0x00, 0x00, 0x01, 0x10, 0x00, 0x00, 0x00, 0x10, 0x00,
  0x00, 0x00, 0x07, 0x00, 0x00, 0x00, 0x1c, 0x00, 0x00, 0x00, 0x04, 0xfe, 0xff,
  0xff, 0x0f, 0x00, 0x00, 0x00, 0x61, 0x72, 0x69, 0x74, 0x68, 0x2e, 0x63, 0x6f,
  0x6e, 0x73, 0x74, 0x61, 0x6e, 0x74, 0x32, 0x00, 0x02, 0x00, 0x00, 0x00, 0x05,
  0x00, 0x00, 0x00, 0x0a, 0x00, 0x00, 0x00, 0xc2, 0xff, 0xff, 0xff, 0x00, 0x00,
  0x00, 0x01, 0x10, 0x00, 0x00, 0x00, 0x10, 0x00, 0x00, 0x00, 0x06, 0x00, 0x00,
  0x00, 0x1c, 0x00, 0x00, 0x00, 0x40, 0xfe, 0xff, 0xff, 0x0f, 0x00, 0x00, 0x00,
  0x61, 0x72, 0x69, 0x74, 0x68, 0x2e, 0x63, 0x6f, 0x6e, 0x73, 0x74, 0x61, 0x6e,
  0x74, 0x31, 0x00, 0x02, 0x00, 0x00, 0x00, 0x07, 0x00, 0x00, 0x00, 0x0e, 0x00,
  0x00, 0x00, 0x00, 0x00, 0x16, 0x00, 0x18, 0x00, 0x14, 0x00, 0x00, 0x00, 0x10,
  0x00, 0x0c, 0x00, 0x08, 0x00, 0x00, 0x00, 0x00, 0x00, 0x00, 0x00, 0x07, 0x00,
  0x16, 0x00, 0x00, 0x00, 0x00, 0x00, 0x00, 0x01, 0x10, 0x00, 0x00, 0x00, 0x10,
  0x00, 0x00, 0x00, 0x05, 0x00, 0x00, 0x00, 0x1c, 0x00, 0x00, 0x00, 0x94, 0xfe,
  0xff, 0xff, 0x0e, 0x00, 0x00, 0x00, 0x61, 0x72, 0x69, 0x74, 0x68, 0x2e, 0x63,
  0x6f, 0x6e, 0x73, 0x74, 0x61, 0x6e, 0x74, 0x00, 0x00, 0x02, 0x00, 0x00, 0x00,
  0x01, 0x00, 0x00, 0x00, 0x07, 0x00, 0x00, 0x00, 0xf6, 0xfe, 0xff, 0xff, 0x00,
  0x00, 0x00, 0x01, 0x14, 0x00, 0x00, 0x00, 0x1c, 0x00, 0x00, 0x00, 0x1c, 0x00,
  0x00, 0x00, 0x04, 0x00, 0x00, 0x00, 0x34, 0x00, 0x00, 0x00, 0x02, 0x00, 0x00,
  0x00, 0xff, 0xff, 0xff, 0xff, 0x14, 0x00, 0x00, 0x00, 0xe0, 0xfe, 0xff, 0xff,
  0x19, 0x00, 0x00, 0x00, 0x73, 0x65, 0x72, 0x76, 0x69, 0x6e, 0x67, 0x5f, 0x64,
  0x65, 0x66, 0x61, 0x75, 0x6c, 0x74, 0x5f, 0x69, 0x6e, 0x70, 0x75, 0x74, 0x5f,
  0x32, 0x3a, 0x30, 0x00, 0x00, 0x00, 0x02, 0x00, 0x00, 0x00, 0x01, 0x00, 0x00,
  0x00, 0x14, 0x00, 0x00, 0x00, 0x4e, 0xff, 0xff, 0xff, 0x00, 0x00, 0x00, 0x01,
  0x14, 0x00, 0x00, 0x00, 0x1c, 0x00, 0x00, 0x00, 0x1c, 0x00, 0x00, 0x00, 0x03,
  0x00, 0x00, 0x00, 0x34, 0x00, 0x00, 0x00, 0x02, 0x00, 0x00, 0x00, 0xff, 0xff,
  0xff, 0xff, 0x0c, 0x00, 0x00, 0x00, 0x38, 0xff, 0xff, 0xff, 0x19, 0x00, 0x00,
  0x00, 0x73, 0x65, 0x72, 0x76, 0x69, 0x6e, 0x67, 0x5f, 0x64, 0x65, 0x66, 0x61,
  0x75, 0x6c, 0x74, 0x5f, 0x69, 0x6e, 0x70, 0x75, 0x74, 0x5f, 0x33, 0x3a, 0x30,
  0x00, 0x00, 0x00, 0x02, 0x00, 0x00, 0x00, 0x01, 0x00, 0x00, 0x00, 0x0c, 0x00,
  0x00, 0x00, 0xa6, 0xff, 0xff, 0xff, 0x00, 0x00, 0x00, 0x01, 0x14, 0x00, 0x00,
  0x00, 0x1c, 0x00, 0x00, 0x00, 0x1c, 0x00, 0x00, 0x00, 0x02, 0x00, 0x00, 0x00,
  0x34, 0x00, 0x00, 0x00, 0x02, 0x00, 0x00, 0x00, 0xff, 0xff, 0xff, 0xff, 0x0c,
  0x00, 0x00, 0x00, 0x90, 0xff, 0xff, 0xff, 0x19, 0x00, 0x00, 0x00, 0x73, 0x65,
  0x72, 0x76, 0x69, 0x6e, 0x67, 0x5f, 0x64, 0x65, 0x66, 0x61, 0x75, 0x6c, 0x74,
  0x5f, 0x69, 0x6e, 0x70, 0x75, 0x74, 0x5f, 0x34, 0x3a, 0x30, 0x00, 0x00, 0x00,
  0x02, 0x00, 0x00, 0x00, 0x01, 0x00, 0x00, 0x00, 0x0c, 0x00, 0x00, 0x00, 0x00,
  0x00, 0x16, 0x00, 0x1c, 0x00, 0x18, 0x00, 0x00, 0x00, 0x14, 0x00, 0x10, 0x00,
  0x0c, 0x00, 0x00, 0x00, 0x00, 0x00, 0x08, 0x00, 0x07, 0x00, 0x16, 0x00, 0x00,
  0x00, 0x00, 0x00, 0x00, 0x01, 0x14, 0x00, 0x00, 0x00, 0x20, 0x00, 0x00, 0x00,
  0x20, 0x00, 0x00, 0x00, 0x01, 0x00, 0x00, 0x00, 0x38, 0x00, 0x00, 0x00, 0x02,
  0x00, 0x00, 0x00, 0xff, 0xff, 0xff, 0xff, 0x03, 0x00, 0x00, 0x00, 0x04, 0x00,
  0x04, 0x00, 0x04, 0x00, 0x00, 0x00, 0x19, 0x00, 0x00, 0x00, 0x73, 0x65, 0x72,
  0x76, 0x69, 0x6e, 0x67, 0x5f, 0x64, 0x65, 0x66, 0x61, 0x75, 0x6c, 0x74, 0x5f,
  0x69, 0x6e, 0x70, 0x75, 0x74, 0x5f, 0x31, 0x3a, 0x30, 0x00, 0x00, 0x00, 0x02,
  0x00, 0x00, 0x00, 0x01, 0x00, 0x00, 0x00, 0x03, 0x00, 0x00, 0x00, 0x03, 0x00,
  0x00, 0x00, 0x30, 0x00, 0x00, 0x00, 0x14, 0x00, 0x00, 0x00, 0x04, 0x00, 0x00,
  0x00, 0xe8, 0xff, 0xff, 0xff, 0x0e, 0x00, 0x00, 0x00, 0x00, 0x00, 0x00, 0x0e,
  0xf4, 0xff, 0xff, 0xff, 0x09, 0x00, 0x00, 0x00, 0x00, 0x00, 0x00, 0x09, 0x0c,
  0x00, 0x0c, 0x00, 0x0b, 0x00, 0x00, 0x00, 0x00, 0x00, 0x04, 0x00, 0x0c, 0x00,
  0x00, 0x00, 0x02, 0x00, 0x00, 0x00, 0x00, 0x00, 0x00, 0x02
};

double sms_part_none_prune_tflite_model_bs9_110_mean[] = {
  1.03491110e+01,  -4.70601155e+00, 9.41639648e-03,  6.71813216e-02,
  -4.34175676e+00, 4.51304337e-03,  1.49437847e-02,  -4.34549089e+00,
  4.51633002e-03,  1.49095283e-02,  -4.31672289e+00, 4.52349718e-03,
  1.48921595e-02,  -4.31712351e+00, 4.52402348e-03,  1.48379515e-02,
  5.06278924e+00,  -7.39167485e-02, 4.83830477e+00,  -5.52292713e-02,
  4.83660557e+00,  -5.54630441e-02, 4.83606081e+00,  -6.08712841e-02,
  4.83404642e+00,  -6.15876777e-02, 3.45279888e+00,  2.05449306e+00,
  2.05653369e+00,  2.05237053e+00,  2.05332752e+00,  1.04141792e+01,
  9.59151651e+00,  9.59284211e+00,  9.58789643e+00,  9.58846783e+00,
  -4.56032731e+00, 6.42503964e-03,  3.20049973e-02,  5.00654630e+00,
  -6.30482885e-02, 2.72928617e+00,  9.66301637e+00,  -4.53301165e+00,
  6.41929123e-03,  3.18801510e-02,  5.00395337e+00,  -6.92982318e-02,
  2.72550540e+00,  9.65885356e+00,  -4.56871516e+00, 6.36370984e-03,
  3.21122181e-02,  5.01207107e+00,  -6.30586036e-02, 2.72115306e+00,
  9.66069762e+00,  -4.57016025e+00, 6.38497246e-03,  3.20130425e-02,
  5.00979522e+00,  -6.36352230e-02, 2.72298622e+00,  9.66164878e+00,
  4.46692542e-02,  2.09643599e-01
};

double sms_part_none_prune_tflite_model_bs9_110_std[] = {
  0.02732415, 2.17179996, 0.02086705, 0.05157368, 2.76312758, 0.01215916,
  0.01481117, 2.7202667,  0.01208791, 0.01477575, 2.78416716, 0.0122251,
  0.01473175, 2.74306804, 0.01212331, 0.01467415, 1.2618907,  0.64318266,
  1.4045881,  0.68192306, 1.4060569,  0.68480572, 1.40493889, 0.68084349,
  1.40572967, 0.68365176, 1.02289924, 0.98081704, 0.98037476, 0.97921407,
  0.97802212, 0.49372018, 0.5966518,  0.58705704, 0.59856146, 0.58896796,
  2.45630167, 0.01577823, 0.02773155, 1.31868753, 0.66941219, 1.01791657,
  0.54744257, 2.47772255, 0.01570343, 0.02757776, 1.31907399, 0.66893593,
  1.0159036,  0.55005674, 2.43489992, 0.01571912, 0.02749688, 1.31180231,
  0.65668713, 1.01260751, 0.54230567, 2.39137017, 0.01564451, 0.02740826,
  1.31305985, 0.65912284, 1.01212852, 0.53239233, 0.16627907, 0.21028674
};

double sms_part_none_prune_tflite_model_bs9_110_std_inv[] = {
  3.659766e+01, 4.604476e-01, 4.792244e+01, 1.938974e+01, 3.619087e-01,
  8.224252e+01, 6.751661e+01, 3.676110e-01, 8.272729e+01, 6.767846e+01,
  3.591738e-01, 8.179892e+01, 6.788060e+01, 3.645553e-01, 8.248572e+01,
  6.814705e+01, 7.924617e-01, 1.554768e+00, 7.119525e-01, 1.466441e+00,
  7.112088e-01, 1.460268e+00, 7.117747e-01, 1.468766e+00, 7.113743e-01,
  1.462733e+00, 9.776134e-01, 1.019558e+00, 1.020018e+00, 1.021227e+00,
  1.022472e+00, 2.025439e+00, 1.676019e+00, 1.703412e+00, 1.670672e+00,
  1.697885e+00, 4.071161e-01, 6.337847e+01, 3.606001e+01, 7.583298e-01,
  1.493848e+00, 9.823988e-01, 1.826676e+00, 4.035964e-01, 6.368036e+01,
  3.626110e+01, 7.581076e-01, 1.494911e+00, 9.843454e-01, 1.817994e+00,
  4.106945e-01, 6.361679e+01, 3.636776e+01, 7.623100e-01, 1.522795e+00,
  9.875495e-01, 1.843979e+00, 4.181703e-01, 6.392019e+01, 3.648535e+01,
  7.615799e-01, 1.517168e+00, 9.880168e-01, 1.878314e+00, 6.013986e+00,
  4.755412e+00,
};

