/*
 * Copyright (c) 2023, Alliance for Open Media. All rights reserved
 *
 * This source code is subject to the terms of the BSD 2 Clause License and
 * the Alliance for Open Media Patent License 1.0. If the BSD 2 Clause License
 * was not distributed with this source code in the LICENSE file, you can
 * obtain it at www.aomedia.org/license/software. If the Alliance for Open
 * Media Patent License 1.0 was not distributed with this source code in the
 * PATENTS file, you can obtain it at www.aomedia.org/license/patent.
 */

double sms_part_none_prune_tflite_model_bs4_110_mean[] = {
  1.02738603e+01,  -7.63883413e+00, 4.72101564e-03,  1.65130354e-01,
  -7.16700532e+00, 2.52447871e-03,  3.44094573e-02,  -7.17769681e+00,
  2.53255987e-03,  3.44150243e-02,  -7.16439964e+00, 2.52547536e-03,
  3.43788444e-02,  -7.17300719e+00, 2.53215968e-03,  3.43758990e-02,
  5.10995715e+00,  -8.89069997e-02, 4.49566192e+00,  -8.03499394e-02,
  4.49130791e+00,  -8.09903153e-02, 4.49541335e+00,  -8.12410558e-02,
  4.49081181e+00,  -8.14009376e-02, 2.76385628e+00,  1.41947294e+00,
  1.42125914e+00,  1.41982972e+00,  1.42121979e+00,  9.64877668e+00,
  8.10112952e+00,  8.10336104e+00,  8.10078411e+00,  8.10258370e+00,
  -7.30071007e+00, 3.30461317e-03,  7.48346975e-02,  4.85603822e+00,
  -8.64194813e-02, 2.00022310e+00,  8.84264389e+00,  -7.29824266e+00,
  3.30618551e-03,  7.47302927e-02,  4.85651749e+00,  -8.73089062e-02,
  2.00011076e+00,  8.84195603e+00,  -7.60134776e+00, 3.34682524e-03,
  8.02457975e-02,  4.94284529e+00,  -8.10501261e-02, 2.08252573e+00,
  8.90941932e+00,  -7.61093336e+00, 3.36089446e-03,  8.02664759e-02,
  4.94138877e+00,  -8.14318901e-02, 2.08442927e+00,  8.91133791e+00,
  1.67130648e-02,  2.97558213e-01
};

double sms_part_none_prune_tflite_model_bs4_110_std[] = {
  0.05100076, 2.23937647, 0.00915765, 0.1111497,  2.85929159, 0.00575034,
  0.03139524, 2.82348431, 0.00576867, 0.03139589, 2.85354471, 0.00574187,
  0.03134291, 2.82163056, 0.00575304, 0.03133413, 1.43432763, 0.74329783,
  1.56530482, 0.78603282, 1.56748842, 0.78781315, 1.56565202, 0.78579659,
  1.56785558, 0.78733815, 1.02310405, 0.88611629, 0.88633215, 0.8853794,
  0.88528113, 0.57313177, 0.63327913, 0.62835358, 0.63191782, 0.62743248,
  2.63729125, 0.00700958, 0.05955396, 1.50423349, 0.76780033, 0.9837997,
  0.6159093,  2.63157341, 0.00700888, 0.05941089, 1.50593999, 0.76778131,
  0.98260124, 0.6146845,  2.45042023, 0.0067168,  0.06006056, 1.47349526,
  0.7583041,  0.9666654,  0.59341973, 2.41242906, 0.00678703, 0.06005093,
  1.47665613, 0.75979157, 0.96643874, 0.58858253, 0.11803784, 0.37424095
};

double sms_part_none_prune_tflite_model_bs4_110_std_inv[] = {
  1.960755e+01, 4.465529e-01, 1.091983e+02, 8.996875e+00, 3.497370e-01,
  1.739028e+02, 3.185196e+01, 3.541723e-01, 1.733502e+02, 3.185130e+01,
  3.504413e-01, 1.741593e+02, 3.190514e+01, 3.544050e-01, 1.738211e+02,
  3.191408e+01, 6.971908e-01, 1.345356e+00, 6.388532e-01, 1.272212e+00,
  6.379632e-01, 1.269337e+00, 6.387115e-01, 1.272594e+00, 6.378138e-01,
  1.270102e+00, 9.774177e-01, 1.128520e+00, 1.128245e+00, 1.129459e+00,
  1.129585e+00, 1.744799e+00, 1.579083e+00, 1.591461e+00, 1.582484e+00,
  1.593797e+00, 3.791769e-01, 1.426619e+02, 1.679149e+01, 6.647904e-01,
  1.302422e+00, 1.016467e+00, 1.623616e+00, 3.800008e-01, 1.426761e+02,
  1.683193e+01, 6.640371e-01, 1.302454e+00, 1.017707e+00, 1.626851e+00,
  4.080933e-01, 1.488804e+02, 1.664986e+01, 6.786584e-01, 1.318732e+00,
  1.034484e+00, 1.685148e+00, 4.145200e-01, 1.473399e+02, 1.665253e+01,
  6.772057e-01, 1.316150e+00, 1.034727e+00, 1.698997e+00, 8.471860e+00,
  2.672075e+00,
};

unsigned char sms_part_none_prune_tflite_model_bs4_110[] = {
  0x1c, 0x00, 0x00, 0x00, 0x54, 0x46, 0x4c, 0x33, 0x14, 0x00, 0x20, 0x00, 0x1c,
  0x00, 0x18, 0x00, 0x14, 0x00, 0x10, 0x00, 0x0c, 0x00, 0x00, 0x00, 0x08, 0x00,
  0x04, 0x00, 0x14, 0x00, 0x00, 0x00, 0x1c, 0x00, 0x00, 0x00, 0xd4, 0x00, 0x00,
  0x00, 0x2c, 0x01, 0x00, 0x00, 0x54, 0x0d, 0x00, 0x00, 0x64, 0x0d, 0x00, 0x00,
  0x20, 0x1c, 0x00, 0x00, 0x03, 0x00, 0x00, 0x00, 0x01, 0x00, 0x00, 0x00, 0x04,
  0x00, 0x00, 0x00, 0x3a, 0xf2, 0xff, 0xff, 0x0c, 0x00, 0x00, 0x00, 0x1c, 0x00,
  0x00, 0x00, 0x38, 0x00, 0x00, 0x00, 0x0f, 0x00, 0x00, 0x00, 0x73, 0x65, 0x72,
  0x76, 0x69, 0x6e, 0x67, 0x5f, 0x64, 0x65, 0x66, 0x61, 0x75, 0x6c, 0x74, 0x00,
  0x01, 0x00, 0x00, 0x00, 0x04, 0x00, 0x00, 0x00, 0x48, 0xff, 0xff, 0xff, 0x20,
  0x00, 0x00, 0x00, 0x04, 0x00, 0x00, 0x00, 0x07, 0x00, 0x00, 0x00, 0x64, 0x65,
  0x6e, 0x73, 0x65, 0x5f, 0x37, 0x00, 0x04, 0x00, 0x00, 0x00, 0x58, 0x00, 0x00,
  0x00, 0x3c, 0x00, 0x00, 0x00, 0x20, 0x00, 0x00, 0x00, 0x04, 0x00, 0x00, 0x00,
  0x74, 0xff, 0xff, 0xff, 0x01, 0x00, 0x00, 0x00, 0x04, 0x00, 0x00, 0x00, 0x07,
  0x00, 0x00, 0x00, 0x69, 0x6e, 0x70, 0x75, 0x74, 0x5f, 0x34, 0x00, 0x8c, 0xff,
  0xff, 0xff, 0x02, 0x00, 0x00, 0x00, 0x04, 0x00, 0x00, 0x00, 0x07, 0x00, 0x00,
  0x00, 0x69, 0x6e, 0x70, 0x75, 0x74, 0x5f, 0x33, 0x00, 0xa4, 0xff, 0xff, 0xff,
  0x03, 0x00, 0x00, 0x00, 0x04, 0x00, 0x00, 0x00, 0x07, 0x00, 0x00, 0x00, 0x69,
  0x6e, 0x70, 0x75, 0x74, 0x5f, 0x32, 0x00, 0x1e, 0xf0, 0xff, 0xff, 0x04, 0x00,
  0x00, 0x00, 0x07, 0x00, 0x00, 0x00, 0x69, 0x6e, 0x70, 0x75, 0x74, 0x5f, 0x31,
  0x00, 0x02, 0x00, 0x00, 0x00, 0x34, 0x00, 0x00, 0x00, 0x04, 0x00, 0x00, 0x00,
  0xdc, 0xff, 0xff, 0xff, 0x23, 0x00, 0x00, 0x00, 0x04, 0x00, 0x00, 0x00, 0x13,
  0x00, 0x00, 0x00, 0x43, 0x4f, 0x4e, 0x56, 0x45, 0x52, 0x53, 0x49, 0x4f, 0x4e,
  0x5f, 0x4d, 0x45, 0x54, 0x41, 0x44, 0x41, 0x54, 0x41, 0x00, 0x08, 0x00, 0x0c,
  0x00, 0x08, 0x00, 0x04, 0x00, 0x08, 0x00, 0x00, 0x00, 0x22, 0x00, 0x00, 0x00,
  0x04, 0x00, 0x00, 0x00, 0x13, 0x00, 0x00, 0x00, 0x6d, 0x69, 0x6e, 0x5f, 0x72,
  0x75, 0x6e, 0x74, 0x69, 0x6d, 0x65, 0x5f, 0x76, 0x65, 0x72, 0x73, 0x69, 0x6f,
  0x6e, 0x00, 0x24, 0x00, 0x00, 0x00, 0x24, 0x0c, 0x00, 0x00, 0x1c, 0x0c, 0x00,
  0x00, 0x14, 0x0c, 0x00, 0x00, 0x0c, 0x0c, 0x00, 0x00, 0x04, 0x0c, 0x00, 0x00,
  0xd8, 0x0b, 0x00, 0x00, 0x40, 0x0a, 0x00, 0x00, 0x68, 0x09, 0x00, 0x00, 0xc0,
  0x05, 0x00, 0x00, 0x68, 0x05, 0x00, 0x00, 0xf0, 0x03, 0x00, 0x00, 0x98, 0x03,
  0x00, 0x00, 0x20, 0x02, 0x00, 0x00, 0xe8, 0x01, 0x00, 0x00, 0xd4, 0x01, 0x00,
  0x00, 0xa8, 0x01, 0x00, 0x00, 0x8c, 0x01, 0x00, 0x00, 0x64, 0x01, 0x00, 0x00,
  0x48, 0x01, 0x00, 0x00, 0x20, 0x01, 0x00, 0x00, 0xfc, 0x00, 0x00, 0x00, 0xf4,
  0x00, 0x00, 0x00, 0xec, 0x00, 0x00, 0x00, 0xe4, 0x00, 0x00, 0x00, 0xdc, 0x00,
  0x00, 0x00, 0xd4, 0x00, 0x00, 0x00, 0xcc, 0x00, 0x00, 0x00, 0xc4, 0x00, 0x00,
  0x00, 0xbc, 0x00, 0x00, 0x00, 0xb4, 0x00, 0x00, 0x00, 0xac, 0x00, 0x00, 0x00,
  0xa4, 0x00, 0x00, 0x00, 0x9c, 0x00, 0x00, 0x00, 0x94, 0x00, 0x00, 0x00, 0x74,
  0x00, 0x00, 0x00, 0x04, 0x00, 0x00, 0x00, 0x22, 0xf1, 0xff, 0xff, 0x04, 0x00,
  0x00, 0x00, 0x60, 0x00, 0x00, 0x00, 0x10, 0x00, 0x00, 0x00, 0x00, 0x00, 0x00,
  0x00, 0x08, 0x00, 0x0e, 0x00, 0x08, 0x00, 0x04, 0x00, 0x08, 0x00, 0x00, 0x00,
  0x10, 0x00, 0x00, 0x00, 0x24, 0x00, 0x00, 0x00, 0x00, 0x00, 0x06, 0x00, 0x08,
  0x00, 0x04, 0x00, 0x06, 0x00, 0x00, 0x00, 0x04, 0x00, 0x00, 0x00, 0x00, 0x00,
  0x00, 0x00, 0x0c, 0x00, 0x18, 0x00, 0x14, 0x00, 0x10, 0x00, 0x0c, 0x00, 0x04,
  0x00, 0x0c, 0x00, 0x00, 0x00, 0x49, 0xb9, 0x9b, 0x2b, 0x1f, 0xa5, 0xba, 0xdc,
  0x02, 0x00, 0x00, 0x00, 0x02, 0x00, 0x00, 0x00, 0x04, 0x00, 0x00, 0x00, 0x06,
  0x00, 0x00, 0x00, 0x32, 0x2e, 0x31, 0x39, 0x2e, 0x30, 0x00, 0x00, 0x8e, 0xf1,
  0xff, 0xff, 0x04, 0x00, 0x00, 0x00, 0x10, 0x00, 0x00, 0x00, 0x31, 0x2e, 0x31,
  0x34, 0x2e, 0x30, 0x00, 0x00, 0x00, 0x00, 0x00, 0x00, 0x00, 0x00, 0x00, 0x00,
  0x50, 0xe6, 0xff, 0xff, 0x54, 0xe6, 0xff, 0xff, 0x58, 0xe6, 0xff, 0xff, 0x5c,
  0xe6, 0xff, 0xff, 0x60, 0xe6, 0xff, 0xff, 0x64, 0xe6, 0xff, 0xff, 0x68, 0xe6,
  0xff, 0xff, 0x6c, 0xe6, 0xff, 0xff, 0x70, 0xe6, 0xff, 0xff, 0x74, 0xe6, 0xff,
  0xff, 0x78, 0xe6, 0xff, 0xff, 0x7c, 0xe6, 0xff, 0xff, 0x80, 0xe6, 0xff, 0xff,
  0xde, 0xf1, 0xff, 0xff, 0x04, 0x00, 0x00, 0x00, 0x14, 0x00, 0x00, 0x00, 0x5e,
  0x65, 0xc7, 0x3e, 0xe9, 0xcc, 0x75, 0x3e, 0xe2, 0xc8, 0xc7, 0x3e, 0xe5, 0xdb,
  0x45, 0xbe, 0xb8, 0xe9, 0xcb, 0x3e, 0xfe, 0xf1, 0xff, 0xff, 0x04, 0x00, 0x00,
  0x00, 0x18, 0x00, 0x00, 0x00, 0x64, 0x96, 0xb8, 0x3e, 0x5c, 0xca, 0x69, 0x3e,
  0xed, 0xfe, 0xfd, 0x3e, 0xa0, 0x05, 0x3f, 0x3f, 0xa8, 0x77, 0x8f, 0xbe, 0x8b,
  0xd7, 0xbb, 0xbe, 0x22, 0xf2, 0xff, 0xff, 0x04, 0x00, 0x00, 0x00, 0x0c, 0x00,
  0x00, 0x00, 0x3f, 0x27, 0x97, 0x3e, 0x04, 0xc7, 0x01, 0xbf, 0x33, 0x51, 0x0f,
  0x3f, 0x3a, 0xf2, 0xff, 0xff, 0x04, 0x00, 0x00, 0x00, 0x18, 0x00, 0x00, 0x00,
  0x06, 0x8c, 0xee, 0x3e, 0x42, 0x87, 0xbc, 0xbd, 0x8b, 0x1a, 0x5b, 0x3f, 0x74,
  0x4e, 0xa7, 0x3d, 0x8f, 0x82, 0x9a, 0x3e, 0xa8, 0xe7, 0x85, 0x3b, 0x5e, 0xf2,
  0xff, 0xff, 0x04, 0x00, 0x00, 0x00, 0x0c, 0x00, 0x00, 0x00, 0x4f, 0xd2, 0x24,
  0x3e, 0xae, 0x51, 0x56, 0x3e, 0xf3, 0x91, 0xf3, 0x3e, 0x76, 0xf2, 0xff, 0xff,
  0x04, 0x00, 0x00, 0x00, 0x1c, 0x00, 0x00, 0x00, 0x5a, 0x3e, 0x8e, 0xbe, 0x57,
  0xb2, 0x98, 0xbe, 0x88, 0x44, 0x0c, 0xbe, 0xac, 0x04, 0x54, 0xbc, 0x48, 0x32,
  0x0a, 0x3f, 0x16, 0x85, 0xa8, 0x3d, 0xa2, 0x51, 0xd3, 0x3e, 0x9e, 0xf2, 0xff,
  0xff, 0x04, 0x00, 0x00, 0x00, 0x04, 0x00, 0x00, 0x00, 0xa8, 0xef, 0xda, 0xbe,
  0xae, 0xf2, 0xff, 0xff, 0x04, 0x00, 0x00, 0x00, 0x28, 0x00, 0x00, 0x00, 0x83,
  0x43, 0x00, 0xbd, 0xb8, 0x13, 0xb0, 0x3e, 0xd8, 0xe1, 0xa3, 0xbe, 0x37, 0x86,
  0x28, 0xbe, 0x08, 0x64, 0x50, 0xbe, 0xf7, 0x00, 0xe6, 0x3e, 0x5e, 0x47, 0x01,
  0xbf, 0xee, 0xb1, 0xc5, 0xbd, 0x45, 0xe2, 0xd5, 0x3e, 0x38, 0xe1, 0x77, 0xbe,
  0xe2, 0xf2, 0xff, 0xff, 0x04, 0x00, 0x00, 0x00, 0x68, 0x01, 0x00, 0x00, 0x7d,
  0x13, 0xb3, 0x3e, 0x98, 0x71, 0x09, 0xbf, 0x2a, 0x3d, 0x2c, 0x3d, 0x79, 0x6f,
  0x44, 0xbf, 0x38, 0x75, 0xbc, 0xbd, 0xf5, 0x1d, 0x57, 0x3c, 0xd5, 0xcd, 0x1b,
  0xbe, 0x30, 0xe7, 0x8d, 0x3c, 0x81, 0x73, 0x34, 0xbe, 0x7a, 0x8e, 0x89, 0x3d,
  0xe5, 0x74, 0x67, 0x3e, 0xbc, 0x17, 0x55, 0xbe, 0xb1, 0x9a, 0xae, 0xbd, 0xdc,
  0xb2, 0xb5, 0x3e, 0xe7, 0xf8, 0x02, 0x3f, 0x0a, 0x74, 0x3c, 0x3f, 0xc2, 0xc8,
  0x2c, 0xbd, 0x1b, 0x2a, 0x5c, 0x3e, 0x2f, 0x8a, 0xd0, 0xbd, 0x37, 0x03, 0xf9,
  0xbd, 0x30, 0xbe, 0x0f, 0x3e, 0xcb, 0x62, 0x4c, 0x3e, 0x49, 0xc2, 0x3b, 0xbf,
  0xef, 0xcd, 0x6c, 0xbf, 0xb2, 0x14, 0x59, 0xbe, 0x03, 0xe5, 0xf5, 0x3e, 0x67,
  0x75, 0x21, 0x3f, 0x1f, 0x0c, 0x51, 0x3e, 0x75, 0xe7, 0x28, 0xbf, 0x8c, 0x03,
  0x83, 0xbe, 0x16, 0x00, 0xd4, 0x3d, 0x83, 0xda, 0xe8, 0xbe, 0x00, 0xa7, 0x0c,
  0xbf, 0x1e, 0x15, 0x08, 0x3d, 0xbb, 0xde, 0x19, 0x3d, 0x1a, 0xeb, 0xa9, 0xbe,
  0x7c, 0x96, 0xb7, 0xbf, 0x04, 0xcf, 0x91, 0xbe, 0x36, 0x0e, 0x67, 0xbe, 0x00,
  0xac, 0x6f, 0xbe, 0x3c, 0x9e, 0x22, 0x3f, 0x6b, 0x3a, 0x1e, 0x3f, 0x34, 0x2c,
  0x7e, 0xbe, 0xea, 0x0c, 0xbe, 0xbe, 0xd3, 0x04, 0x36, 0xbf, 0x33, 0x2f, 0x53,
  0xbf, 0x63, 0xd1, 0x3d, 0xbf, 0x5c, 0x4c, 0x4c, 0xbf, 0xd0, 0xc9, 0xef, 0xbd,
  0x48, 0x0a, 0x8c, 0xbd, 0x28, 0xcc, 0xaa, 0x3d, 0x24, 0xea, 0x22, 0xbf, 0x66,
  0x05, 0x42, 0x3e, 0xc6, 0x56, 0x52, 0x3e, 0x94, 0x30, 0x21, 0xbe, 0xd4, 0xc8,
  0x5a, 0x3d, 0xe0, 0x8c, 0xe7, 0xbd, 0x2a, 0x61, 0x9d, 0xbd, 0x94, 0x5d, 0x84,
  0xbe, 0xf8, 0xe3, 0xf1, 0x3e, 0xe0, 0xf2, 0xbf, 0xbe, 0xcb, 0xb4, 0x18, 0xbd,
  0x65, 0x29, 0x22, 0x3e, 0x96, 0xf7, 0x0f, 0x3e, 0xd0, 0x46, 0x6a, 0xbc, 0x4b,
  0x06, 0xb3, 0x3d, 0xba, 0xb1, 0x99, 0x3e, 0xc4, 0x0b, 0x70, 0xbf, 0xe4, 0x6d,
  0x43, 0xbf, 0x59, 0xea, 0x13, 0x3f, 0xed, 0xec, 0x85, 0xbb, 0xc1, 0x3e, 0x29,
  0xbe, 0xa7, 0x16, 0x9f, 0xbc, 0x0e, 0xef, 0x37, 0xbc, 0x24, 0x96, 0x12, 0x3f,
  0x52, 0xd7, 0x01, 0x3f, 0xd5, 0x35, 0x1a, 0x3f, 0xa4, 0xf9, 0x2a, 0x3e, 0x82,
  0xe9, 0xa9, 0x3c, 0x49, 0x9d, 0xe6, 0x3d, 0xd3, 0x42, 0xba, 0x3d, 0xcd, 0x14,
  0x25, 0x3f, 0x0f, 0x8e, 0x46, 0x3e, 0xa5, 0x5c, 0x67, 0x3f, 0x08, 0x88, 0x43,
  0xbf, 0xb2, 0xfc, 0x7a, 0xbd, 0x82, 0x34, 0xd3, 0xbe, 0xb0, 0x22, 0x47, 0xbf,
  0x85, 0xd5, 0x90, 0x3d, 0xf6, 0x71, 0xdd, 0x3e, 0x56, 0xf4, 0xff, 0xff, 0x04,
  0x00, 0x00, 0x00, 0x48, 0x00, 0x00, 0x00, 0x42, 0x7f, 0x3b, 0x3f, 0xf1, 0xfd,
  0x6b, 0x3e, 0x42, 0xc3, 0x38, 0x3d, 0xa9, 0x57, 0x8b, 0xbe, 0x42, 0xd2, 0xa6,
  0x3a, 0x25, 0x1f, 0x88, 0xbe, 0x29, 0xba, 0x63, 0x3f, 0xe2, 0xce, 0x10, 0x3e,
  0x03, 0x4d, 0x0f, 0xbe, 0x90, 0x56, 0xde, 0xbf, 0xb1, 0x0e, 0x88, 0xbe, 0xc4,
  0xaa, 0x55, 0x3f, 0x90, 0x1a, 0x81, 0x3f, 0xdb, 0x5c, 0x13, 0x3f, 0x0c, 0xd4,
  0xbf, 0x3e, 0xbd, 0x03, 0x20, 0xbe, 0x0a, 0xb7, 0x9b, 0x3f, 0xff, 0xa2, 0x94,
  0x3d, 0xaa, 0xf4, 0xff, 0xff, 0x04, 0x00, 0x00, 0x00, 0x68, 0x01, 0x00, 0x00,
  0x0d, 0x23, 0x18, 0xbf, 0x47, 0x44, 0x8e, 0xbe, 0xd3, 0xdd, 0x2d, 0xbe, 0xbd,
  0xf2, 0x15, 0x3f, 0x68, 0x4a, 0x12, 0x3f, 0x72, 0xf4, 0xd0, 0x3e, 0x70, 0xc9,
  0x6a, 0x3e, 0x8d, 0x09, 0xa1, 0x3e, 0xc6, 0x0f, 0x01, 0x3f, 0x41, 0x33, 0x6a,
  0x3e, 0x2b, 0x57, 0x3e, 0xbe, 0xa5, 0x32, 0xa9, 0xbe, 0x2e, 0x85, 0xd4, 0x3e,
  0x47, 0x14, 0x01, 0xbe, 0x59, 0xea, 0xa8, 0x3d, 0xc3, 0x2f, 0x99, 0x3e, 0x29,
  0x12, 0xec, 0x3d, 0x53, 0x0b, 0x4b, 0x3c, 0xfb, 0x8a, 0x92, 0x3d, 0xce, 0xe6,
  0xec, 0x3e, 0x4d, 0x49, 0x11, 0x3f, 0xc9, 0x6b, 0x3b, 0xbf, 0x24, 0xca, 0x94,
  0x3e, 0xbd, 0x17, 0xb3, 0x3e, 0xdd, 0xcd, 0x23, 0xbf, 0x94, 0x8a, 0xc3, 0x3e,
  0xf2, 0x45, 0xa8, 0x3e, 0x58, 0xcd, 0x19, 0x3e, 0x70, 0x98, 0x34, 0xbe, 0x7b,
  0x68, 0x2f, 0xbe, 0x95, 0x45, 0x2c, 0xbf, 0xdf, 0x9f, 0x02, 0xbf, 0x02, 0xc1,
  0xce, 0xbe, 0x3a, 0x00, 0x4f, 0x39, 0x0e, 0x09, 0xcd, 0xbd, 0x50, 0x71, 0xd4,
  0x3d, 0xf1, 0xcc, 0x3e, 0xbd, 0x8f, 0x9e, 0xfc, 0x3e, 0xeb, 0x66, 0x76, 0x3e,
  0x60, 0x43, 0x47, 0x3f, 0xf6, 0x29, 0xa8, 0x3e, 0x51, 0x61, 0x25, 0x3f, 0x5e,
  0x24, 0xf8, 0xbd, 0xe1, 0xdb, 0xeb, 0x3e, 0x37, 0x61, 0x9c, 0x3f, 0x28, 0x69,
  0xb7, 0x3e, 0x6b, 0x43, 0xc9, 0xbe, 0x4c, 0x38, 0xa4, 0xbe, 0x25, 0xb6, 0x46,
  0x3d, 0x17, 0xe8, 0x8d, 0x3e, 0xa5, 0x57, 0xd8, 0x3d, 0x48, 0xb9, 0x69, 0x3e,
  0xb7, 0x5f, 0x1f, 0x3f, 0x93, 0x05, 0x21, 0x3f, 0xe4, 0x2c, 0x44, 0x3f, 0x5b,
  0xe6, 0x35, 0x3f, 0xf9, 0xc7, 0x34, 0x3f, 0x69, 0xcd, 0x1e, 0xbf, 0x99, 0xad,
  0x24, 0x3f, 0x38, 0x64, 0xc1, 0x3f, 0x4b, 0x1a, 0xc3, 0x3e, 0xd8, 0x13, 0x54,
  0x3e, 0xcc, 0xab, 0xaa, 0x3e, 0xb9, 0x9b, 0xf1, 0x3e, 0x5e, 0xc1, 0x2a, 0x3f,
  0x21, 0x29, 0x93, 0x3e, 0x0f, 0xc9, 0x7e, 0xbf, 0xfa, 0x51, 0xbe, 0xbf, 0x3a,
  0x49, 0xab, 0xbf, 0x00, 0x31, 0xf9, 0xbe, 0xca, 0xc2, 0x08, 0xbf, 0x0e, 0xd7,
  0x5c, 0xbf, 0x2c, 0x0b, 0xdc, 0x3e, 0x88, 0x95, 0x2b, 0xbd, 0xec, 0x3e, 0x67,
  0xbf, 0x09, 0xe3, 0xad, 0xbd, 0x0f, 0x22, 0x0a, 0xbf, 0x16, 0xf8, 0xb1, 0xbd,
  0xc8, 0xa7, 0xa6, 0xbd, 0x1b, 0x10, 0x8f, 0xbe, 0xd7, 0xec, 0x99, 0xbe, 0x16,
  0xc3, 0x9b, 0xbe, 0x02, 0x6a, 0x98, 0x3e, 0x6f, 0x80, 0x3d, 0x3e, 0xe2, 0xea,
  0x23, 0xbe, 0xe8, 0xc1, 0x71, 0x3d, 0x17, 0xf2, 0x6d, 0xbe, 0xd2, 0x91, 0xcf,
  0xbe, 0x46, 0xb0, 0x75, 0x3e, 0x43, 0x11, 0x93, 0x3e, 0x1e, 0xf6, 0xff, 0xff,
  0x04, 0x00, 0x00, 0x00, 0x48, 0x00, 0x00, 0x00, 0xda, 0xaf, 0x05, 0xbe, 0x4c,
  0x84, 0xd8, 0xbe, 0xd2, 0x80, 0x4f, 0x3f, 0x7d, 0x59, 0x13, 0x3f, 0x99, 0xe8,
  0x8f, 0x3e, 0x9f, 0x68, 0x78, 0xbd, 0xa6, 0xbf, 0x16, 0xbf, 0x07, 0x37, 0x7f,
  0x3e, 0xc2, 0xa4, 0x2e, 0x3f, 0x87, 0x38, 0xdf, 0xbe, 0x17, 0x36, 0x48, 0x3f,
  0x1c, 0xea, 0x0b, 0xbf, 0xb6, 0xc6, 0x43, 0x3f, 0x24, 0x67, 0xe8, 0xbe, 0x07,
  0x1d, 0x33, 0x3f, 0xd0, 0x00, 0xad, 0xbe, 0xbb, 0x33, 0x41, 0x3d, 0x94, 0x9d,
  0xb1, 0x3e, 0x72, 0xf6, 0xff, 0xff, 0x04, 0x00, 0x00, 0x00, 0x98, 0x03, 0x00,
  0x00, 0xc3, 0x95, 0x07, 0x3f, 0x79, 0x45, 0x14, 0xbf, 0x38, 0xf3, 0x15, 0xbf,
  0x47, 0x99, 0x09, 0xbe, 0x1f, 0x24, 0x49, 0xbe, 0xd1, 0xa8, 0xea, 0x3e, 0x70,
  0xb1, 0x3f, 0x3e, 0xb5, 0x30, 0xc0, 0x3d, 0x3c, 0x31, 0xcd, 0x3d, 0xa5, 0x05,
  0x88, 0xbd, 0xc7, 0x3f, 0x3b, 0xbf, 0x5a, 0x7c, 0xd8, 0xbd, 0xf4, 0x52, 0xa9,
  0xbd, 0xf5, 0x02, 0xc6, 0xbe, 0x19, 0x21, 0x43, 0xbe, 0x6b, 0xbd, 0x0b, 0xbf,
  0x7c, 0xd4, 0xad, 0xbd, 0x11, 0x5e, 0xaf, 0x3d, 0x74, 0x35, 0xb0, 0x3c, 0x82,
  0x18, 0x9d, 0xbd, 0x4a, 0x28, 0x97, 0x3b, 0xa4, 0x28, 0x31, 0xbe, 0xb6, 0x32,
  0x8d, 0x3e, 0x49, 0xc0, 0x95, 0xbe, 0xd7, 0xa4, 0x61, 0xbe, 0x29, 0xc1, 0x1d,
  0x3e, 0xc4, 0x21, 0x38, 0xbe, 0x2d, 0xaf, 0x91, 0x3d, 0xe7, 0x60, 0xb5, 0xbf,
  0x8c, 0x37, 0xc1, 0x3e, 0xb7, 0xa4, 0x54, 0x3e, 0xca, 0x1f, 0xcf, 0x3d, 0x8b,
  0x88, 0x98, 0x3d, 0xdd, 0x6f, 0xa7, 0xbd, 0x73, 0xf1, 0x3f, 0x3e, 0xae, 0x9f,
  0x46, 0xbc, 0xe2, 0xf7, 0x89, 0x3e, 0x38, 0x7b, 0xca, 0x3d, 0x39, 0x20, 0x2f,
  0xbe, 0x02, 0x8b, 0xfd, 0xbd, 0x4f, 0x98, 0xea, 0xbd, 0x91, 0xe7, 0x7e, 0x3c,
  0x3f, 0x56, 0x41, 0xbe, 0x04, 0x66, 0x29, 0x3e, 0xd6, 0x56, 0x12, 0xbf, 0xcf,
  0xda, 0xa4, 0x3e, 0xf8, 0x3c, 0x9c, 0xbe, 0x4e, 0x82, 0xdb, 0xbe, 0xa8, 0x70,
  0x06, 0xbf, 0x45, 0x6f, 0x1e, 0x3f, 0xc4, 0x32, 0x03, 0x3f, 0xe9, 0x95, 0x90,
  0xbb, 0xb9, 0x6a, 0xbc, 0xbb, 0xc3, 0x9e, 0x9d, 0xbd, 0x0d, 0x84, 0x2a, 0x3d,
  0x94, 0x81, 0xa4, 0x3d, 0x5c, 0x12, 0x71, 0x3d, 0x3a, 0xbf, 0x0d, 0x3f, 0x5f,
  0x04, 0x24, 0x3f, 0x56, 0xf1, 0x42, 0xbf, 0x55, 0xd8, 0x06, 0xbf, 0x1b, 0x97,
  0xf7, 0xbd, 0x58, 0x7f, 0xbd, 0xbc, 0xe4, 0xe2, 0x8c, 0x3c, 0xec, 0xa3, 0xa4,
  0x3c, 0x1e, 0xcf, 0x21, 0xbd, 0xc2, 0x89, 0x21, 0xbc, 0xc1, 0x38, 0x1a, 0xbe,
  0x9f, 0x1d, 0x9c, 0x39, 0x33, 0x25, 0x34, 0x3e, 0x4e, 0x3f, 0xb0, 0x3e, 0x29,
  0xfa, 0x25, 0xbf, 0xdd, 0x9f, 0x79, 0x3e, 0x69, 0x29, 0xb5, 0xbe, 0xdf, 0xee,
  0x4e, 0xbd, 0x0d, 0x3b, 0x3d, 0x3d, 0xdd, 0x03, 0x22, 0xbd, 0x4a, 0x89, 0x11,
  0x3e, 0x3a, 0x1b, 0x25, 0xbd, 0x40, 0xab, 0x0f, 0xbe, 0xab, 0x85, 0x20, 0xbf,
  0x36, 0x03, 0x01, 0x3f, 0x98, 0x18, 0x45, 0x3e, 0x6d, 0x80, 0x22, 0x3d, 0x78,
  0xe3, 0x57, 0xbd, 0xac, 0xd0, 0x0d, 0x3d, 0xcd, 0xdf, 0x10, 0x3e, 0xb4, 0x03,
  0x88, 0xbe, 0xeb, 0x88, 0xfb, 0x3d, 0x67, 0x5c, 0xb9, 0xbc, 0x10, 0x06, 0x52,
  0xbd, 0x9c, 0xe8, 0x8f, 0x3d, 0xcc, 0x68, 0x94, 0xbf, 0x1e, 0x8b, 0xe7, 0x3e,
  0x1d, 0xe9, 0x8d, 0x3e, 0x15, 0x9e, 0x89, 0x3e, 0x9c, 0x53, 0x0d, 0x3d, 0x68,
  0xe3, 0x08, 0xbf, 0xca, 0x6b, 0x12, 0xbe, 0xe1, 0xe8, 0x20, 0x3d, 0x10, 0x2d,
  0xeb, 0xbd, 0x36, 0xed, 0xdd, 0xbd, 0xdf, 0x36, 0xbe, 0xbe, 0x61, 0xd6, 0x7a,
  0x3e, 0x40, 0xb5, 0x45, 0xbe, 0xb6, 0x56, 0x48, 0xbe, 0x11, 0x61, 0xf1, 0x3e,
  0xd5, 0x18, 0xb2, 0x3e, 0x80, 0x0b, 0xb0, 0xbe, 0x97, 0x6a, 0x5e, 0xbe, 0x8d,
  0x5e, 0x71, 0xbe, 0x0e, 0xb8, 0x34, 0xbe, 0x58, 0x2b, 0x78, 0xbd, 0xda, 0xf6,
  0xd3, 0xbd, 0x9d, 0xd3, 0x4c, 0xbe, 0x5d, 0x9f, 0xd9, 0xbe, 0xd0, 0x7f, 0xf1,
  0xbe, 0xbd, 0xb4, 0x26, 0xbf, 0xc8, 0xa2, 0xd1, 0xbe, 0xc3, 0x77, 0xe2, 0xbe,
  0xa3, 0x8d, 0x3f, 0x3e, 0xbb, 0xae, 0x62, 0xbe, 0xd6, 0x51, 0xd6, 0xbe, 0x19,
  0xcc, 0x08, 0xbe, 0xa9, 0x32, 0xff, 0xbe, 0x06, 0x5f, 0x4f, 0xbf, 0x77, 0xac,
  0xa9, 0xbd, 0xba, 0x42, 0xd1, 0x3d, 0x66, 0xc8, 0xaa, 0xbe, 0xb8, 0xc0, 0xe2,
  0xbe, 0xb5, 0x1e, 0xb0, 0x3e, 0xc7, 0x59, 0x0d, 0x3f, 0x7a, 0xd2, 0x19, 0x3f,
  0xf6, 0x00, 0xdf, 0x3e, 0x3b, 0x36, 0x3f, 0x3f, 0x7e, 0x00, 0x46, 0xbe, 0xc8,
  0xbf, 0x91, 0xbe, 0xcc, 0x0a, 0x26, 0xbf, 0xa3, 0x8d, 0x35, 0xbf, 0x7f, 0xc7,
  0xfb, 0xb9, 0x13, 0x1c, 0xc6, 0x3a, 0x54, 0xf2, 0x35, 0xbe, 0xe6, 0x44, 0x2b,
  0xbd, 0x26, 0x47, 0x0b, 0x3e, 0x9b, 0x00, 0x98, 0x3a, 0x99, 0x28, 0xb0, 0xbd,
  0x03, 0xa9, 0xf2, 0x3c, 0xfa, 0x90, 0x13, 0x3e, 0xd8, 0x4d, 0xc2, 0x3e, 0xf3,
  0xb5, 0x0a, 0x3f, 0x39, 0x75, 0x5d, 0x3e, 0xc4, 0x28, 0x28, 0x3f, 0x2b, 0xfc,
  0x0d, 0x3f, 0x00, 0x82, 0x2e, 0xbc, 0x2b, 0x08, 0x8e, 0xbd, 0xb3, 0x0a, 0x56,
  0x3c, 0x59, 0x4e, 0x16, 0xbe, 0x6c, 0x15, 0x7b, 0xbe, 0x5d, 0x07, 0x7a, 0xbe,
  0x24, 0xa2, 0x8b, 0xbc, 0xcb, 0x62, 0xb5, 0x3e, 0x9d, 0x31, 0xf6, 0x3e, 0xa6,
  0x31, 0xc5, 0xbd, 0x33, 0xa5, 0x8c, 0xbe, 0x7e, 0xdf, 0x4d, 0xbd, 0x48, 0xa3,
  0x16, 0xbe, 0x11, 0x6b, 0x02, 0xbe, 0x26, 0xea, 0xb8, 0xbe, 0x60, 0x3e, 0x96,
  0xbd, 0x0d, 0xec, 0xd0, 0xbd, 0xbe, 0x10, 0xf8, 0xbd, 0xec, 0xc9, 0x1e, 0xbf,
  0x4a, 0xb7, 0xdb, 0xbb, 0xa0, 0x4a, 0xec, 0xbd, 0xce, 0xb5, 0x08, 0xbf, 0xf5,
  0xed, 0x87, 0xbe, 0x73, 0x8e, 0x08, 0xbe, 0x48, 0xda, 0x53, 0x3e, 0xc0, 0x46,
  0x94, 0x3e, 0xb5, 0x06, 0x6f, 0x3e, 0x1c, 0xca, 0xd9, 0x3d, 0x05, 0xf3, 0x15,
  0xbf, 0xe9, 0x20, 0x2b, 0x3f, 0x74, 0x6e, 0x14, 0xbf, 0x91, 0xae, 0x8e, 0x3e,
  0x07, 0x55, 0x86, 0xbe, 0x3d, 0xbe, 0xd2, 0xbe, 0xa9, 0x2b, 0x15, 0x3f, 0x58,
  0x17, 0xd8, 0x3e, 0xc0, 0xe7, 0x7e, 0x3e, 0x9e, 0x5b, 0xa5, 0x3e, 0xa7, 0xfe,
  0x96, 0x3c, 0xb6, 0x94, 0x2f, 0x3e, 0xec, 0x7f, 0x51, 0x3e, 0x41, 0xc1, 0xaf,
  0xbe, 0x8d, 0x56, 0xde, 0x3d, 0xd2, 0x50, 0x0f, 0x3f, 0xdd, 0x9c, 0x23, 0x3e,
  0xe4, 0x46, 0xe8, 0x3d, 0x11, 0x88, 0xb9, 0xbe, 0x1c, 0x14, 0xdb, 0x3d, 0xd1,
  0x82, 0x58, 0x3d, 0x4e, 0x80, 0x24, 0xbe, 0x81, 0x57, 0x2b, 0x3d, 0x49, 0x4b,
  0xa2, 0xbe, 0x4b, 0xad, 0x15, 0xbf, 0x62, 0x4c, 0x5b, 0x3e, 0x0f, 0xfc, 0x6d,
  0x3f, 0x5b, 0x0a, 0x92, 0x3e, 0x21, 0x0a, 0x8e, 0xbd, 0xd9, 0x5a, 0x02, 0x3f,
  0x28, 0x56, 0x8b, 0x3e, 0xfa, 0xc9, 0x0b, 0x3d, 0x7d, 0xe8, 0x63, 0xbc, 0x41,
  0x1b, 0x3f, 0xbe, 0xf1, 0x32, 0x2b, 0x3d, 0x49, 0x86, 0xba, 0x3d, 0xc9, 0x36,
  0x9e, 0xbf, 0xe8, 0xa4, 0x84, 0xbe, 0x07, 0xa2, 0xc9, 0xbd, 0x2b, 0x59, 0xa4,
  0xbe, 0x64, 0x91, 0x17, 0xbf, 0x00, 0x3b, 0x6a, 0xbf, 0x3d, 0x5b, 0x55, 0xbc,
  0xe3, 0xca, 0xee, 0xbc, 0x18, 0x2d, 0x69, 0xbe, 0x22, 0xab, 0xa7, 0xbd, 0x96,
  0xcd, 0xdd, 0x3d, 0xf3, 0x0b, 0x14, 0x3d, 0xc4, 0x43, 0x1a, 0x3f, 0x16, 0xfa,
  0xff, 0xff, 0x04, 0x00, 0x00, 0x00, 0xc8, 0x00, 0x00, 0x00, 0xf3, 0x91, 0xe9,
  0xbe, 0x49, 0x3d, 0x88, 0xbe, 0x5d, 0x75, 0xbb, 0xbf, 0xa2, 0x62, 0x9f, 0xbe,
  0x63, 0x2a, 0x3f, 0xbf, 0x50, 0x9b, 0x70, 0x3e, 0xd8, 0xf6, 0x96, 0x3e, 0x78,
  0x8b, 0x68, 0x3f, 0xfc, 0xcd, 0x41, 0x3f, 0x6c, 0xfa, 0xb7, 0x3e, 0x1d, 0x71,
  0x80, 0xbd, 0x1d, 0xe4, 0x88, 0xbd, 0x33, 0x75, 0x9b, 0xbe, 0x3f, 0x39, 0x85,
  0xbe, 0x06, 0xe1, 0x0f, 0xbe, 0x91, 0x02, 0xce, 0x3e, 0x0e, 0xef, 0xf8, 0xbc,
  0xc4, 0xbf, 0x86, 0xbf, 0x6d, 0x65, 0x80, 0x3c, 0xcd, 0xfa, 0x82, 0x3d, 0x8c,
  0x5b, 0x21, 0x3f, 0xf5, 0xbc, 0x9f, 0xbe, 0xf4, 0x8d, 0x2a, 0xbf, 0x2a, 0x78,
  0xe8, 0xbd, 0x58, 0xf3, 0x80, 0xbe, 0x8f, 0x21, 0x88, 0x3e, 0x5a, 0xcc, 0x29,
  0xbf, 0x8d, 0x28, 0xc5, 0x3e, 0x77, 0x37, 0xdd, 0xbe, 0xba, 0x63, 0xd7, 0x3d,
  0x82, 0x77, 0x83, 0xb8, 0xc5, 0xa6, 0x6a, 0x3e, 0xa4, 0x05, 0x96, 0xbf, 0xd9,
  0xda, 0x6b, 0xbe, 0x3c, 0x5f, 0xdc, 0x3d, 0xee, 0xed, 0xcd, 0xbd, 0x65, 0x25,
  0xd9, 0xbe, 0x7d, 0x9e, 0x71, 0x3e, 0xba, 0x35, 0x8c, 0x3e, 0xa8, 0x59, 0x4e,
  0x3f, 0xc3, 0x1c, 0x43, 0xbf, 0xb3, 0x9e, 0x66, 0x3f, 0xa0, 0x20, 0x15, 0x3e,
  0xe4, 0xad, 0x2e, 0x3f, 0xbe, 0xc9, 0xea, 0x3e, 0x20, 0xbe, 0x91, 0x3d, 0x03,
  0xdb, 0x51, 0x3e, 0x9d, 0x19, 0x15, 0xbe, 0xf5, 0xc1, 0x06, 0xbf, 0xce, 0x3b,
  0x99, 0x3e, 0xea, 0xfa, 0xff, 0xff, 0x04, 0x00, 0x00, 0x00, 0x88, 0x01, 0x00,
  0x00, 0xe5, 0xb6, 0x6d, 0xbe, 0x01, 0xd9, 0x4c, 0x3d, 0x7b, 0x54, 0xa9, 0xbe,
  0xb3, 0x75, 0x2d, 0xbf, 0x0c, 0x90, 0xc4, 0xbe, 0xf6, 0x85, 0x39, 0x3e, 0xc2,
  0x23, 0x5b, 0xbe, 0x9b, 0x35, 0xa9, 0xbe, 0xc8, 0xcb, 0xbf, 0x3e, 0xdc, 0xb2,
  0x0b, 0xbf, 0xca, 0xfc, 0x99, 0xbe, 0xe1, 0x7c, 0x42, 0xbe, 0x4f, 0x60, 0x25,
  0xbe, 0xf8, 0xe9, 0xeb, 0xbd, 0xd7, 0x33, 0xcc, 0xbd, 0xf2, 0x14, 0x18, 0x3e,
  0x1a, 0xad, 0xa8, 0xbe, 0x43, 0xe4, 0x05, 0xbf, 0x9a, 0x7c, 0x23, 0x3f, 0x6c,
  0xbf, 0xb6, 0x3e, 0x40, 0x21, 0xd7, 0x3e, 0x7c, 0xd3, 0xc1, 0x3e, 0x61, 0x9f,
  0x00, 0xbe, 0xb8, 0x45, 0x35, 0x3e, 0x1c, 0xdc, 0xb3, 0x3e, 0x64, 0x16, 0x85,
  0xbe, 0x98, 0xd1, 0xe1, 0xbe, 0x3f, 0x45, 0xb4, 0x3e, 0xf3, 0xa4, 0xeb, 0xbe,
  0x43, 0x02, 0x9f, 0xbe, 0x0a, 0x30, 0xc5, 0x3d, 0xb9, 0x8c, 0x72, 0xbe, 0xc6,
  0xbb, 0x50, 0xbe, 0x9f, 0x67, 0x64, 0xbd, 0x54, 0xd7, 0x82, 0x3e, 0x77, 0x30,
  0x80, 0xbf, 0x1d, 0x2d, 0xa2, 0xbf, 0x9c, 0x02, 0x38, 0xbe, 0xe3, 0xf5, 0x1a,
  0xbd, 0x96, 0xd4, 0x89, 0xbe, 0x91, 0x5a, 0x60, 0xbe, 0x67, 0x67, 0xd9, 0x3e,
  0x53, 0xae, 0xa0, 0x3e, 0xe5, 0x79, 0x80, 0xbe, 0x09, 0x9c, 0x3f, 0xbf, 0x7a,
  0x41, 0x04, 0x3f, 0x04, 0x5a, 0xd8, 0x3e, 0xf0, 0xad, 0x04, 0x3f, 0xb7, 0xbf,
  0xf1, 0x3e, 0xd1, 0x83, 0x13, 0xbf, 0x1b, 0x30, 0xad, 0xbe, 0x66, 0xeb, 0xf1,
  0xbe, 0x81, 0xce, 0x30, 0x3f, 0xc1, 0x10, 0x6a, 0x3e, 0x8f, 0x53, 0x00, 0x3f,
  0xb3, 0xc4, 0xa1, 0xbe, 0x07, 0x86, 0xb4, 0xba, 0x1f, 0x76, 0x0c, 0xbf, 0xf4,
  0xeb, 0xb3, 0x3c, 0x96, 0x2f, 0xcb, 0xbd, 0x16, 0x19, 0x70, 0x3d, 0xea, 0x3b,
  0x69, 0x3e, 0x3e, 0x79, 0x11, 0xbd, 0xd9, 0x65, 0xb1, 0xbe, 0xc4, 0xee, 0xd0,
  0x3e, 0xfb, 0xf5, 0xee, 0xbb, 0x21, 0x92, 0xb0, 0xbd, 0x73, 0xc4, 0x95, 0x3c,
  0xa2, 0x57, 0xd9, 0xbd, 0xa7, 0x9c, 0x16, 0x3e, 0x7a, 0xa8, 0xf0, 0xbe, 0x18,
  0xd7, 0x67, 0x3e, 0xb8, 0x8f, 0x56, 0x3d, 0x19, 0x11, 0x85, 0xbe, 0xa6, 0xe8,
  0x5d, 0xbd, 0x1a, 0x1b, 0x82, 0x3e, 0x6c, 0x9b, 0x6c, 0xbd, 0xdf, 0x80, 0x02,
  0xbe, 0xc6, 0x9a, 0xa9, 0x3d, 0x49, 0x51, 0xb5, 0xbe, 0x8e, 0x56, 0xc8, 0xbe,
  0x28, 0xaf, 0x77, 0x3e, 0x7c, 0x65, 0x35, 0x3e, 0xc0, 0xa9, 0x8e, 0xbd, 0x51,
  0x88, 0x93, 0xbd, 0x65, 0x59, 0xea, 0x3e, 0x20, 0x14, 0x38, 0x3f, 0xba, 0x26,
  0x35, 0x3e, 0x63, 0x09, 0xbf, 0xbe, 0xa8, 0x87, 0x3b, 0xbe, 0xcf, 0x94, 0x7b,
  0x3d, 0xad, 0x47, 0x04, 0x3f, 0x6e, 0x90, 0x7c, 0x3f, 0x29, 0xe0, 0x36, 0xbe,
  0x88, 0x24, 0x69, 0x3e, 0x29, 0x8f, 0x1b, 0x3e, 0x5e, 0x7d, 0x28, 0xbe, 0xea,
  0x6c, 0xe9, 0x3e, 0x7e, 0xfc, 0xff, 0xff, 0x04, 0x00, 0x00, 0x00, 0x1c, 0x00,
  0x00, 0x00, 0x82, 0xce, 0xc3, 0x3e, 0x33, 0x05, 0x8e, 0x3e, 0xc5, 0x26, 0x8e,
  0x3e, 0x49, 0xb4, 0xbd, 0x3e, 0x4b, 0xee, 0x2c, 0xbf, 0xa5, 0xc6, 0x85, 0xbe,
  0xe0, 0xfd, 0xa1, 0xbe, 0x4c, 0xf1, 0xff, 0xff, 0x50, 0xf1, 0xff, 0xff, 0x54,
  0xf1, 0xff, 0xff, 0x58, 0xf1, 0xff, 0xff, 0x5c, 0xf1, 0xff, 0xff, 0x0f, 0x00,
  0x00, 0x00, 0x4d, 0x4c, 0x49, 0x52, 0x20, 0x43, 0x6f, 0x6e, 0x76, 0x65, 0x72,
  0x74, 0x65, 0x64, 0x2e, 0x00, 0x01, 0x00, 0x00, 0x00, 0x14, 0x00, 0x00, 0x00,
  0x00, 0x00, 0x0e, 0x00, 0x18, 0x00, 0x14, 0x00, 0x10, 0x00, 0x0c, 0x00, 0x08,
  0x00, 0x04, 0x00, 0x0e, 0x00, 0x00, 0x00, 0x14, 0x00, 0x00, 0x00, 0x1c, 0x00,
  0x00, 0x00, 0x30, 0x03, 0x00, 0x00, 0x34, 0x03, 0x00, 0x00, 0x44, 0x03, 0x00,
  0x00, 0x04, 0x00, 0x00, 0x00, 0x6d, 0x61, 0x69, 0x6e, 0x00, 0x00, 0x00, 0x00,
  0x0d, 0x00, 0x00, 0x00, 0xdc, 0x02, 0x00, 0x00, 0x98, 0x02, 0x00, 0x00, 0x64,
  0x02, 0x00, 0x00, 0x20, 0x02, 0x00, 0x00, 0xd4, 0x01, 0x00, 0x00, 0x98, 0x01,
  0x00, 0x00, 0x5c, 0x01, 0x00, 0x00, 0x20, 0x01, 0x00, 0x00, 0xe4, 0x00, 0x00,
  0x00, 0xa8, 0x00, 0x00, 0x00, 0x6c, 0x00, 0x00, 0x00, 0x34, 0x00, 0x00, 0x00,
  0x10, 0x00, 0x00, 0x00, 0x00, 0x00, 0x0a, 0x00, 0x10, 0x00, 0x0c, 0x00, 0x08,
  0x00, 0x04, 0x00, 0x0a, 0x00, 0x00, 0x00, 0x0c, 0x00, 0x00, 0x00, 0x10, 0x00,
  0x00, 0x00, 0x02, 0x00, 0x00, 0x00, 0x01, 0x00, 0x00, 0x00, 0x20, 0x00, 0x00,
  0x00, 0x01, 0x00, 0x00, 0x00, 0x1f, 0x00, 0x00, 0x00, 0x42, 0xfe, 0xff, 0xff,
  0x14, 0x00, 0x00, 0x00, 0x00, 0x00, 0x00, 0x08, 0x10, 0x00, 0x00, 0x00, 0x14,
  0x00, 0x00, 0x00, 0x01, 0x00, 0x00, 0x00, 0x2c, 0xf2, 0xff, 0xff, 0x01, 0x00,
  0x00, 0x00, 0x1f, 0x00, 0x00, 0x00, 0x03, 0x00, 0x00, 0x00, 0x1e, 0x00, 0x00,
  0x00, 0x04, 0x00, 0x00, 0x00, 0x0d, 0x00, 0x00, 0x00, 0x76, 0xfe, 0xff, 0xff,
  0x14, 0x00, 0x00, 0x00, 0x00, 0x00, 0x00, 0x08, 0x14, 0x00, 0x00, 0x00, 0x18,
  0x00, 0x00, 0x00, 0x01, 0x00, 0x00, 0x00, 0x66, 0xfe, 0xff, 0xff, 0x00, 0x00,
  0x00, 0x01, 0x01, 0x00, 0x00, 0x00, 0x1e, 0x00, 0x00, 0x00, 0x03, 0x00, 0x00,
  0x00, 0x1d, 0x00, 0x00, 0x00, 0x05, 0x00, 0x00, 0x00, 0x0e, 0x00, 0x00, 0x00,
  0xfe, 0xfd, 0xff, 0xff, 0x10, 0x00, 0x00, 0x00, 0x00, 0x00, 0x00, 0x0a, 0x10,
  0x00, 0x00, 0x00, 0x14, 0x00, 0x00, 0x00, 0xee, 0xfd, 0xff, 0xff, 0x01, 0x00,
  0x00, 0x00, 0x01, 0x00, 0x00, 0x00, 0x1d, 0x00, 0x00, 0x00, 0x04, 0x00, 0x00,
  0x00, 0x00, 0x00, 0x00, 0x00, 0x1c, 0x00, 0x00, 0x00, 0x18, 0x00, 0x00, 0x00,
  0x1a, 0x00, 0x00, 0x00, 0xe6, 0xfe, 0xff, 0xff, 0x14, 0x00, 0x00, 0x00, 0x00,
  0x00, 0x00, 0x08, 0x14, 0x00, 0x00, 0x00, 0x18, 0x00, 0x00, 0x00, 0x01, 0x00,
  0x00, 0x00, 0xd6, 0xfe, 0xff, 0xff, 0x00, 0x00, 0x00, 0x01, 0x01, 0x00, 0x00,
  0x00, 0x1c, 0x00, 0x00, 0x00, 0x03, 0x00, 0x00, 0x00, 0x1b, 0x00, 0x00, 0x00,
  0x06, 0x00, 0x00, 0x00, 0x13, 0x00, 0x00, 0x00, 0x1e, 0xff, 0xff, 0xff, 0x14,
  0x00, 0x00, 0x00, 0x00, 0x00, 0x00, 0x08, 0x14, 0x00, 0x00, 0x00, 0x18, 0x00,
  0x00, 0x00, 0x01, 0x00, 0x00, 0x00, 0x0e, 0xff, 0xff, 0xff, 0x00, 0x00, 0x00,
  0x01, 0x01, 0x00, 0x00, 0x00, 0x1b, 0x00, 0x00, 0x00, 0x03, 0x00, 0x00, 0x00,
  0x14, 0x00, 0x00, 0x00, 0x07, 0x00, 0x00, 0x00, 0x0c, 0x00, 0x00, 0x00, 0x56,
  0xff, 0xff, 0xff, 0x14, 0x00, 0x00, 0x00, 0x00, 0x00, 0x00, 0x08, 0x14, 0x00,
  0x00, 0x00, 0x18, 0x00, 0x00, 0x00, 0x01, 0x00, 0x00, 0x00, 0x46, 0xff, 0xff,
  0xff, 0x00, 0x00, 0x00, 0x01, 0x01, 0x00, 0x00, 0x00, 0x1a, 0x00, 0x00, 0x00,
  0x03, 0x00, 0x00, 0x00, 0x19, 0x00, 0x00, 0x00, 0x08, 0x00, 0x00, 0x00, 0x0f,
  0x00, 0x00, 0x00, 0x8e, 0xff, 0xff, 0xff, 0x14, 0x00, 0x00, 0x00, 0x00, 0x00,
  0x00, 0x08, 0x14, 0x00, 0x00, 0x00, 0x18, 0x00, 0x00, 0x00, 0x01, 0x00, 0x00,
  0x00, 0x7e, 0xff, 0xff, 0xff, 0x00, 0x00, 0x00, 0x01, 0x01, 0x00, 0x00, 0x00,
  0x19, 0x00, 0x00, 0x00, 0x03, 0x00, 0x00, 0x00, 0x16, 0x00, 0x00, 0x00, 0x09,
  0x00, 0x00, 0x00, 0x10, 0x00, 0x00, 0x00, 0xc6, 0xff, 0xff, 0xff, 0x14, 0x00,
  0x00, 0x00, 0x00, 0x00, 0x00, 0x08, 0x14, 0x00, 0x00, 0x00, 0x18, 0x00, 0x00,
  0x00, 0x01, 0x00, 0x00, 0x00, 0xb6, 0xff, 0xff, 0xff, 0x00, 0x00, 0x00, 0x01,
  0x01, 0x00, 0x00, 0x00, 0x18, 0x00, 0x00, 0x00, 0x03, 0x00, 0x00, 0x00, 0x17,
  0x00, 0x00, 0x00, 0x0a, 0x00, 0x00, 0x00, 0x11, 0x00, 0x00, 0x00, 0x00, 0x00,
  0x0e, 0x00, 0x1a, 0x00, 0x14, 0x00, 0x10, 0x00, 0x0c, 0x00, 0x0b, 0x00, 0x04,
  0x00, 0x0e, 0x00, 0x00, 0x00, 0x1c, 0x00, 0x00, 0x00, 0x00, 0x00, 0x00, 0x08,
  0x1c, 0x00, 0x00, 0x00, 0x20, 0x00, 0x00, 0x00, 0x01, 0x00, 0x00, 0x00, 0x00,
  0x00, 0x06, 0x00, 0x08, 0x00, 0x07, 0x00, 0x06, 0x00, 0x00, 0x00, 0x00, 0x00,
  0x00, 0x01, 0x01, 0x00, 0x00, 0x00, 0x17, 0x00, 0x00, 0x00, 0x03, 0x00, 0x00,
  0x00, 0x15, 0x00, 0x00, 0x00, 0x0b, 0x00, 0x00, 0x00, 0x12, 0x00, 0x00, 0x00,
  0x9e, 0xff, 0xff, 0xff, 0x10, 0x00, 0x00, 0x00, 0x00, 0x00, 0x00, 0x0a, 0x10,
  0x00, 0x00, 0x00, 0x14, 0x00, 0x00, 0x00, 0x8e, 0xff, 0xff, 0xff, 0x01, 0x00,
  0x00, 0x00, 0x01, 0x00, 0x00, 0x00, 0x16, 0x00, 0x00, 0x00, 0x02, 0x00, 0x00,
  0x00, 0x01, 0x00, 0x00, 0x00, 0x00, 0x00, 0x00, 0x00, 0xce, 0xff, 0xff, 0xff,
  0x10, 0x00, 0x00, 0x00, 0x00, 0x00, 0x00, 0x0a, 0x10, 0x00, 0x00, 0x00, 0x14,
  0x00, 0x00, 0x00, 0xbe, 0xff, 0xff, 0xff, 0x01, 0x00, 0x00, 0x00, 0x01, 0x00,
  0x00, 0x00, 0x15, 0x00, 0x00, 0x00, 0x02, 0x00, 0x00, 0x00, 0x02, 0x00, 0x00,
  0x00, 0x00, 0x00, 0x00, 0x00, 0x00, 0x00, 0x0e, 0x00, 0x16, 0x00, 0x00, 0x00,
  0x10, 0x00, 0x0c, 0x00, 0x0b, 0x00, 0x04, 0x00, 0x0e, 0x00, 0x00, 0x00, 0x18,
  0x00, 0x00, 0x00, 0x00, 0x00, 0x00, 0x0a, 0x18, 0x00, 0x00, 0x00, 0x1c, 0x00,
  0x00, 0x00, 0x00, 0x00, 0x06, 0x00, 0x08, 0x00, 0x04, 0x00, 0x06, 0x00, 0x00,
  0x00, 0x01, 0x00, 0x00, 0x00, 0x01, 0x00, 0x00, 0x00, 0x14, 0x00, 0x00, 0x00,
  0x02, 0x00, 0x00, 0x00, 0x03, 0x00, 0x00, 0x00, 0x00, 0x00, 0x00, 0x00, 0x01,
  0x00, 0x00, 0x00, 0x20, 0x00, 0x00, 0x00, 0x04, 0x00, 0x00, 0x00, 0x00, 0x00,
  0x00, 0x00, 0x01, 0x00, 0x00, 0x00, 0x02, 0x00, 0x00, 0x00, 0x03, 0x00, 0x00,
  0x00, 0x21, 0x00, 0x00, 0x00, 0xf0, 0x0a, 0x00, 0x00, 0x7c, 0x0a, 0x00, 0x00,
  0x20, 0x0a, 0x00, 0x00, 0xc4, 0x09, 0x00, 0x00, 0x84, 0x09, 0x00, 0x00, 0x2c,
  0x09, 0x00, 0x00, 0xec, 0x08, 0x00, 0x00, 0xac, 0x08, 0x00, 0x00, 0x6c, 0x08,
  0x00, 0x00, 0x2c, 0x08, 0x00, 0x00, 0xec, 0x07, 0x00, 0x00, 0xac, 0x07, 0x00,
  0x00, 0x70, 0x07, 0x00, 0x00, 0x34, 0x07, 0x00, 0x00, 0xf4, 0x06, 0x00, 0x00,
  0xb4, 0x06, 0x00, 0x00, 0x74, 0x06, 0x00, 0x00, 0x34, 0x06, 0x00, 0x00, 0xf4,
  0x05, 0x00, 0x00, 0xb4, 0x05, 0x00, 0x00, 0x58, 0x05, 0x00, 0x00, 0xfc, 0x04,
  0x00, 0x00, 0xa0, 0x04, 0x00, 0x00, 0x20, 0x04, 0x00, 0x00, 0xa0, 0x03, 0x00,
  0x00, 0x20, 0x03, 0x00, 0x00, 0xa0, 0x02, 0x00, 0x00, 0x28, 0x02, 0x00, 0x00,
  0xa8, 0x01, 0x00, 0x00, 0x4c, 0x01, 0x00, 0x00, 0xcc, 0x00, 0x00, 0x00, 0x60,
  0x00, 0x00, 0x00, 0x04, 0x00, 0x00, 0x00, 0xaa, 0xf5, 0xff, 0xff, 0x00, 0x00,
  0x00, 0x01, 0x14, 0x00, 0x00, 0x00, 0x1c, 0x00, 0x00, 0x00, 0x1c, 0x00, 0x00,
  0x00, 0x21, 0x00, 0x00, 0x00, 0x34, 0x00, 0x00, 0x00, 0x02, 0x00, 0x00, 0x00,
  0xff, 0xff, 0xff, 0xff, 0x01, 0x00, 0x00, 0x00, 0x94, 0xf5, 0xff, 0xff, 0x19,
  0x00, 0x00, 0x00, 0x53, 0x74, 0x61, 0x74, 0x65, 0x66, 0x75, 0x6c, 0x50, 0x61,
  0x72, 0x74, 0x69, 0x74, 0x69, 0x6f, 0x6e, 0x65, 0x64, 0x43, 0x61, 0x6c, 0x6c,
  0x3a, 0x30, 0x00, 0x00, 0x00, 0x02, 0x00, 0x00, 0x00, 0x01, 0x00, 0x00, 0x00,
  0x01, 0x00, 0x00, 0x00, 0x02, 0xf6, 0xff, 0xff, 0x00, 0x00, 0x00, 0x01, 0x14,
  0x00, 0x00, 0x00, 0x1c, 0x00, 0x00, 0x00, 0x1c, 0x00, 0x00, 0x00, 0x20, 0x00,
  0x00, 0x00, 0x44, 0x00, 0x00, 0x00, 0x02, 0x00, 0x00, 0x00, 0xff, 0xff, 0xff,
  0xff, 0x01, 0x00, 0x00, 0x00, 0xec, 0xf5, 0xff, 0xff, 0x2a, 0x00, 0x00, 0x00,
  0x6d, 0x6f, 0x64, 0x65, 0x6c, 0x2f, 0x64, 0x65, 0x6e, 0x73, 0x65, 0x5f, 0x37,
  0x2f, 0x4d, 0x61, 0x74, 0x4d, 0x75, 0x6c, 0x3b, 0x6d, 0x6f, 0x64, 0x65, 0x6c,
  0x2f, 0x64, 0x65, 0x6e, 0x73, 0x65, 0x5f, 0x37, 0x2f, 0x42, 0x69, 0x61, 0x73,
  0x41, 0x64, 0x64, 0x00, 0x00, 0x02, 0x00, 0x00, 0x00, 0x01, 0x00, 0x00, 0x00,
  0x01, 0x00, 0x00, 0x00, 0x6a, 0xf6, 0xff, 0xff, 0x00, 0x00, 0x00, 0x01, 0x14,
  0x00, 0x00, 0x00, 0x1c, 0x00, 0x00, 0x00, 0x1c, 0x00, 0x00, 0x00, 0x1f, 0x00,
  0x00, 0x00, 0x58, 0x00, 0x00, 0x00, 0x02, 0x00, 0x00, 0x00, 0xff, 0xff, 0xff,
  0xff, 0x07, 0x00, 0x00, 0x00, 0x54, 0xf6, 0xff, 0xff, 0x3d, 0x00, 0x00, 0x00,
  0x6d, 0x6f, 0x64, 0x65, 0x6c, 0x2f, 0x64, 0x65, 0x6e, 0x73, 0x65, 0x5f, 0x36,
  0x2f, 0x4d, 0x61, 0x74, 0x4d, 0x75, 0x6c, 0x3b, 0x6d, 0x6f, 0x64, 0x65, 0x6c,
  0x2f, 0x64, 0x65, 0x6e, 0x73, 0x65, 0x5f, 0x36, 0x2f, 0x52, 0x65, 0x6c, 0x75,
  0x3b, 0x6d, 0x6f, 0x64, 0x65, 0x6c, 0x2f, 0x64, 0x65, 0x6e, 0x73, 0x65, 0x5f,
  0x36, 0x2f, 0x42, 0x69, 0x61, 0x73, 0x41, 0x64, 0x64, 0x00, 0x00, 0x00, 0x02,
  0x00, 0x00, 0x00, 0x01, 0x00, 0x00, 0x00, 0x07, 0x00, 0x00, 0x00, 0xe6, 0xf6,
  0xff, 0xff, 0x00, 0x00, 0x00, 0x01, 0x14, 0x00, 0x00, 0x00, 0x1c, 0x00, 0x00,
  0x00, 0x1c, 0x00, 0x00, 0x00, 0x1e, 0x00, 0x00, 0x00, 0x34, 0x00, 0x00, 0x00,
  0x02, 0x00, 0x00, 0x00, 0xff, 0xff, 0xff, 0xff, 0x0e, 0x00, 0x00, 0x00, 0xd0,
  0xf6, 0xff, 0xff, 0x1a, 0x00, 0x00, 0x00, 0x6d, 0x6f, 0x64, 0x65, 0x6c, 0x2f,
  0x63, 0x6f, 0x6e, 0x63, 0x61, 0x74, 0x65, 0x6e, 0x61, 0x74, 0x65, 0x5f, 0x33,
  0x2f, 0x63, 0x6f, 0x6e, 0x63, 0x61, 0x74, 0x00, 0x00, 0x02, 0x00, 0x00, 0x00,
  0x01, 0x00, 0x00, 0x00, 0x0e, 0x00, 0x00, 0x00, 0x3e, 0xf7, 0xff, 0xff, 0x00,
  0x00, 0x00, 0x01, 0x14, 0x00, 0x00, 0x00, 0x1c, 0x00, 0x00, 0x00, 0x1c, 0x00,
  0x00, 0x00, 0x1d, 0x00, 0x00, 0x00, 0x58, 0x00, 0x00, 0x00, 0x02, 0x00, 0x00,
  0x00, 0xff, 0xff, 0xff, 0xff, 0x05, 0x00, 0x00, 0x00, 0x28, 0xf7, 0xff, 0xff,
  0x3d, 0x00, 0x00, 0x00, 0x6d, 0x6f, 0x64, 0x65, 0x6c, 0x2f, 0x64, 0x65, 0x6e,
  0x73, 0x65, 0x5f, 0x31, 0x2f, 0x4d, 0x61, 0x74, 0x4d, 0x75, 0x6c, 0x3b, 0x6d,
  0x6f, 0x64, 0x65, 0x6c, 0x2f, 0x64, 0x65, 0x6e, 0x73, 0x65, 0x5f, 0x31, 0x2f,
  0x52, 0x65, 0x6c, 0x75, 0x3b, 0x6d, 0x6f, 0x64, 0x65, 0x6c, 0x2f, 0x64, 0x65,
  0x6e, 0x73, 0x65, 0x5f, 0x31, 0x2f, 0x42, 0x69, 0x61, 0x73, 0x41, 0x64, 0x64,
  0x00, 0x00, 0x00, 0x02, 0x00, 0x00, 0x00, 0x01, 0x00, 0x00, 0x00, 0x05, 0x00,
  0x00, 0x00, 0xba, 0xf7, 0xff, 0xff, 0x00, 0x00, 0x00, 0x01, 0x14, 0x00, 0x00,
  0x00, 0x1c, 0x00, 0x00, 0x00, 0x1c, 0x00, 0x00, 0x00, 0x1c, 0x00, 0x00, 0x00,
  0x50, 0x00, 0x00, 0x00, 0x02, 0x00, 0x00, 0x00, 0xff, 0xff, 0xff, 0xff, 0x0a,
  0x00, 0x00, 0x00, 0xa4, 0xf7, 0xff, 0xff, 0x37, 0x00, 0x00, 0x00, 0x6d, 0x6f,
  0x64, 0x65, 0x6c, 0x2f, 0x64, 0x65, 0x6e, 0x73, 0x65, 0x2f, 0x4d, 0x61, 0x74,
  0x4d, 0x75, 0x6c, 0x3b, 0x6d, 0x6f, 0x64, 0x65, 0x6c, 0x2f, 0x64, 0x65, 0x6e,
  0x73, 0x65, 0x2f, 0x52, 0x65, 0x6c, 0x75, 0x3b, 0x6d, 0x6f, 0x64, 0x65, 0x6c,
  0x2f, 0x64, 0x65, 0x6e, 0x73, 0x65, 0x2f, 0x42, 0x69, 0x61, 0x73, 0x41, 0x64,
  0x64, 0x00, 0x02, 0x00, 0x00, 0x00, 0x01, 0x00, 0x00, 0x00, 0x0a, 0x00, 0x00,
  0x00, 0x2e, 0xf8, 0xff, 0xff, 0x00, 0x00, 0x00, 0x01, 0x14, 0x00, 0x00, 0x00,
  0x1c, 0x00, 0x00, 0x00, 0x1c, 0x00, 0x00, 0x00, 0x1b, 0x00, 0x00, 0x00, 0x58,
  0x00, 0x00, 0x00, 0x02, 0x00, 0x00, 0x00, 0xff, 0xff, 0xff, 0xff, 0x03, 0x00,
  0x00, 0x00, 0x18, 0xf8, 0xff, 0xff, 0x3d, 0x00, 0x00, 0x00, 0x6d, 0x6f, 0x64,
  0x65, 0x6c, 0x2f, 0x64, 0x65, 0x6e, 0x73, 0x65, 0x5f, 0x35, 0x2f, 0x4d, 0x61,
  0x74, 0x4d, 0x75, 0x6c, 0x3b, 0x6d, 0x6f, 0x64, 0x65, 0x6c, 0x2f, 0x64, 0x65,
  0x6e, 0x73, 0x65, 0x5f, 0x35, 0x2f, 0x52, 0x65, 0x6c, 0x75, 0x3b, 0x6d, 0x6f,
  0x64, 0x65, 0x6c, 0x2f, 0x64, 0x65, 0x6e, 0x73, 0x65, 0x5f, 0x35, 0x2f, 0x42,
  0x69, 0x61, 0x73, 0x41, 0x64, 0x64, 0x00, 0x00, 0x00, 0x02, 0x00, 0x00, 0x00,
  0x01, 0x00, 0x00, 0x00, 0x03, 0x00, 0x00, 0x00, 0xaa, 0xf8, 0xff, 0xff, 0x00,
  0x00, 0x00, 0x01, 0x14, 0x00, 0x00, 0x00, 0x1c, 0x00, 0x00, 0x00, 0x1c, 0x00,
  0x00, 0x00, 0x1a, 0x00, 0x00, 0x00, 0x58, 0x00, 0x00, 0x00, 0x02, 0x00, 0x00,
  0x00, 0xff, 0xff, 0xff, 0xff, 0x06, 0x00, 0x00, 0x00, 0x94, 0xf8, 0xff, 0xff,
  0x3d, 0x00, 0x00, 0x00, 0x6d, 0x6f, 0x64, 0x65, 0x6c, 0x2f, 0x64, 0x65, 0x6e,
  0x73, 0x65, 0x5f, 0x34, 0x2f, 0x4d, 0x61, 0x74, 0x4d, 0x75, 0x6c, 0x3b, 0x6d,
  0x6f, 0x64, 0x65, 0x6c, 0x2f, 0x64, 0x65, 0x6e, 0x73, 0x65, 0x5f, 0x34, 0x2f,
  0x52, 0x65, 0x6c, 0x75, 0x3b, 0x6d, 0x6f, 0x64, 0x65, 0x6c, 0x2f, 0x64, 0x65,
  0x6e, 0x73, 0x65, 0x5f, 0x34, 0x2f, 0x42, 0x69, 0x61, 0x73, 0x41, 0x64, 0x64,
  0x00, 0x00, 0x00, 0x02, 0x00, 0x00, 0x00, 0x01, 0x00, 0x00, 0x00, 0x06, 0x00,
  0x00, 0x00, 0x26, 0xf9, 0xff, 0xff, 0x00, 0x00, 0x00, 0x01, 0x14, 0x00, 0x00,
  0x00, 0x1c, 0x00, 0x00, 0x00, 0x1c, 0x00, 0x00, 0x00, 0x19, 0x00, 0x00, 0x00,
  0x58, 0x00, 0x00, 0x00, 0x02, 0x00, 0x00, 0x00, 0xff, 0xff, 0xff, 0xff, 0x03,
  0x00, 0x00, 0x00, 0x10, 0xf9, 0xff, 0xff, 0x3d, 0x00, 0x00, 0x00, 0x6d, 0x6f,
  0x64, 0x65, 0x6c, 0x2f, 0x64, 0x65, 0x6e, 0x73, 0x65, 0x5f, 0x33, 0x2f, 0x4d,
  0x61, 0x74, 0x4d, 0x75, 0x6c, 0x3b, 0x6d, 0x6f, 0x64, 0x65, 0x6c, 0x2f, 0x64,
  0x65, 0x6e, 0x73, 0x65, 0x5f, 0x33, 0x2f, 0x52, 0x65, 0x6c, 0x75, 0x3b, 0x6d,
  0x6f, 0x64, 0x65, 0x6c, 0x2f, 0x64, 0x65, 0x6e, 0x73, 0x65, 0x5f, 0x33, 0x2f,
  0x42, 0x69, 0x61, 0x73, 0x41, 0x64, 0x64, 0x00, 0x00, 0x00, 0x02, 0x00, 0x00,
  0x00, 0x01, 0x00, 0x00, 0x00, 0x03, 0x00, 0x00, 0x00, 0xa2, 0xf9, 0xff, 0xff,
  0x00, 0x00, 0x00, 0x01, 0x14, 0x00, 0x00, 0x00, 0x1c, 0x00, 0x00, 0x00, 0x1c,
  0x00, 0x00, 0x00, 0x18, 0x00, 0x00, 0x00, 0x58, 0x00, 0x00, 0x00, 0x02, 0x00,
  0x00, 0x00, 0xff, 0xff, 0xff, 0xff, 0x06, 0x00, 0x00, 0x00, 0x8c, 0xf9, 0xff,
  0xff, 0x3d, 0x00, 0x00, 0x00, 0x6d, 0x6f, 0x64, 0x65, 0x6c, 0x2f, 0x64, 0x65,
  0x6e, 0x73, 0x65, 0x5f, 0x32, 0x2f, 0x4d, 0x61, 0x74, 0x4d, 0x75, 0x6c, 0x3b,
  0x6d, 0x6f, 0x64, 0x65, 0x6c, 0x2f, 0x64, 0x65, 0x6e, 0x73, 0x65, 0x5f, 0x32,
  0x2f, 0x52, 0x65, 0x6c, 0x75, 0x3b, 0x6d, 0x6f, 0x64, 0x65, 0x6c, 0x2f, 0x64,
  0x65, 0x6e, 0x73, 0x65, 0x5f, 0x32, 0x2f, 0x42, 0x69, 0x61, 0x73, 0x41, 0x64,
  0x64, 0x00, 0x00, 0x00, 0x02, 0x00, 0x00, 0x00, 0x01, 0x00, 0x00, 0x00, 0x06,
  0x00, 0x00, 0x00, 0x1e, 0xfa, 0xff, 0xff, 0x00, 0x00, 0x00, 0x01, 0x14, 0x00,
  0x00, 0x00, 0x1c, 0x00, 0x00, 0x00, 0x1c, 0x00, 0x00, 0x00, 0x17, 0x00, 0x00,
  0x00, 0x34, 0x00, 0x00, 0x00, 0x02, 0x00, 0x00, 0x00, 0xff, 0xff, 0xff, 0xff,
  0x0f, 0x00, 0x00, 0x00, 0x08, 0xfa, 0xff, 0xff, 0x1a, 0x00, 0x00, 0x00, 0x6d,
  0x6f, 0x64, 0x65, 0x6c, 0x2f, 0x63, 0x6f, 0x6e, 0x63, 0x61, 0x74, 0x65, 0x6e,
  0x61, 0x74, 0x65, 0x5f, 0x32, 0x2f, 0x63, 0x6f, 0x6e, 0x63, 0x61, 0x74, 0x00,
  0x00, 0x02, 0x00, 0x00, 0x00, 0x01, 0x00, 0x00, 0x00, 0x0f, 0x00, 0x00, 0x00,
  0x76, 0xfa, 0xff, 0xff, 0x00, 0x00, 0x00, 0x01, 0x14, 0x00, 0x00, 0x00, 0x1c,
  0x00, 0x00, 0x00, 0x1c, 0x00, 0x00, 0x00, 0x16, 0x00, 0x00, 0x00, 0x34, 0x00,
  0x00, 0x00, 0x02, 0x00, 0x00, 0x00, 0xff, 0xff, 0xff, 0xff, 0x0f, 0x00, 0x00,
  0x00, 0x60, 0xfa, 0xff, 0xff, 0x1a, 0x00, 0x00, 0x00, 0x6d, 0x6f, 0x64, 0x65,
  0x6c, 0x2f, 0x63, 0x6f, 0x6e, 0x63, 0x61, 0x74, 0x65, 0x6e, 0x61, 0x74, 0x65,
  0x5f, 0x31, 0x2f, 0x63, 0x6f, 0x6e, 0x63, 0x61, 0x74, 0x00, 0x00, 0x02, 0x00,
  0x00, 0x00, 0x01, 0x00, 0x00, 0x00, 0x0f, 0x00, 0x00, 0x00, 0xce, 0xfa, 0xff,
  0xff, 0x00, 0x00, 0x00, 0x01, 0x14, 0x00, 0x00, 0x00, 0x1c, 0x00, 0x00, 0x00,
  0x1c, 0x00, 0x00, 0x00, 0x15, 0x00, 0x00, 0x00, 0x34, 0x00, 0x00, 0x00, 0x02,
  0x00, 0x00, 0x00, 0xff, 0xff, 0xff, 0xff, 0x17, 0x00, 0x00, 0x00, 0xb8, 0xfa,
  0xff, 0xff, 0x18, 0x00, 0x00, 0x00, 0x6d, 0x6f, 0x64, 0x65, 0x6c, 0x2f, 0x63,
  0x6f, 0x6e, 0x63, 0x61, 0x74, 0x65, 0x6e, 0x61, 0x74, 0x65, 0x2f, 0x63, 0x6f,
  0x6e, 0x63, 0x61, 0x74, 0x00, 0x00, 0x00, 0x00, 0x02, 0x00, 0x00, 0x00, 0x01,
  0x00, 0x00, 0x00, 0x17, 0x00, 0x00, 0x00, 0x82, 0xfc, 0xff, 0xff, 0x00, 0x00,
  0x00, 0x01, 0x10, 0x00, 0x00, 0x00, 0x10, 0x00, 0x00, 0x00, 0x14, 0x00, 0x00,
  0x00, 0x20, 0x00, 0x00, 0x00, 0x00, 0xfb, 0xff, 0xff, 0x10, 0x00, 0x00, 0x00,
  0x61, 0x72, 0x69, 0x74, 0x68, 0x2e, 0x63, 0x6f, 0x6e, 0x73, 0x74, 0x61, 0x6e,
  0x74, 0x31, 0x35, 0x00, 0x00, 0x00, 0x00, 0x01, 0x00, 0x00, 0x00, 0x05, 0x00,
  0x00, 0x00, 0xbe, 0xfc, 0xff, 0xff, 0x00, 0x00, 0x00, 0x01, 0x10, 0x00, 0x00,
  0x00, 0x10, 0x00, 0x00, 0x00, 0x13, 0x00, 0x00, 0x00, 0x20, 0x00, 0x00, 0x00,
  0x3c, 0xfb, 0xff, 0xff, 0x10, 0x00, 0x00, 0x00, 0x61, 0x72, 0x69, 0x74, 0x68,
  0x2e, 0x63, 0x6f, 0x6e, 0x73, 0x74, 0x61, 0x6e, 0x74, 0x31, 0x34, 0x00, 0x00,
  0x00, 0x00, 0x01, 0x00, 0x00, 0x00, 0x06, 0x00, 0x00, 0x00, 0xfa, 0xfc, 0xff,
  0xff, 0x00, 0x00, 0x00, 0x01, 0x10, 0x00, 0x00, 0x00, 0x10, 0x00, 0x00, 0x00,
  0x12, 0x00, 0x00, 0x00, 0x20, 0x00, 0x00, 0x00, 0x78, 0xfb, 0xff, 0xff, 0x10,
  0x00, 0x00, 0x00, 0x61, 0x72, 0x69, 0x74, 0x68, 0x2e, 0x63, 0x6f, 0x6e, 0x73,
  0x74, 0x61, 0x6e, 0x74, 0x31, 0x33, 0x00, 0x00, 0x00, 0x00, 0x01, 0x00, 0x00,
  0x00, 0x03, 0x00, 0x00, 0x00, 0x36, 0xfd, 0xff, 0xff, 0x00, 0x00, 0x00, 0x01,
  0x10, 0x00, 0x00, 0x00, 0x10, 0x00, 0x00, 0x00, 0x11, 0x00, 0x00, 0x00, 0x20,
  0x00, 0x00, 0x00, 0xb4, 0xfb, 0xff, 0xff, 0x10, 0x00, 0x00, 0x00, 0x61, 0x72,
  0x69, 0x74, 0x68, 0x2e, 0x63, 0x6f, 0x6e, 0x73, 0x74, 0x61, 0x6e, 0x74, 0x31,
  0x32, 0x00, 0x00, 0x00, 0x00, 0x01, 0x00, 0x00, 0x00, 0x06, 0x00, 0x00, 0x00,
  0x72, 0xfd, 0xff, 0xff, 0x00, 0x00, 0x00, 0x01, 0x10, 0x00, 0x00, 0x00, 0x10,
  0x00, 0x00, 0x00, 0x10, 0x00, 0x00, 0x00, 0x20, 0x00, 0x00, 0x00, 0xf0, 0xfb,
  0xff, 0xff, 0x10, 0x00, 0x00, 0x00, 0x61, 0x72, 0x69, 0x74, 0x68, 0x2e, 0x63,
  0x6f, 0x6e, 0x73, 0x74, 0x61, 0x6e, 0x74, 0x31, 0x31, 0x00, 0x00, 0x00, 0x00,
  0x01, 0x00, 0x00, 0x00, 0x03, 0x00, 0x00, 0x00, 0xae, 0xfd, 0xff, 0xff, 0x00,
  0x00, 0x00, 0x01, 0x10, 0x00, 0x00, 0x00, 0x10, 0x00, 0x00, 0x00, 0x0f, 0x00,
  0x00, 0x00, 0x20, 0x00, 0x00, 0x00, 0x2c, 0xfc, 0xff, 0xff, 0x10, 0x00, 0x00,
  0x00, 0x61, 0x72, 0x69, 0x74, 0x68, 0x2e, 0x63, 0x6f, 0x6e, 0x73, 0x74, 0x61,
  0x6e, 0x74, 0x31, 0x30, 0x00, 0x00, 0x00, 0x00, 0x01, 0x00, 0x00, 0x00, 0x07,
  0x00, 0x00, 0x00, 0xea, 0xfd, 0xff, 0xff, 0x00, 0x00, 0x00, 0x01, 0x10, 0x00,
  0x00, 0x00, 0x10, 0x00, 0x00, 0x00, 0x0e, 0x00, 0x00, 0x00, 0x1c, 0x00, 0x00,
  0x00, 0x68, 0xfc, 0xff, 0xff, 0x0f, 0x00, 0x00, 0x00, 0x61, 0x72, 0x69, 0x74,
  0x68, 0x2e, 0x63, 0x6f, 0x6e, 0x73, 0x74, 0x61, 0x6e, 0x74, 0x39, 0x00, 0x01,
  0x00, 0x00, 0x00, 0x01, 0x00, 0x00, 0x00, 0x22, 0xfe, 0xff, 0xff, 0x00, 0x00,
  0x00, 0x01, 0x10, 0x00, 0x00, 0x00, 0x10, 0x00, 0x00, 0x00, 0x0d, 0x00, 0x00,
  0x00, 0x1c, 0x00, 0x00, 0x00, 0xa0, 0xfc, 0xff, 0xff, 0x0f, 0x00, 0x00, 0x00,
  0x61, 0x72, 0x69, 0x74, 0x68, 0x2e, 0x63, 0x6f, 0x6e, 0x73, 0x74, 0x61, 0x6e,
  0x74, 0x38, 0x00, 0x01, 0x00, 0x00, 0x00, 0x0a, 0x00, 0x00, 0x00, 0x5a, 0xfe,
  0xff, 0xff, 0x00, 0x00, 0x00, 0x01, 0x10, 0x00, 0x00, 0x00, 0x10, 0x00, 0x00,
  0x00, 0x0c, 0x00, 0x00, 0x00, 0x1c, 0x00, 0x00, 0x00, 0xd8, 0xfc, 0xff, 0xff,
  0x0f, 0x00, 0x00, 0x00, 0x61, 0x72, 0x69, 0x74, 0x68, 0x2e, 0x63, 0x6f, 0x6e,
  0x73, 0x74, 0x61, 0x6e, 0x74, 0x37, 0x00, 0x02, 0x00, 0x00, 0x00, 0x06, 0x00,
  0x00, 0x00, 0x0f, 0x00, 0x00, 0x00, 0x96, 0xfe, 0xff, 0xff, 0x00, 0x00, 0x00,
  0x01, 0x10, 0x00, 0x00, 0x00, 0x10, 0x00, 0x00, 0x00, 0x0b, 0x00, 0x00, 0x00,
  0x1c, 0x00, 0x00, 0x00, 0x14, 0xfd, 0xff, 0xff, 0x0f, 0x00, 0x00, 0x00, 0x61,
  0x72, 0x69, 0x74, 0x68, 0x2e, 0x63, 0x6f, 0x6e, 0x73, 0x74, 0x61, 0x6e, 0x74,
  0x36, 0x00, 0x02, 0x00, 0x00, 0x00, 0x03, 0x00, 0x00, 0x00, 0x06, 0x00, 0x00,
  0x00, 0xd2, 0xfe, 0xff, 0xff, 0x00, 0x00, 0x00, 0x01, 0x10, 0x00, 0x00, 0x00,
  0x10, 0x00, 0x00, 0x00, 0x0a, 0x00, 0x00, 0x00, 0x1c, 0x00, 0x00, 0x00, 0x50,
  0xfd, 0xff, 0xff, 0x0f, 0x00, 0x00, 0x00, 0x61, 0x72, 0x69, 0x74, 0x68, 0x2e,
  0x63, 0x6f, 0x6e, 0x73, 0x74, 0x61, 0x6e, 0x74, 0x35, 0x00, 0x02, 0x00, 0x00,
  0x00, 0x06, 0x00, 0x00, 0x00, 0x0f, 0x00, 0x00, 0x00, 0x0e, 0xff, 0xff, 0xff,
  0x00, 0x00, 0x00, 0x01, 0x10, 0x00, 0x00, 0x00, 0x10, 0x00, 0x00, 0x00, 0x09,
  0x00, 0x00, 0x00, 0x1c, 0x00, 0x00, 0x00, 0x8c, 0xfd, 0xff, 0xff, 0x0f, 0x00,
  0x00, 0x00, 0x61, 0x72, 0x69, 0x74, 0x68, 0x2e, 0x63, 0x6f, 0x6e, 0x73, 0x74,
  0x61, 0x6e, 0x74, 0x34, 0x00, 0x02, 0x00, 0x00, 0x00, 0x03, 0x00, 0x00, 0x00,
  0x06, 0x00, 0x00, 0x00, 0x4a, 0xff, 0xff, 0xff, 0x00, 0x00, 0x00, 0x01, 0x10,
  0x00, 0x00, 0x00, 0x10, 0x00, 0x00, 0x00, 0x08, 0x00, 0x00, 0x00, 0x1c, 0x00,
  0x00, 0x00, 0xc8, 0xfd, 0xff, 0xff, 0x0f, 0x00, 0x00, 0x00, 0x61, 0x72, 0x69,
  0x74, 0x68, 0x2e, 0x63, 0x6f, 0x6e, 0x73, 0x74, 0x61, 0x6e, 0x74, 0x33, 0x00,
  0x02, 0x00, 0x00, 0x00, 0x0a, 0x00, 0x00, 0x00, 0x17, 0x00, 0x00, 0x00, 0x86,
  0xff, 0xff, 0xff, 0x00, 0x00, 0x00, 0x01, 0x10, 0x00, 0x00, 0x00, 0x10, 0x00,
  0x00, 0x00, 0x07, 0x00, 0x00, 0x00, 0x1c, 0x00, 0x00, 0x00, 0x04, 0xfe, 0xff,
  0xff, 0x0f, 0x00, 0x00, 0x00, 0x61, 0x72, 0x69, 0x74, 0x68, 0x2e, 0x63, 0x6f,
  0x6e, 0x73, 0x74, 0x61, 0x6e, 0x74, 0x32, 0x00, 0x02, 0x00, 0x00, 0x00, 0x05,
  0x00, 0x00, 0x00, 0x0a, 0x00, 0x00, 0x00, 0xc2, 0xff, 0xff, 0xff, 0x00, 0x00,
  0x00, 0x01, 0x10, 0x00, 0x00, 0x00, 0x10, 0x00, 0x00, 0x00, 0x06, 0x00, 0x00,
  0x00, 0x1c, 0x00, 0x00, 0x00, 0x40, 0xfe, 0xff, 0xff, 0x0f, 0x00, 0x00, 0x00,
  0x61, 0x72, 0x69, 0x74, 0x68, 0x2e, 0x63, 0x6f, 0x6e, 0x73, 0x74, 0x61, 0x6e,
  0x74, 0x31, 0x00, 0x02, 0x00, 0x00, 0x00, 0x07, 0x00, 0x00, 0x00, 0x0e, 0x00,
  0x00, 0x00, 0x00, 0x00, 0x16, 0x00, 0x18, 0x00, 0x14, 0x00, 0x00, 0x00, 0x10,
  0x00, 0x0c, 0x00, 0x08, 0x00, 0x00, 0x00, 0x00, 0x00, 0x00, 0x00, 0x07, 0x00,
  0x16, 0x00, 0x00, 0x00, 0x00, 0x00, 0x00, 0x01, 0x10, 0x00, 0x00, 0x00, 0x10,
  0x00, 0x00, 0x00, 0x05, 0x00, 0x00, 0x00, 0x1c, 0x00, 0x00, 0x00, 0x94, 0xfe,
  0xff, 0xff, 0x0e, 0x00, 0x00, 0x00, 0x61, 0x72, 0x69, 0x74, 0x68, 0x2e, 0x63,
  0x6f, 0x6e, 0x73, 0x74, 0x61, 0x6e, 0x74, 0x00, 0x00, 0x02, 0x00, 0x00, 0x00,
  0x01, 0x00, 0x00, 0x00, 0x07, 0x00, 0x00, 0x00, 0xf6, 0xfe, 0xff, 0xff, 0x00,
  0x00, 0x00, 0x01, 0x14, 0x00, 0x00, 0x00, 0x1c, 0x00, 0x00, 0x00, 0x1c, 0x00,
  0x00, 0x00, 0x04, 0x00, 0x00, 0x00, 0x34, 0x00, 0x00, 0x00, 0x02, 0x00, 0x00,
  0x00, 0xff, 0xff, 0xff, 0xff, 0x14, 0x00, 0x00, 0x00, 0xe0, 0xfe, 0xff, 0xff,
  0x19, 0x00, 0x00, 0x00, 0x73, 0x65, 0x72, 0x76, 0x69, 0x6e, 0x67, 0x5f, 0x64,
  0x65, 0x66, 0x61, 0x75, 0x6c, 0x74, 0x5f, 0x69, 0x6e, 0x70, 0x75, 0x74, 0x5f,
  0x32, 0x3a, 0x30, 0x00, 0x00, 0x00, 0x02, 0x00, 0x00, 0x00, 0x01, 0x00, 0x00,
  0x00, 0x14, 0x00, 0x00, 0x00, 0x4e, 0xff, 0xff, 0xff, 0x00, 0x00, 0x00, 0x01,
  0x14, 0x00, 0x00, 0x00, 0x1c, 0x00, 0x00, 0x00, 0x1c, 0x00, 0x00, 0x00, 0x03,
  0x00, 0x00, 0x00, 0x34, 0x00, 0x00, 0x00, 0x02, 0x00, 0x00, 0x00, 0xff, 0xff,
  0xff, 0xff, 0x0c, 0x00, 0x00, 0x00, 0x38, 0xff, 0xff, 0xff, 0x19, 0x00, 0x00,
  0x00, 0x73, 0x65, 0x72, 0x76, 0x69, 0x6e, 0x67, 0x5f, 0x64, 0x65, 0x66, 0x61,
  0x75, 0x6c, 0x74, 0x5f, 0x69, 0x6e, 0x70, 0x75, 0x74, 0x5f, 0x33, 0x3a, 0x30,
  0x00, 0x00, 0x00, 0x02, 0x00, 0x00, 0x00, 0x01, 0x00, 0x00, 0x00, 0x0c, 0x00,
  0x00, 0x00, 0xa6, 0xff, 0xff, 0xff, 0x00, 0x00, 0x00, 0x01, 0x14, 0x00, 0x00,
  0x00, 0x1c, 0x00, 0x00, 0x00, 0x1c, 0x00, 0x00, 0x00, 0x02, 0x00, 0x00, 0x00,
  0x34, 0x00, 0x00, 0x00, 0x02, 0x00, 0x00, 0x00, 0xff, 0xff, 0xff, 0xff, 0x0c,
  0x00, 0x00, 0x00, 0x90, 0xff, 0xff, 0xff, 0x19, 0x00, 0x00, 0x00, 0x73, 0x65,
  0x72, 0x76, 0x69, 0x6e, 0x67, 0x5f, 0x64, 0x65, 0x66, 0x61, 0x75, 0x6c, 0x74,
  0x5f, 0x69, 0x6e, 0x70, 0x75, 0x74, 0x5f, 0x34, 0x3a, 0x30, 0x00, 0x00, 0x00,
  0x02, 0x00, 0x00, 0x00, 0x01, 0x00, 0x00, 0x00, 0x0c, 0x00, 0x00, 0x00, 0x00,
  0x00, 0x16, 0x00, 0x1c, 0x00, 0x18, 0x00, 0x00, 0x00, 0x14, 0x00, 0x10, 0x00,
  0x0c, 0x00, 0x00, 0x00, 0x00, 0x00, 0x08, 0x00, 0x07, 0x00, 0x16, 0x00, 0x00,
  0x00, 0x00, 0x00, 0x00, 0x01, 0x14, 0x00, 0x00, 0x00, 0x20, 0x00, 0x00, 0x00,
  0x20, 0x00, 0x00, 0x00, 0x01, 0x00, 0x00, 0x00, 0x38, 0x00, 0x00, 0x00, 0x02,
  0x00, 0x00, 0x00, 0xff, 0xff, 0xff, 0xff, 0x03, 0x00, 0x00, 0x00, 0x04, 0x00,
  0x04, 0x00, 0x04, 0x00, 0x00, 0x00, 0x19, 0x00, 0x00, 0x00, 0x73, 0x65, 0x72,
  0x76, 0x69, 0x6e, 0x67, 0x5f, 0x64, 0x65, 0x66, 0x61, 0x75, 0x6c, 0x74, 0x5f,
  0x69, 0x6e, 0x70, 0x75, 0x74, 0x5f, 0x31, 0x3a, 0x30, 0x00, 0x00, 0x00, 0x02,
  0x00, 0x00, 0x00, 0x01, 0x00, 0x00, 0x00, 0x03, 0x00, 0x00, 0x00, 0x03, 0x00,
  0x00, 0x00, 0x30, 0x00, 0x00, 0x00, 0x14, 0x00, 0x00, 0x00, 0x04, 0x00, 0x00,
  0x00, 0xe8, 0xff, 0xff, 0xff, 0x0e, 0x00, 0x00, 0x00, 0x00, 0x00, 0x00, 0x0e,
  0xf4, 0xff, 0xff, 0xff, 0x09, 0x00, 0x00, 0x00, 0x00, 0x00, 0x00, 0x09, 0x0c,
  0x00, 0x0c, 0x00, 0x0b, 0x00, 0x00, 0x00, 0x00, 0x00, 0x04, 0x00, 0x0c, 0x00,
  0x00, 0x00, 0x02, 0x00, 0x00, 0x00, 0x00, 0x00, 0x00, 0x02
};

double sms_part_none_prune_tflite_model_bs4_135_mean[] = {
  1.19558714e+01,  -1.21117612e+01, 2.00642781e-03,  8.17601223e-02,
  -1.15514123e+01, 1.24045120e-03,  1.58946564e-02,  -1.15762330e+01,
  1.24813049e-03,  1.59233643e-02,  -1.15728071e+01, 1.24302252e-03,
  1.59335532e-02,  -1.15970925e+01, 1.25074906e-03,  1.59601462e-02,
  4.62885631e+00,  -5.70749251e-02, 3.73819578e+00,  -5.58128743e-02,
  3.73581697e+00,  -5.58498099e-02, 3.74385324e+00,  -5.55658082e-02,
  3.74157936e+00,  -5.57052604e-02, 1.74879073e+00,  8.11592064e-01,
  8.14584622e-01,  8.13732784e-01,  8.16729459e-01,  9.82293773e+00,
  8.34108056e+00,  8.34544377e+00,  8.34440142e+00,  8.34860290e+00,
  -1.16743796e+01, 1.55299604e-03,  3.57252355e-02,  4.19245618e+00,
  -6.01637371e-02, 1.18913063e+00,  9.04465320e+00,  -1.16973521e+01,
  1.55631583e-03,  3.57987436e-02,  4.19966340e+00,  -6.01087694e-02,
  1.19207866e+00,  9.04803252e+00,  -1.20377575e+01, 1.49421900e-03,
  3.85331368e-02,  4.35852657e+00,  -5.42351096e-02, 1.23401822e+00,
  9.10234931e+00,  -1.20655313e+01, 1.50162240e-03,  3.86181470e-02,
  4.35627338e+00,  -5.44544569e-02, 1.23844494e+00,  9.10688171e+00,
  3.56453836e-03,  8.84628323e-02
};

double sms_part_none_prune_tflite_model_bs4_135_std[] = {
  3.19803183e-02, 2.88420661e+00, 3.34577943e-03, 7.63604237e-02,
  3.51454509e+00, 2.54958416e-03, 2.03877949e-02, 3.47628024e+00,
  2.56143145e-03, 2.04067452e-02, 3.48237519e+00, 2.54656505e-03,
  2.03614000e-02, 3.44442298e+00, 2.56044561e-03, 2.03724928e-02,
  1.37770158e+00, 7.02058189e-01, 1.56936135e+00, 7.39370308e-01,
  1.57100835e+00, 7.40080830e-01, 1.56886088e+00, 7.40099439e-01,
  1.57011550e+00, 7.41309389e-01, 9.99395711e-01, 7.30841406e-01,
  7.31757273e-01, 7.30100244e-01, 7.30895280e-01, 5.51821691e-01,
  6.06290761e-01, 6.01007257e-01, 6.01156979e-01, 5.96025427e-01,
  3.30002000e+00, 2.98836027e-03, 4.00454449e-02, 1.51303260e+00,
  7.24852789e-01, 8.76108869e-01, 5.91561280e-01, 3.26357615e+00,
  2.98578436e-03, 3.99898779e-02, 1.51224343e+00, 7.25685984e-01,
  8.74957905e-01, 5.86139127e-01, 3.10262776e+00, 2.72290048e-03,
  4.07495361e-02, 1.44702798e+00, 7.18983287e-01, 8.72820018e-01,
  5.66849661e-01, 3.05495382e+00, 2.72864278e-03, 4.07886692e-02,
  1.45020094e+00, 7.20130492e-01, 8.73536133e-01, 5.60795315e-01,
  5.77561055e-02, 2.51236101e-01
};

double sms_part_none_prune_tflite_model_bs4_135_std_inv[] = {
  3.126923e+01, 3.467158e-01, 2.988840e+02, 1.309579e+01, 2.845318e-01,
  3.922208e+02, 4.904895e+01, 2.876638e-01, 3.904067e+02, 4.900341e+01,
  2.871603e-01, 3.926858e+02, 4.911254e+01, 2.903244e-01, 3.905570e+02,
  4.908579e+01, 7.258466e-01, 1.424383e+00, 6.372019e-01, 1.352502e+00,
  6.365339e-01, 1.351204e+00, 6.374051e-01, 1.351170e+00, 6.368958e-01,
  1.348964e+00, 1.000605e+00, 1.368286e+00, 1.366573e+00, 1.369675e+00,
  1.368185e+00, 1.812180e+00, 1.649374e+00, 1.663873e+00, 1.663459e+00,
  1.677781e+00, 3.030285e-01, 3.346317e+02, 2.497163e+01, 6.609243e-01,
  1.379590e+00, 1.141411e+00, 1.690442e+00, 3.064123e-01, 3.349204e+02,
  2.500633e+01, 6.612692e-01, 1.378006e+00, 1.142912e+00, 1.706080e+00,
  3.223074e-01, 3.672554e+02, 2.454016e+01, 6.910716e-01, 1.390853e+00,
  1.145712e+00, 1.764136e+00, 3.273372e-01, 3.664826e+02, 2.451661e+01,
  6.895596e-01, 1.388637e+00, 1.144772e+00, 1.783182e+00, 1.731419e+01,
  3.980320e+00,
};

unsigned char sms_part_none_prune_tflite_model_bs4_135[] = {
  0x1c, 0x00, 0x00, 0x00, 0x54, 0x46, 0x4c, 0x33, 0x14, 0x00, 0x20, 0x00, 0x1c,
  0x00, 0x18, 0x00, 0x14, 0x00, 0x10, 0x00, 0x0c, 0x00, 0x00, 0x00, 0x08, 0x00,
  0x04, 0x00, 0x14, 0x00, 0x00, 0x00, 0x1c, 0x00, 0x00, 0x00, 0xd4, 0x00, 0x00,
  0x00, 0x2c, 0x01, 0x00, 0x00, 0x54, 0x0d, 0x00, 0x00, 0x64, 0x0d, 0x00, 0x00,
  0x20, 0x1c, 0x00, 0x00, 0x03, 0x00, 0x00, 0x00, 0x01, 0x00, 0x00, 0x00, 0x04,
  0x00, 0x00, 0x00, 0x3a, 0xf2, 0xff, 0xff, 0x0c, 0x00, 0x00, 0x00, 0x1c, 0x00,
  0x00, 0x00, 0x38, 0x00, 0x00, 0x00, 0x0f, 0x00, 0x00, 0x00, 0x73, 0x65, 0x72,
  0x76, 0x69, 0x6e, 0x67, 0x5f, 0x64, 0x65, 0x66, 0x61, 0x75, 0x6c, 0x74, 0x00,
  0x01, 0x00, 0x00, 0x00, 0x04, 0x00, 0x00, 0x00, 0x48, 0xff, 0xff, 0xff, 0x20,
  0x00, 0x00, 0x00, 0x04, 0x00, 0x00, 0x00, 0x07, 0x00, 0x00, 0x00, 0x64, 0x65,
  0x6e, 0x73, 0x65, 0x5f, 0x37, 0x00, 0x04, 0x00, 0x00, 0x00, 0x58, 0x00, 0x00,
  0x00, 0x3c, 0x00, 0x00, 0x00, 0x20, 0x00, 0x00, 0x00, 0x04, 0x00, 0x00, 0x00,
  0x74, 0xff, 0xff, 0xff, 0x01, 0x00, 0x00, 0x00, 0x04, 0x00, 0x00, 0x00, 0x07,
  0x00, 0x00, 0x00, 0x69, 0x6e, 0x70, 0x75, 0x74, 0x5f, 0x34, 0x00, 0x8c, 0xff,
  0xff, 0xff, 0x02, 0x00, 0x00, 0x00, 0x04, 0x00, 0x00, 0x00, 0x07, 0x00, 0x00,
  0x00, 0x69, 0x6e, 0x70, 0x75, 0x74, 0x5f, 0x33, 0x00, 0xa4, 0xff, 0xff, 0xff,
  0x03, 0x00, 0x00, 0x00, 0x04, 0x00, 0x00, 0x00, 0x07, 0x00, 0x00, 0x00, 0x69,
  0x6e, 0x70, 0x75, 0x74, 0x5f, 0x32, 0x00, 0x1e, 0xf0, 0xff, 0xff, 0x04, 0x00,
  0x00, 0x00, 0x07, 0x00, 0x00, 0x00, 0x69, 0x6e, 0x70, 0x75, 0x74, 0x5f, 0x31,
  0x00, 0x02, 0x00, 0x00, 0x00, 0x34, 0x00, 0x00, 0x00, 0x04, 0x00, 0x00, 0x00,
  0xdc, 0xff, 0xff, 0xff, 0x23, 0x00, 0x00, 0x00, 0x04, 0x00, 0x00, 0x00, 0x13,
  0x00, 0x00, 0x00, 0x43, 0x4f, 0x4e, 0x56, 0x45, 0x52, 0x53, 0x49, 0x4f, 0x4e,
  0x5f, 0x4d, 0x45, 0x54, 0x41, 0x44, 0x41, 0x54, 0x41, 0x00, 0x08, 0x00, 0x0c,
  0x00, 0x08, 0x00, 0x04, 0x00, 0x08, 0x00, 0x00, 0x00, 0x22, 0x00, 0x00, 0x00,
  0x04, 0x00, 0x00, 0x00, 0x13, 0x00, 0x00, 0x00, 0x6d, 0x69, 0x6e, 0x5f, 0x72,
  0x75, 0x6e, 0x74, 0x69, 0x6d, 0x65, 0x5f, 0x76, 0x65, 0x72, 0x73, 0x69, 0x6f,
  0x6e, 0x00, 0x24, 0x00, 0x00, 0x00, 0x24, 0x0c, 0x00, 0x00, 0x1c, 0x0c, 0x00,
  0x00, 0x14, 0x0c, 0x00, 0x00, 0x0c, 0x0c, 0x00, 0x00, 0x04, 0x0c, 0x00, 0x00,
  0xd8, 0x0b, 0x00, 0x00, 0x40, 0x0a, 0x00, 0x00, 0x68, 0x09, 0x00, 0x00, 0xc0,
  0x05, 0x00, 0x00, 0x68, 0x05, 0x00, 0x00, 0xf0, 0x03, 0x00, 0x00, 0x98, 0x03,
  0x00, 0x00, 0x20, 0x02, 0x00, 0x00, 0xe8, 0x01, 0x00, 0x00, 0xd4, 0x01, 0x00,
  0x00, 0xa8, 0x01, 0x00, 0x00, 0x8c, 0x01, 0x00, 0x00, 0x64, 0x01, 0x00, 0x00,
  0x48, 0x01, 0x00, 0x00, 0x20, 0x01, 0x00, 0x00, 0xfc, 0x00, 0x00, 0x00, 0xf4,
  0x00, 0x00, 0x00, 0xec, 0x00, 0x00, 0x00, 0xe4, 0x00, 0x00, 0x00, 0xdc, 0x00,
  0x00, 0x00, 0xd4, 0x00, 0x00, 0x00, 0xcc, 0x00, 0x00, 0x00, 0xc4, 0x00, 0x00,
  0x00, 0xbc, 0x00, 0x00, 0x00, 0xb4, 0x00, 0x00, 0x00, 0xac, 0x00, 0x00, 0x00,
  0xa4, 0x00, 0x00, 0x00, 0x9c, 0x00, 0x00, 0x00, 0x94, 0x00, 0x00, 0x00, 0x74,
  0x00, 0x00, 0x00, 0x04, 0x00, 0x00, 0x00, 0x22, 0xf1, 0xff, 0xff, 0x04, 0x00,
  0x00, 0x00, 0x60, 0x00, 0x00, 0x00, 0x10, 0x00, 0x00, 0x00, 0x00, 0x00, 0x00,
  0x00, 0x08, 0x00, 0x0e, 0x00, 0x08, 0x00, 0x04, 0x00, 0x08, 0x00, 0x00, 0x00,
  0x10, 0x00, 0x00, 0x00, 0x24, 0x00, 0x00, 0x00, 0x00, 0x00, 0x06, 0x00, 0x08,
  0x00, 0x04, 0x00, 0x06, 0x00, 0x00, 0x00, 0x04, 0x00, 0x00, 0x00, 0x00, 0x00,
  0x00, 0x00, 0x0c, 0x00, 0x18, 0x00, 0x14, 0x00, 0x10, 0x00, 0x0c, 0x00, 0x04,
  0x00, 0x0c, 0x00, 0x00, 0x00, 0x49, 0xb9, 0x9b, 0x2b, 0x1f, 0xa5, 0xba, 0xdc,
  0x02, 0x00, 0x00, 0x00, 0x02, 0x00, 0x00, 0x00, 0x04, 0x00, 0x00, 0x00, 0x06,
  0x00, 0x00, 0x00, 0x32, 0x2e, 0x31, 0x39, 0x2e, 0x30, 0x00, 0x00, 0x8e, 0xf1,
  0xff, 0xff, 0x04, 0x00, 0x00, 0x00, 0x10, 0x00, 0x00, 0x00, 0x31, 0x2e, 0x31,
  0x34, 0x2e, 0x30, 0x00, 0x00, 0x00, 0x00, 0x00, 0x00, 0x00, 0x00, 0x00, 0x00,
  0x50, 0xe6, 0xff, 0xff, 0x54, 0xe6, 0xff, 0xff, 0x58, 0xe6, 0xff, 0xff, 0x5c,
  0xe6, 0xff, 0xff, 0x60, 0xe6, 0xff, 0xff, 0x64, 0xe6, 0xff, 0xff, 0x68, 0xe6,
  0xff, 0xff, 0x6c, 0xe6, 0xff, 0xff, 0x70, 0xe6, 0xff, 0xff, 0x74, 0xe6, 0xff,
  0xff, 0x78, 0xe6, 0xff, 0xff, 0x7c, 0xe6, 0xff, 0xff, 0x80, 0xe6, 0xff, 0xff,
  0xde, 0xf1, 0xff, 0xff, 0x04, 0x00, 0x00, 0x00, 0x14, 0x00, 0x00, 0x00, 0x74,
  0x21, 0xe5, 0x3e, 0xe1, 0xa4, 0x40, 0x3e, 0xea, 0xb7, 0xce, 0x3e, 0xf4, 0x77,
  0xfe, 0x3c, 0x9e, 0x72, 0xa4, 0x3e, 0xfe, 0xf1, 0xff, 0xff, 0x04, 0x00, 0x00,
  0x00, 0x18, 0x00, 0x00, 0x00, 0x8f, 0x57, 0x21, 0x3e, 0xc7, 0xed, 0x42, 0x3f,
  0x6e, 0x5b, 0x5a, 0x3f, 0xdd, 0xe9, 0xb5, 0x3d, 0x35, 0xbf, 0x74, 0x3d, 0xc4,
  0xca, 0x64, 0x3f, 0x22, 0xf2, 0xff, 0xff, 0x04, 0x00, 0x00, 0x00, 0x0c, 0x00,
  0x00, 0x00, 0xb3, 0x18, 0x7b, 0x3f, 0x1b, 0xaa, 0x1a, 0xbd, 0xd6, 0x71, 0x9f,
  0xbd, 0x3a, 0xf2, 0xff, 0xff, 0x04, 0x00, 0x00, 0x00, 0x18, 0x00, 0x00, 0x00,
  0x0d, 0x32, 0xa1, 0x3c, 0xa7, 0xb9, 0x1e, 0x3f, 0x42, 0x45, 0xa1, 0x3e, 0xf0,
  0x83, 0xb5, 0x3e, 0xfa, 0x8c, 0xe4, 0x3c, 0xae, 0x52, 0x7d, 0x3e, 0x5e, 0xf2,
  0xff, 0xff, 0x04, 0x00, 0x00, 0x00, 0x0c, 0x00, 0x00, 0x00, 0xc0, 0xfd, 0xc4,
  0x3d, 0x84, 0x6a, 0x12, 0xbf, 0x23, 0x96, 0x49, 0x3f, 0x76, 0xf2, 0xff, 0xff,
  0x04, 0x00, 0x00, 0x00, 0x1c, 0x00, 0x00, 0x00, 0xde, 0xd1, 0xa0, 0x3e, 0xfa,
  0x3f, 0xb3, 0x3e, 0xea, 0x6a, 0xd3, 0x3d, 0x0c, 0x86, 0xbc, 0x3e, 0x29, 0xef,
  0x80, 0x3e, 0xe7, 0x6c, 0x93, 0xbd, 0x9d, 0xe9, 0xe8, 0x3e, 0x9e, 0xf2, 0xff,
  0xff, 0x04, 0x00, 0x00, 0x00, 0x04, 0x00, 0x00, 0x00, 0x38, 0xca, 0xe3, 0xbc,
  0xae, 0xf2, 0xff, 0xff, 0x04, 0x00, 0x00, 0x00, 0x28, 0x00, 0x00, 0x00, 0xad,
  0x3b, 0x8e, 0x3e, 0xac, 0xef, 0xdc, 0x3d, 0xb0, 0x0e, 0x5e, 0x3f, 0x8a, 0x9f,
  0x0c, 0x3f, 0x39, 0x18, 0x63, 0x3f, 0xa9, 0xb3, 0x90, 0x3d, 0x04, 0xca, 0x2a,
  0x3f, 0x41, 0x95, 0xce, 0x3e, 0xef, 0x6b, 0x72, 0xbe, 0x8e, 0x17, 0xcb, 0xbe,
  0xe2, 0xf2, 0xff, 0xff, 0x04, 0x00, 0x00, 0x00, 0x68, 0x01, 0x00, 0x00, 0x5d,
  0xe6, 0x1b, 0x3f, 0x9a, 0xc7, 0xb5, 0x3e, 0x1c, 0x5d, 0x19, 0x3f, 0x29, 0xb6,
  0x7e, 0xbc, 0x25, 0x56, 0xa2, 0xbd, 0xc8, 0xbe, 0xc9, 0xbd, 0xe3, 0x09, 0x27,
  0xbf, 0xd4, 0x05, 0x24, 0x3f, 0x6b, 0x21, 0x46, 0x3f, 0x39, 0x53, 0x67, 0x3e,
  0x5b, 0x46, 0x7a, 0x3e, 0xc3, 0x86, 0xb1, 0x3e, 0x6a, 0x47, 0x41, 0x3d, 0xa9,
  0x33, 0xbb, 0xbd, 0xdb, 0x92, 0xd3, 0xbd, 0x3b, 0x66, 0x4a, 0x3f, 0x21, 0xb9,
  0xbe, 0x3c, 0xdd, 0xa6, 0x8e, 0xbe, 0x8d, 0x60, 0xd6, 0x3e, 0x8d, 0xbf, 0xb2,
  0x3e, 0x5e, 0x8d, 0xe3, 0x3e, 0xfe, 0x19, 0x35, 0xbf, 0x29, 0xea, 0x3b, 0xbf,
  0x58, 0x4c, 0x5b, 0xbe, 0xe1, 0x08, 0x0a, 0x3e, 0xf3, 0x8d, 0x40, 0x3e, 0xb6,
  0xad, 0x05, 0xbe, 0x1a, 0xed, 0x21, 0xbe, 0xc9, 0xf9, 0xa4, 0xbf, 0x67, 0x54,
  0xd2, 0x3d, 0x6c, 0x5c, 0x98, 0x3f, 0xb1, 0xcc, 0x91, 0xbf, 0xe5, 0xca, 0xd9,
  0x3f, 0x03, 0x4b, 0xa7, 0xbd, 0x1e, 0x69, 0x78, 0xbe, 0x3d, 0xa0, 0xc9, 0x3e,
  0xbd, 0x1a, 0xab, 0xbe, 0xb5, 0x6c, 0x8c, 0xbd, 0x4f, 0xdb, 0x61, 0xbf, 0xab,
  0x64, 0xc8, 0x3d, 0x0a, 0x1b, 0x41, 0x3f, 0x5e, 0x65, 0xe4, 0xbe, 0xe8, 0x7f,
  0x85, 0xbe, 0xcf, 0x90, 0x1c, 0xbf, 0x3e, 0x6a, 0x45, 0xbe, 0x81, 0x92, 0x3b,
  0xbf, 0x8b, 0x7f, 0xea, 0x3d, 0x08, 0x16, 0x27, 0xbf, 0x55, 0x69, 0x68, 0xbe,
  0x9f, 0x3e, 0xf0, 0x3d, 0x3f, 0xb1, 0x86, 0xbc, 0xa5, 0xa6, 0x20, 0x3f, 0xca,
  0x6f, 0xeb, 0xbb, 0x70, 0xe0, 0xbf, 0x3e, 0x08, 0x72, 0x19, 0x3e, 0xe7, 0xb2,
  0x13, 0x3e, 0x14, 0x8d, 0xc8, 0x3e, 0x98, 0xc6, 0xb4, 0x3e, 0x0a, 0x74, 0xb6,
  0x3e, 0x82, 0xef, 0x3a, 0x3f, 0xa8, 0x28, 0x04, 0xbf, 0x35, 0xca, 0x4f, 0xbf,
  0xfe, 0xcd, 0x3c, 0x3f, 0x87, 0x63, 0x87, 0x3e, 0xe3, 0xbe, 0x0c, 0xbd, 0x0b,
  0xa0, 0x2d, 0x3e, 0x68, 0xa8, 0x1d, 0xbe, 0x77, 0x96, 0xd8, 0x3e, 0x79, 0x85,
  0x3c, 0xbc, 0x6e, 0xf8, 0x86, 0x39, 0x0c, 0x91, 0xc3, 0x3d, 0xbf, 0x67, 0xcf,
  0xbe, 0x08, 0xad, 0xdd, 0xbc, 0xe8, 0x49, 0x9e, 0xbd, 0x8a, 0x9c, 0xe3, 0x37,
  0xf4, 0x29, 0x6d, 0x3e, 0x62, 0x05, 0xa3, 0x3d, 0xe0, 0xf0, 0x36, 0x3f, 0x55,
  0xd0, 0x01, 0x3e, 0x33, 0x46, 0xb5, 0xbd, 0xbe, 0x60, 0x2a, 0xbe, 0xca, 0x9e,
  0xd2, 0x3d, 0x6d, 0x58, 0x07, 0xbe, 0xd8, 0x01, 0xcc, 0xbe, 0x8b, 0x12, 0x06,
  0x3e, 0x70, 0x87, 0x9b, 0xbd, 0x08, 0xac, 0xbb, 0xbd, 0x82, 0xdc, 0xfc, 0xbe,
  0x4e, 0x64, 0x9a, 0xbf, 0xb3, 0xee, 0xe9, 0xbe, 0x56, 0xf4, 0xff, 0xff, 0x04,
  0x00, 0x00, 0x00, 0x48, 0x00, 0x00, 0x00, 0xf5, 0x1c, 0x07, 0x3f, 0xcb, 0x9f,
  0x03, 0x3f, 0x28, 0xe3, 0xa4, 0x3f, 0x95, 0x53, 0x39, 0xbe, 0xcb, 0x41, 0x10,
  0xbd, 0xbd, 0xe4, 0xd2, 0x3f, 0x19, 0x16, 0xee, 0x3e, 0x7a, 0x78, 0x92, 0x3e,
  0x22, 0xd6, 0x2b, 0x3f, 0x1c, 0xdf, 0xda, 0x3b, 0x36, 0xc3, 0x1e, 0x3d, 0x6e,
  0xe9, 0xe2, 0x3e, 0xf6, 0x90, 0xfb, 0xbd, 0xa0, 0x5b, 0xcd, 0xbe, 0x67, 0x64,
  0x0d, 0x3f, 0xdc, 0x45, 0x3c, 0x3f, 0xf4, 0xaf, 0x3c, 0x3f, 0x14, 0xa1, 0x55,
  0xbe, 0xaa, 0xf4, 0xff, 0xff, 0x04, 0x00, 0x00, 0x00, 0x68, 0x01, 0x00, 0x00,
  0xc4, 0xcc, 0x73, 0xbe, 0xc4, 0x1d, 0xbb, 0xbe, 0xa8, 0xec, 0xde, 0xbe, 0xae,
  0x6c, 0xb6, 0x3e, 0x68, 0x0c, 0x1a, 0xbe, 0x65, 0x8a, 0xba, 0xbd, 0xe0, 0xfb,
  0xdd, 0x3e, 0xe3, 0x6a, 0xe5, 0x3d, 0xb0, 0x03, 0x82, 0x3d, 0xcf, 0x0a, 0xa4,
  0x3e, 0x6b, 0xf1, 0x76, 0x3e, 0x2e, 0xf6, 0xbb, 0x3e, 0x2d, 0x71, 0x34, 0xbf,
  0x43, 0x7c, 0xa9, 0xbd, 0x3a, 0x15, 0x64, 0xbe, 0x1d, 0x16, 0xf6, 0x3f, 0xe8,
  0xa8, 0x0b, 0x3f, 0xe3, 0x18, 0x0f, 0x3f, 0xcc, 0x37, 0xbc, 0x3e, 0xe3, 0x16,
  0x05, 0x3f, 0x97, 0x25, 0xef, 0x3e, 0x8d, 0x95, 0x8a, 0xbf, 0xf2, 0xd6, 0xb8,
  0xbf, 0xb9, 0x5b, 0xf7, 0xbf, 0x2e, 0x33, 0x0c, 0xbf, 0x4e, 0x5e, 0x84, 0xbe,
  0xae, 0x57, 0x45, 0xbd, 0xdd, 0x8a, 0x2e, 0x3e, 0x0f, 0xc5, 0xc2, 0x3e, 0x0b,
  0xe8, 0x2b, 0xbf, 0xc9, 0x39, 0x5a, 0x3f, 0x14, 0x75, 0x9e, 0x3f, 0x2b, 0xbc,
  0x86, 0x3f, 0x16, 0xb3, 0x05, 0x3f, 0xd4, 0x98, 0x2d, 0x3e, 0x3f, 0xfc, 0xa4,
  0x3e, 0xaa, 0x39, 0x2b, 0x3e, 0x43, 0xd2, 0x89, 0xbf, 0xfc, 0x7f, 0x72, 0xbf,
  0x43, 0x69, 0x0a, 0xbf, 0x8a, 0xed, 0x82, 0xbf, 0x9d, 0xb1, 0xc0, 0xbf, 0xc2,
  0xbe, 0xab, 0x3e, 0x99, 0x59, 0x9c, 0xbe, 0xb1, 0x86, 0xd2, 0x3d, 0xc2, 0x90,
  0x17, 0x3f, 0xe4, 0xd2, 0x3a, 0x3f, 0xf5, 0x5d, 0x54, 0x3f, 0x63, 0x4e, 0xa4,
  0x3e, 0x64, 0xce, 0x8a, 0x3d, 0xdf, 0xc8, 0x80, 0x3e, 0x4a, 0x07, 0xf9, 0xbe,
  0x46, 0x5f, 0x6a, 0xbf, 0xd1, 0x66, 0x75, 0xbf, 0x8c, 0xb8, 0x2d, 0xbe, 0x83,
  0x5d, 0xee, 0xbe, 0xe3, 0x3d, 0x22, 0xbf, 0x48, 0xd8, 0xe7, 0xbe, 0x77, 0x41,
  0x46, 0xbe, 0x80, 0xf9, 0x15, 0xbf, 0x5a, 0xc7, 0x3d, 0x3f, 0xfd, 0x2d, 0x62,
  0x3e, 0x42, 0xd4, 0x88, 0x3e, 0xc8, 0x95, 0x65, 0x3e, 0xa1, 0x32, 0x9c, 0x3e,
  0xae, 0x45, 0xe0, 0x3d, 0x29, 0x26, 0xb3, 0x3e, 0x33, 0xea, 0x5f, 0xbb, 0x7d,
  0xde, 0x1a, 0xbe, 0x98, 0x7c, 0x04, 0xbe, 0x5e, 0x6f, 0x0b, 0x3e, 0x95, 0xf8,
  0x1c, 0x3d, 0xeb, 0x5a, 0x8f, 0xbe, 0x40, 0xa8, 0x79, 0x3d, 0x3d, 0xae, 0x87,
  0xbf, 0x10, 0x4b, 0x87, 0xbf, 0x2c, 0x17, 0xa0, 0xbf, 0x6b, 0x76, 0x8d, 0xbf,
  0x7b, 0x23, 0x24, 0x3f, 0x23, 0xea, 0xa7, 0x3d, 0xc1, 0x81, 0x0b, 0x3e, 0xb3,
  0xe7, 0xf9, 0x3e, 0x68, 0x5d, 0xd6, 0x3e, 0x53, 0xaf, 0xfd, 0x3e, 0x3e, 0x7c,
  0x12, 0x3f, 0x5b, 0x94, 0x49, 0x3f, 0x2f, 0xce, 0x1e, 0x3f, 0xde, 0x26, 0xca,
  0xbe, 0x6d, 0x7e, 0x7a, 0xbe, 0x63, 0x11, 0xf5, 0x3d, 0x1e, 0xf6, 0xff, 0xff,
  0x04, 0x00, 0x00, 0x00, 0x48, 0x00, 0x00, 0x00, 0x8c, 0xcc, 0xcf, 0x3e, 0x59,
  0x29, 0x16, 0xbe, 0x38, 0xb0, 0xd6, 0x3e, 0x52, 0xea, 0xc6, 0x3e, 0x60, 0x3f,
  0x26, 0x3e, 0xea, 0xa0, 0xfe, 0x3e, 0xd3, 0xbc, 0x29, 0x3f, 0xa4, 0x8d, 0x28,
  0xbe, 0x2f, 0x0a, 0x22, 0x3e, 0x3f, 0xb4, 0x11, 0xbf, 0x1c, 0xb5, 0x7f, 0x3d,
  0x1a, 0x9e, 0xb6, 0xbe, 0x76, 0xce, 0x98, 0x3e, 0xf0, 0xe6, 0xc9, 0x3e, 0x03,
  0x37, 0x6d, 0x3f, 0xb3, 0x98, 0x22, 0x3f, 0x16, 0x14, 0x2a, 0x3f, 0x40, 0x62,
  0xee, 0xbe, 0x72, 0xf6, 0xff, 0xff, 0x04, 0x00, 0x00, 0x00, 0x98, 0x03, 0x00,
  0x00, 0x54, 0x7b, 0x1d, 0xbf, 0x5d, 0x42, 0x12, 0x3e, 0xe4, 0xa3, 0x80, 0xbc,
  0x1f, 0x3e, 0xf6, 0xbb, 0x29, 0xdb, 0x36, 0xbe, 0x79, 0x6a, 0x4d, 0x3f, 0xde,
  0xdf, 0x9b, 0xbd, 0x4c, 0xc1, 0x1a, 0x3d, 0xef, 0x74, 0x4d, 0xbe, 0xea, 0x25,
  0x83, 0x3c, 0x74, 0x27, 0x55, 0xbf, 0xa2, 0x83, 0xc4, 0xbd, 0x06, 0x27, 0x6a,
  0x3e, 0xd4, 0x88, 0xf6, 0xbe, 0xff, 0xf6, 0x0d, 0xbf, 0xf9, 0x55, 0x62, 0xbf,
  0xe3, 0xa1, 0x8b, 0xbb, 0x8f, 0x9b, 0xff, 0xbd, 0x84, 0xa2, 0x18, 0x3d, 0x2e,
  0xc4, 0xda, 0x3d, 0x22, 0xcb, 0x64, 0x3d, 0x0d, 0xb0, 0x3d, 0xbf, 0x8e, 0x34,
  0xe2, 0xbe, 0x6a, 0x26, 0x7f, 0x3f, 0xce, 0x53, 0x09, 0x3e, 0x87, 0xc4, 0xba,
  0xbd, 0x50, 0x8e, 0xd4, 0x3b, 0xbc, 0x96, 0x0d, 0xbd, 0xae, 0x4d, 0xfb, 0x3e,
  0x21, 0xac, 0x06, 0x3e, 0xab, 0x19, 0x47, 0x3d, 0xa1, 0xa0, 0xba, 0x3d, 0x6d,
  0x5d, 0x79, 0xbe, 0x8a, 0x6b, 0x5a, 0xbf, 0x07, 0x55, 0x7f, 0xbd, 0x6c, 0xfd,
  0x1b, 0x3e, 0x2f, 0xd6, 0x5b, 0x3e, 0x92, 0xa7, 0xc6, 0x3c, 0xad, 0x12, 0x68,
  0xbf, 0x92, 0x99, 0x3e, 0x3d, 0x37, 0x2e, 0x4a, 0x3a, 0x4c, 0x7d, 0x1c, 0xbe,
  0xb3, 0xfc, 0x62, 0x3e, 0x6b, 0x76, 0xbc, 0xbd, 0xb8, 0x3d, 0x06, 0xbe, 0x26,
  0xd0, 0x2b, 0xbf, 0x0b, 0x3f, 0x53, 0x3f, 0xf5, 0x6e, 0xf7, 0xbe, 0x8a, 0xa9,
  0x0c, 0xbf, 0x7f, 0xc4, 0x4d, 0xbe, 0xd5, 0x38, 0x8c, 0xbe, 0x51, 0x05, 0x76,
  0x3d, 0x2e, 0x43, 0xa8, 0xbd, 0xea, 0x37, 0x25, 0xbe, 0x39, 0xcd, 0x23, 0xbc,
  0x30, 0x0b, 0xc4, 0x3d, 0x3b, 0x9c, 0x4b, 0xbf, 0x23, 0x7a, 0xcd, 0xbe, 0x33,
  0x8f, 0x33, 0xbe, 0x25, 0xe6, 0xbb, 0xbe, 0x3d, 0x9c, 0x7e, 0xbe, 0x9b, 0x3d,
  0x7b, 0xbd, 0x8e, 0xb7, 0xe7, 0x3e, 0x7d, 0x6b, 0xa9, 0x3e, 0xb4, 0x96, 0xe2,
  0x3e, 0x44, 0x6d, 0x6b, 0x3e, 0xd5, 0x69, 0xec, 0xbc, 0x9c, 0xe9, 0x94, 0xbf,
  0xe3, 0x99, 0x96, 0xbf, 0xb3, 0xdb, 0x13, 0x40, 0x82, 0xe8, 0xe0, 0xbe, 0xad,
  0xa5, 0xc0, 0xbe, 0x9e, 0xad, 0x11, 0xbf, 0xdb, 0x40, 0x16, 0xbf, 0x99, 0x59,
  0x85, 0x3c, 0xdf, 0x2b, 0xc9, 0xbe, 0x49, 0x97, 0x0c, 0x3e, 0x60, 0x32, 0x5f,
  0xbc, 0x60, 0x54, 0xb5, 0xbd, 0x83, 0x55, 0xde, 0xbe, 0xd5, 0xde, 0xd6, 0xbe,
  0x50, 0xff, 0xfa, 0x3b, 0xf0, 0xab, 0xb4, 0xbe, 0x5f, 0x07, 0x35, 0xbf, 0xe4,
  0x16, 0xdf, 0xbd, 0x3d, 0x68, 0x2f, 0x3e, 0x1e, 0x5c, 0x2d, 0xbe, 0x07, 0x9a,
  0x00, 0xbd, 0xf3, 0xd4, 0xfa, 0x3d, 0x87, 0x45, 0xcc, 0x3c, 0xc6, 0x82, 0x41,
  0x3e, 0x48, 0xe8, 0x59, 0xbe, 0x79, 0x94, 0x4f, 0xbe, 0x5d, 0x28, 0xb3, 0xbe,
  0x0b, 0xa9, 0xcd, 0xbe, 0xc6, 0xb1, 0xe9, 0xbe, 0x10, 0x43, 0xf9, 0xbe, 0x23,
  0xd1, 0x05, 0x3e, 0x1f, 0xf6, 0x87, 0xbe, 0x44, 0xc6, 0xa2, 0xbe, 0x7a, 0x75,
  0xdf, 0xbe, 0x06, 0xc1, 0xe4, 0xbe, 0xe7, 0xfd, 0x15, 0x3f, 0x11, 0x4d, 0x4e,
  0x3e, 0x48, 0x45, 0x20, 0x3e, 0xd4, 0x40, 0x05, 0x3e, 0xa3, 0x35, 0x47, 0x3e,
  0x3f, 0xc1, 0x2a, 0x3f, 0x98, 0xc7, 0xa0, 0x3e, 0xf6, 0x73, 0x9e, 0x3e, 0x94,
  0xb8, 0x47, 0x3e, 0x26, 0x2e, 0xaf, 0x3e, 0x31, 0x9d, 0x9a, 0x3d, 0xbf, 0x45,
  0x5c, 0xbf, 0xa2, 0x94, 0x36, 0xbf, 0xc5, 0x72, 0x5c, 0xbe, 0x7f, 0xb5, 0xac,
  0x3d, 0xf7, 0xcb, 0xec, 0x3b, 0x14, 0xbd, 0x84, 0x3e, 0x9d, 0xcb, 0x50, 0x3e,
  0xa1, 0xeb, 0xa0, 0x3e, 0x42, 0xd1, 0x6d, 0xba, 0x94, 0x18, 0xae, 0xbd, 0xff,
  0xca, 0x12, 0x3d, 0xb8, 0xd0, 0x6a, 0xbd, 0xcc, 0x71, 0x8c, 0x3e, 0x7a, 0x7a,
  0xde, 0x39, 0x43, 0x18, 0x85, 0x3e, 0x1a, 0x85, 0x54, 0xbd, 0x5d, 0x4f, 0xb6,
  0xbc, 0xbe, 0xe5, 0x8a, 0xbd, 0xec, 0x36, 0xc1, 0x3b, 0x8d, 0x60, 0x44, 0xbd,
  0x6e, 0x4e, 0x16, 0xbd, 0x43, 0x19, 0x02, 0x3b, 0xe2, 0x48, 0x9f, 0xbc, 0xf9,
  0xf7, 0x93, 0xbe, 0x52, 0xb3, 0x96, 0x3e, 0xc9, 0x33, 0x8e, 0x3c, 0x1c, 0xa8,
  0x79, 0xbe, 0x5b, 0x53, 0x9f, 0xbd, 0x94, 0xd4, 0x33, 0xbd, 0x02, 0x0e, 0x9d,
  0xbe, 0x47, 0x00, 0xe8, 0x3e, 0xbd, 0xdc, 0x76, 0x3e, 0xb2, 0xcc, 0x41, 0xbe,
  0xba, 0xeb, 0x40, 0x3d, 0x30, 0x2f, 0x9a, 0x3d, 0xda, 0x66, 0xb8, 0xbe, 0x52,
  0x51, 0x00, 0xbf, 0x3c, 0xc9, 0xa0, 0xbe, 0xe3, 0x5e, 0x3a, 0xbe, 0xc0, 0x08,
  0xb6, 0xbd, 0xc0, 0xeb, 0x97, 0x3e, 0xee, 0x57, 0x8d, 0x3e, 0xce, 0x53, 0x28,
  0x3e, 0x6d, 0x27, 0x7f, 0x3e, 0x20, 0x86, 0x54, 0x3e, 0x0a, 0x18, 0x9a, 0x3e,
  0x02, 0x11, 0x6e, 0xbf, 0xe6, 0x7d, 0x26, 0xbf, 0x47, 0xd0, 0x9d, 0x3f, 0x7a,
  0xa3, 0xd7, 0xbe, 0x29, 0x71, 0xdb, 0xbe, 0x88, 0xdb, 0x94, 0xbe, 0x4c, 0x0a,
  0xda, 0xbe, 0x66, 0x58, 0x05, 0x3f, 0x2d, 0x08, 0xfd, 0x3b, 0x65, 0x40, 0x1c,
  0xbe, 0xcd, 0xce, 0x4f, 0xbd, 0x13, 0x6d, 0x6f, 0xbd, 0xbb, 0xf6, 0x43, 0xbf,
  0x3a, 0x52, 0xb4, 0xbd, 0x33, 0x9d, 0xd0, 0xbe, 0x3a, 0x8d, 0x49, 0xbe, 0x35,
  0x66, 0x0e, 0xbe, 0x0b, 0x0b, 0xb7, 0xbf, 0xd4, 0xb9, 0xb6, 0xbd, 0x6b, 0x48,
  0x16, 0x3e, 0x19, 0x24, 0x9f, 0x3d, 0xd1, 0x09, 0x27, 0x3c, 0x5b, 0x50, 0x0b,
  0x3e, 0x36, 0x3b, 0x94, 0x3d, 0xe3, 0xbc, 0x0e, 0x3f, 0x96, 0x18, 0x30, 0xbf,
  0x3c, 0x94, 0xb3, 0xbd, 0x03, 0xc0, 0x52, 0xbe, 0x40, 0x99, 0x52, 0xbe, 0x38,
  0x0c, 0x85, 0xbe, 0x43, 0xbd, 0x91, 0xbe, 0x55, 0x20, 0x84, 0xbd, 0xf1, 0xa8,
  0x27, 0x3e, 0xe7, 0xdb, 0xde, 0x3d, 0xbb, 0x2e, 0x40, 0x3e, 0x77, 0x28, 0xfb,
  0x3e, 0xa4, 0xf1, 0x82, 0xbe, 0x1e, 0xc9, 0xbb, 0xbe, 0xbb, 0xd6, 0xf8, 0xbd,
  0x9a, 0x56, 0x05, 0xbe, 0xc3, 0x85, 0xf9, 0x3e, 0x2c, 0x4d, 0x42, 0x39, 0xd4,
  0x96, 0x7e, 0xbd, 0xcf, 0xf3, 0x4e, 0xbe, 0xd0, 0xea, 0x4f, 0xbe, 0x18, 0xe3,
  0x3f, 0xbd, 0x65, 0x3d, 0x91, 0xbd, 0x34, 0x0c, 0x26, 0x3f, 0x51, 0x5f, 0xb0,
  0x3e, 0x7d, 0x11, 0x8f, 0xbd, 0x32, 0xb8, 0xa7, 0xbf, 0xb1, 0x39, 0x42, 0x3f,
  0xb9, 0x8b, 0x52, 0x3e, 0x91, 0xdb, 0xa2, 0xbd, 0x83, 0x78, 0xb9, 0xbc, 0x11,
  0xb8, 0x7a, 0xbe, 0x9e, 0xae, 0xcf, 0x3d, 0x0a, 0x7c, 0x8d, 0x3d, 0x58, 0xa6,
  0xfd, 0x3e, 0xf5, 0xa4, 0xf1, 0xbc, 0xee, 0xab, 0x02, 0x3f, 0xc1, 0x3b, 0x44,
  0xbf, 0x55, 0xda, 0xf1, 0xbe, 0xcc, 0x60, 0x9d, 0xbb, 0x1b, 0x39, 0x11, 0xbb,
  0x35, 0xdf, 0x77, 0x3e, 0xab, 0xce, 0xba, 0x3d, 0x8e, 0x52, 0xb4, 0x3d, 0xda,
  0xe9, 0xad, 0xbc, 0x42, 0x2a, 0x0a, 0xbd, 0x0c, 0x12, 0xcf, 0x3e, 0x16, 0xfa,
  0xff, 0xff, 0x04, 0x00, 0x00, 0x00, 0xc8, 0x00, 0x00, 0x00, 0x71, 0xfd, 0xbc,
  0x3d, 0x2a, 0x16, 0xa4, 0x3e, 0xaf, 0x55, 0x27, 0x3f, 0xaa, 0x9d, 0xfe, 0x3e,
  0x16, 0x68, 0x49, 0x3e, 0x46, 0x31, 0xa8, 0xbe, 0x91, 0x44, 0xd2, 0xbd, 0xf6,
  0x32, 0x85, 0xbe, 0x5f, 0xc1, 0xad, 0xbe, 0xc7, 0x25, 0x94, 0xbe, 0xe7, 0x66,
  0x25, 0xbf, 0xc8, 0x80, 0x20, 0x3e, 0x53, 0xbd, 0xa0, 0xbe, 0xc9, 0x63, 0x26,
  0x3e, 0x17, 0x21, 0x3e, 0xbe, 0x77, 0x50, 0x5a, 0x3f, 0xa2, 0x2f, 0x58, 0xbe,
  0xa3, 0x3e, 0x20, 0x3f, 0x69, 0xfd, 0x94, 0x3f, 0x6d, 0x22, 0xc0, 0x3e, 0x9b,
  0xa3, 0x20, 0xbf, 0xc8, 0xe0, 0xe5, 0x3e, 0xc8, 0x56, 0x21, 0x3f, 0x62, 0xdf,
  0x24, 0x3f, 0x77, 0xff, 0x4a, 0x3f, 0xb2, 0x57, 0xd5, 0xbd, 0xf6, 0x3b, 0xba,
  0x3d, 0x8d, 0xd4, 0x07, 0x3f, 0xa5, 0x87, 0x8f, 0x3c, 0x60, 0xfa, 0x9f, 0x3d,
  0xe0, 0xfc, 0x60, 0xbf, 0xdd, 0x6a, 0xc1, 0xbd, 0x7d, 0x2b, 0xb3, 0xbd, 0xae,
  0x30, 0x80, 0x3f, 0x74, 0xab, 0xe4, 0x3e, 0x0a, 0x34, 0x56, 0xbf, 0x2d, 0xec,
  0xf2, 0x3d, 0xdf, 0xe2, 0xd0, 0xbd, 0xf3, 0x61, 0x10, 0xbe, 0x60, 0xa2, 0xe1,
  0x3e, 0x30, 0x1f, 0x7b, 0x3e, 0x82, 0x5b, 0xd0, 0x3d, 0x3c, 0x63, 0x30, 0x3e,
  0x08, 0x1b, 0xa6, 0x3e, 0x73, 0x7c, 0x10, 0xbf, 0x28, 0x54, 0xda, 0x3e, 0x5d,
  0xa6, 0x75, 0xbf, 0x8a, 0x6b, 0xb2, 0x3f, 0x0c, 0x71, 0x83, 0x3e, 0x42, 0x8f,
  0x0b, 0xbf, 0xea, 0xfa, 0xff, 0xff, 0x04, 0x00, 0x00, 0x00, 0x88, 0x01, 0x00,
  0x00, 0x00, 0x8b, 0x18, 0x3e, 0xdf, 0x39, 0xe7, 0x3e, 0x8c, 0xab, 0xbf, 0x3e,
  0x31, 0x49, 0x2c, 0x3e, 0x4c, 0x10, 0x90, 0xbe, 0x2f, 0x00, 0x68, 0xbe, 0xa2,
  0x99, 0x03, 0x3f, 0x29, 0xe3, 0x48, 0x3e, 0xe9, 0x19, 0x78, 0xbd, 0x06, 0x7f,
  0xa6, 0x3b, 0xa9, 0x1a, 0x9e, 0x3e, 0xdb, 0xa1, 0x97, 0x3e, 0x7e, 0x66, 0xd8,
  0x3e, 0xbd, 0xc1, 0xbd, 0xbc, 0xcd, 0x31, 0x29, 0x3f, 0xf0, 0xa9, 0x8b, 0x3d,
  0xd8, 0x3a, 0x1c, 0xbf, 0x47, 0xa4, 0xe7, 0x3e, 0x14, 0x23, 0xeb, 0x3e, 0xd8,
  0x1a, 0xe7, 0x3e, 0x25, 0x35, 0xd2, 0xbe, 0xf0, 0xe6, 0x31, 0x3f, 0x38, 0x42,
  0xd4, 0x3e, 0x37, 0x96, 0x66, 0xbe, 0x6a, 0xac, 0x97, 0xbf, 0xbf, 0xb7, 0x65,
  0x3d, 0x34, 0xc5, 0x91, 0xbe, 0xd2, 0x0c, 0x1d, 0x3f, 0xd1, 0xdb, 0x21, 0xbf,
  0x7f, 0x1e, 0xbc, 0xbe, 0x89, 0xaf, 0x80, 0x3f, 0x13, 0x6b, 0x38, 0xbf, 0x5d,
  0x2e, 0xf6, 0x3e, 0xd6, 0x4e, 0x13, 0xbf, 0x3d, 0xa1, 0xff, 0x3d, 0x8a, 0xa5,
  0x23, 0x3f, 0x47, 0x86, 0x80, 0xbe, 0xfe, 0x2a, 0xe2, 0xbe, 0x1d, 0x69, 0x7c,
  0x3f, 0x8d, 0x03, 0x06, 0x3f, 0xdb, 0xac, 0x79, 0xbd, 0xec, 0x15, 0xac, 0x3d,
  0x61, 0xe9, 0x45, 0x3f, 0x71, 0x32, 0xe2, 0x3d, 0x2e, 0x77, 0xbd, 0xbf, 0x25,
  0x41, 0x82, 0x3e, 0x24, 0x38, 0xcf, 0x3e, 0xa9, 0xe9, 0x2c, 0x3f, 0xc8, 0xb4,
  0x42, 0xbf, 0x6b, 0x32, 0x10, 0x3f, 0xe3, 0xf0, 0xdf, 0x3e, 0xe6, 0xd0, 0xf0,
  0xbe, 0x8a, 0x88, 0x19, 0xbf, 0xa2, 0x5c, 0xf7, 0x3c, 0x9a, 0xfb, 0xfa, 0xbd,
  0x8a, 0x40, 0x1b, 0x3e, 0x96, 0xf9, 0x27, 0xbe, 0xed, 0x95, 0x91, 0x3e, 0x28,
  0x91, 0x88, 0xbe, 0xe2, 0x0a, 0x08, 0x3f, 0x26, 0x02, 0x75, 0xbd, 0x22, 0xcb,
  0x11, 0xbe, 0xfa, 0x7b, 0x2f, 0x3d, 0xd1, 0x6b, 0x97, 0xbd, 0xe9, 0xa7, 0x63,
  0xbe, 0x2f, 0xe1, 0xa9, 0x3e, 0x3d, 0xc4, 0x9e, 0x3e, 0x0d, 0x40, 0xc0, 0xbd,
  0x8b, 0xa6, 0x9a, 0x3e, 0x94, 0xd6, 0x30, 0xbd, 0xb3, 0x0a, 0x12, 0xbf, 0x48,
  0xf2, 0x47, 0x3e, 0x28, 0xe3, 0x27, 0x3f, 0x7f, 0x91, 0xa1, 0x3d, 0x2a, 0xb9,
  0xc4, 0x3e, 0xaf, 0xe9, 0x01, 0xbf, 0xeb, 0x2b, 0x36, 0xbe, 0x1f, 0xcf, 0x6d,
  0xbf, 0xb2, 0x2a, 0x88, 0xbe, 0x3c, 0x36, 0x50, 0xbe, 0x8f, 0x34, 0x49, 0x3f,
  0xc5, 0x4f, 0xb4, 0x3b, 0xd0, 0xec, 0xab, 0x3d, 0xeb, 0x0b, 0xc9, 0xbe, 0x6e,
  0x04, 0xa0, 0x3e, 0xc6, 0xff, 0x91, 0x3e, 0xe0, 0x4d, 0xda, 0xbe, 0x57, 0xf9,
  0xf3, 0xbd, 0x0f, 0xf3, 0x1b, 0x3f, 0x51, 0xb1, 0x81, 0x3e, 0x1f, 0x38, 0x73,
  0xbf, 0xb1, 0x1c, 0xd9, 0x3e, 0x68, 0xb8, 0xcd, 0xbe, 0x4f, 0xf4, 0x1f, 0x3e,
  0x29, 0x09, 0xd2, 0xbe, 0x58, 0x70, 0x40, 0x3d, 0x2e, 0xff, 0xfe, 0x3e, 0x5f,
  0x2d, 0x71, 0x3f, 0x7e, 0xfc, 0xff, 0xff, 0x04, 0x00, 0x00, 0x00, 0x1c, 0x00,
  0x00, 0x00, 0x7f, 0x54, 0xe6, 0xbe, 0xf0, 0x89, 0x12, 0x3e, 0xc7, 0x6a, 0x2a,
  0xbd, 0x2b, 0x49, 0xf1, 0x3d, 0x04, 0x3e, 0x03, 0x3f, 0xbb, 0x2f, 0xfa, 0xbd,
  0x35, 0x59, 0x03, 0xbd, 0x4c, 0xf1, 0xff, 0xff, 0x50, 0xf1, 0xff, 0xff, 0x54,
  0xf1, 0xff, 0xff, 0x58, 0xf1, 0xff, 0xff, 0x5c, 0xf1, 0xff, 0xff, 0x0f, 0x00,
  0x00, 0x00, 0x4d, 0x4c, 0x49, 0x52, 0x20, 0x43, 0x6f, 0x6e, 0x76, 0x65, 0x72,
  0x74, 0x65, 0x64, 0x2e, 0x00, 0x01, 0x00, 0x00, 0x00, 0x14, 0x00, 0x00, 0x00,
  0x00, 0x00, 0x0e, 0x00, 0x18, 0x00, 0x14, 0x00, 0x10, 0x00, 0x0c, 0x00, 0x08,
  0x00, 0x04, 0x00, 0x0e, 0x00, 0x00, 0x00, 0x14, 0x00, 0x00, 0x00, 0x1c, 0x00,
  0x00, 0x00, 0x30, 0x03, 0x00, 0x00, 0x34, 0x03, 0x00, 0x00, 0x44, 0x03, 0x00,
  0x00, 0x04, 0x00, 0x00, 0x00, 0x6d, 0x61, 0x69, 0x6e, 0x00, 0x00, 0x00, 0x00,
  0x0d, 0x00, 0x00, 0x00, 0xdc, 0x02, 0x00, 0x00, 0x98, 0x02, 0x00, 0x00, 0x64,
  0x02, 0x00, 0x00, 0x20, 0x02, 0x00, 0x00, 0xd4, 0x01, 0x00, 0x00, 0x98, 0x01,
  0x00, 0x00, 0x5c, 0x01, 0x00, 0x00, 0x20, 0x01, 0x00, 0x00, 0xe4, 0x00, 0x00,
  0x00, 0xa8, 0x00, 0x00, 0x00, 0x6c, 0x00, 0x00, 0x00, 0x34, 0x00, 0x00, 0x00,
  0x10, 0x00, 0x00, 0x00, 0x00, 0x00, 0x0a, 0x00, 0x10, 0x00, 0x0c, 0x00, 0x08,
  0x00, 0x04, 0x00, 0x0a, 0x00, 0x00, 0x00, 0x0c, 0x00, 0x00, 0x00, 0x10, 0x00,
  0x00, 0x00, 0x02, 0x00, 0x00, 0x00, 0x01, 0x00, 0x00, 0x00, 0x20, 0x00, 0x00,
  0x00, 0x01, 0x00, 0x00, 0x00, 0x1f, 0x00, 0x00, 0x00, 0x42, 0xfe, 0xff, 0xff,
  0x14, 0x00, 0x00, 0x00, 0x00, 0x00, 0x00, 0x08, 0x10, 0x00, 0x00, 0x00, 0x14,
  0x00, 0x00, 0x00, 0x01, 0x00, 0x00, 0x00, 0x2c, 0xf2, 0xff, 0xff, 0x01, 0x00,
  0x00, 0x00, 0x1f, 0x00, 0x00, 0x00, 0x03, 0x00, 0x00, 0x00, 0x1e, 0x00, 0x00,
  0x00, 0x04, 0x00, 0x00, 0x00, 0x0d, 0x00, 0x00, 0x00, 0x76, 0xfe, 0xff, 0xff,
  0x14, 0x00, 0x00, 0x00, 0x00, 0x00, 0x00, 0x08, 0x14, 0x00, 0x00, 0x00, 0x18,
  0x00, 0x00, 0x00, 0x01, 0x00, 0x00, 0x00, 0x66, 0xfe, 0xff, 0xff, 0x00, 0x00,
  0x00, 0x01, 0x01, 0x00, 0x00, 0x00, 0x1e, 0x00, 0x00, 0x00, 0x03, 0x00, 0x00,
  0x00, 0x1d, 0x00, 0x00, 0x00, 0x05, 0x00, 0x00, 0x00, 0x0e, 0x00, 0x00, 0x00,
  0xfe, 0xfd, 0xff, 0xff, 0x10, 0x00, 0x00, 0x00, 0x00, 0x00, 0x00, 0x0a, 0x10,
  0x00, 0x00, 0x00, 0x14, 0x00, 0x00, 0x00, 0xee, 0xfd, 0xff, 0xff, 0x01, 0x00,
  0x00, 0x00, 0x01, 0x00, 0x00, 0x00, 0x1d, 0x00, 0x00, 0x00, 0x04, 0x00, 0x00,
  0x00, 0x00, 0x00, 0x00, 0x00, 0x1c, 0x00, 0x00, 0x00, 0x18, 0x00, 0x00, 0x00,
  0x1a, 0x00, 0x00, 0x00, 0xe6, 0xfe, 0xff, 0xff, 0x14, 0x00, 0x00, 0x00, 0x00,
  0x00, 0x00, 0x08, 0x14, 0x00, 0x00, 0x00, 0x18, 0x00, 0x00, 0x00, 0x01, 0x00,
  0x00, 0x00, 0xd6, 0xfe, 0xff, 0xff, 0x00, 0x00, 0x00, 0x01, 0x01, 0x00, 0x00,
  0x00, 0x1c, 0x00, 0x00, 0x00, 0x03, 0x00, 0x00, 0x00, 0x1b, 0x00, 0x00, 0x00,
  0x06, 0x00, 0x00, 0x00, 0x13, 0x00, 0x00, 0x00, 0x1e, 0xff, 0xff, 0xff, 0x14,
  0x00, 0x00, 0x00, 0x00, 0x00, 0x00, 0x08, 0x14, 0x00, 0x00, 0x00, 0x18, 0x00,
  0x00, 0x00, 0x01, 0x00, 0x00, 0x00, 0x0e, 0xff, 0xff, 0xff, 0x00, 0x00, 0x00,
  0x01, 0x01, 0x00, 0x00, 0x00, 0x1b, 0x00, 0x00, 0x00, 0x03, 0x00, 0x00, 0x00,
  0x14, 0x00, 0x00, 0x00, 0x07, 0x00, 0x00, 0x00, 0x0c, 0x00, 0x00, 0x00, 0x56,
  0xff, 0xff, 0xff, 0x14, 0x00, 0x00, 0x00, 0x00, 0x00, 0x00, 0x08, 0x14, 0x00,
  0x00, 0x00, 0x18, 0x00, 0x00, 0x00, 0x01, 0x00, 0x00, 0x00, 0x46, 0xff, 0xff,
  0xff, 0x00, 0x00, 0x00, 0x01, 0x01, 0x00, 0x00, 0x00, 0x1a, 0x00, 0x00, 0x00,
  0x03, 0x00, 0x00, 0x00, 0x19, 0x00, 0x00, 0x00, 0x08, 0x00, 0x00, 0x00, 0x0f,
  0x00, 0x00, 0x00, 0x8e, 0xff, 0xff, 0xff, 0x14, 0x00, 0x00, 0x00, 0x00, 0x00,
  0x00, 0x08, 0x14, 0x00, 0x00, 0x00, 0x18, 0x00, 0x00, 0x00, 0x01, 0x00, 0x00,
  0x00, 0x7e, 0xff, 0xff, 0xff, 0x00, 0x00, 0x00, 0x01, 0x01, 0x00, 0x00, 0x00,
  0x19, 0x00, 0x00, 0x00, 0x03, 0x00, 0x00, 0x00, 0x16, 0x00, 0x00, 0x00, 0x09,
  0x00, 0x00, 0x00, 0x10, 0x00, 0x00, 0x00, 0xc6, 0xff, 0xff, 0xff, 0x14, 0x00,
  0x00, 0x00, 0x00, 0x00, 0x00, 0x08, 0x14, 0x00, 0x00, 0x00, 0x18, 0x00, 0x00,
  0x00, 0x01, 0x00, 0x00, 0x00, 0xb6, 0xff, 0xff, 0xff, 0x00, 0x00, 0x00, 0x01,
  0x01, 0x00, 0x00, 0x00, 0x18, 0x00, 0x00, 0x00, 0x03, 0x00, 0x00, 0x00, 0x17,
  0x00, 0x00, 0x00, 0x0a, 0x00, 0x00, 0x00, 0x11, 0x00, 0x00, 0x00, 0x00, 0x00,
  0x0e, 0x00, 0x1a, 0x00, 0x14, 0x00, 0x10, 0x00, 0x0c, 0x00, 0x0b, 0x00, 0x04,
  0x00, 0x0e, 0x00, 0x00, 0x00, 0x1c, 0x00, 0x00, 0x00, 0x00, 0x00, 0x00, 0x08,
  0x1c, 0x00, 0x00, 0x00, 0x20, 0x00, 0x00, 0x00, 0x01, 0x00, 0x00, 0x00, 0x00,
  0x00, 0x06, 0x00, 0x08, 0x00, 0x07, 0x00, 0x06, 0x00, 0x00, 0x00, 0x00, 0x00,
  0x00, 0x01, 0x01, 0x00, 0x00, 0x00, 0x17, 0x00, 0x00, 0x00, 0x03, 0x00, 0x00,
  0x00, 0x15, 0x00, 0x00, 0x00, 0x0b, 0x00, 0x00, 0x00, 0x12, 0x00, 0x00, 0x00,
  0x9e, 0xff, 0xff, 0xff, 0x10, 0x00, 0x00, 0x00, 0x00, 0x00, 0x00, 0x0a, 0x10,
  0x00, 0x00, 0x00, 0x14, 0x00, 0x00, 0x00, 0x8e, 0xff, 0xff, 0xff, 0x01, 0x00,
  0x00, 0x00, 0x01, 0x00, 0x00, 0x00, 0x16, 0x00, 0x00, 0x00, 0x02, 0x00, 0x00,
  0x00, 0x01, 0x00, 0x00, 0x00, 0x00, 0x00, 0x00, 0x00, 0xce, 0xff, 0xff, 0xff,
  0x10, 0x00, 0x00, 0x00, 0x00, 0x00, 0x00, 0x0a, 0x10, 0x00, 0x00, 0x00, 0x14,
  0x00, 0x00, 0x00, 0xbe, 0xff, 0xff, 0xff, 0x01, 0x00, 0x00, 0x00, 0x01, 0x00,
  0x00, 0x00, 0x15, 0x00, 0x00, 0x00, 0x02, 0x00, 0x00, 0x00, 0x02, 0x00, 0x00,
  0x00, 0x00, 0x00, 0x00, 0x00, 0x00, 0x00, 0x0e, 0x00, 0x16, 0x00, 0x00, 0x00,
  0x10, 0x00, 0x0c, 0x00, 0x0b, 0x00, 0x04, 0x00, 0x0e, 0x00, 0x00, 0x00, 0x18,
  0x00, 0x00, 0x00, 0x00, 0x00, 0x00, 0x0a, 0x18, 0x00, 0x00, 0x00, 0x1c, 0x00,
  0x00, 0x00, 0x00, 0x00, 0x06, 0x00, 0x08, 0x00, 0x04, 0x00, 0x06, 0x00, 0x00,
  0x00, 0x01, 0x00, 0x00, 0x00, 0x01, 0x00, 0x00, 0x00, 0x14, 0x00, 0x00, 0x00,
  0x02, 0x00, 0x00, 0x00, 0x03, 0x00, 0x00, 0x00, 0x00, 0x00, 0x00, 0x00, 0x01,
  0x00, 0x00, 0x00, 0x20, 0x00, 0x00, 0x00, 0x04, 0x00, 0x00, 0x00, 0x00, 0x00,
  0x00, 0x00, 0x01, 0x00, 0x00, 0x00, 0x02, 0x00, 0x00, 0x00, 0x03, 0x00, 0x00,
  0x00, 0x21, 0x00, 0x00, 0x00, 0xf0, 0x0a, 0x00, 0x00, 0x7c, 0x0a, 0x00, 0x00,
  0x20, 0x0a, 0x00, 0x00, 0xc4, 0x09, 0x00, 0x00, 0x84, 0x09, 0x00, 0x00, 0x2c,
  0x09, 0x00, 0x00, 0xec, 0x08, 0x00, 0x00, 0xac, 0x08, 0x00, 0x00, 0x6c, 0x08,
  0x00, 0x00, 0x2c, 0x08, 0x00, 0x00, 0xec, 0x07, 0x00, 0x00, 0xac, 0x07, 0x00,
  0x00, 0x70, 0x07, 0x00, 0x00, 0x34, 0x07, 0x00, 0x00, 0xf4, 0x06, 0x00, 0x00,
  0xb4, 0x06, 0x00, 0x00, 0x74, 0x06, 0x00, 0x00, 0x34, 0x06, 0x00, 0x00, 0xf4,
  0x05, 0x00, 0x00, 0xb4, 0x05, 0x00, 0x00, 0x58, 0x05, 0x00, 0x00, 0xfc, 0x04,
  0x00, 0x00, 0xa0, 0x04, 0x00, 0x00, 0x20, 0x04, 0x00, 0x00, 0xa0, 0x03, 0x00,
  0x00, 0x20, 0x03, 0x00, 0x00, 0xa0, 0x02, 0x00, 0x00, 0x28, 0x02, 0x00, 0x00,
  0xa8, 0x01, 0x00, 0x00, 0x4c, 0x01, 0x00, 0x00, 0xcc, 0x00, 0x00, 0x00, 0x60,
  0x00, 0x00, 0x00, 0x04, 0x00, 0x00, 0x00, 0xaa, 0xf5, 0xff, 0xff, 0x00, 0x00,
  0x00, 0x01, 0x14, 0x00, 0x00, 0x00, 0x1c, 0x00, 0x00, 0x00, 0x1c, 0x00, 0x00,
  0x00, 0x21, 0x00, 0x00, 0x00, 0x34, 0x00, 0x00, 0x00, 0x02, 0x00, 0x00, 0x00,
  0xff, 0xff, 0xff, 0xff, 0x01, 0x00, 0x00, 0x00, 0x94, 0xf5, 0xff, 0xff, 0x19,
  0x00, 0x00, 0x00, 0x53, 0x74, 0x61, 0x74, 0x65, 0x66, 0x75, 0x6c, 0x50, 0x61,
  0x72, 0x74, 0x69, 0x74, 0x69, 0x6f, 0x6e, 0x65, 0x64, 0x43, 0x61, 0x6c, 0x6c,
  0x3a, 0x30, 0x00, 0x00, 0x00, 0x02, 0x00, 0x00, 0x00, 0x01, 0x00, 0x00, 0x00,
  0x01, 0x00, 0x00, 0x00, 0x02, 0xf6, 0xff, 0xff, 0x00, 0x00, 0x00, 0x01, 0x14,
  0x00, 0x00, 0x00, 0x1c, 0x00, 0x00, 0x00, 0x1c, 0x00, 0x00, 0x00, 0x20, 0x00,
  0x00, 0x00, 0x44, 0x00, 0x00, 0x00, 0x02, 0x00, 0x00, 0x00, 0xff, 0xff, 0xff,
  0xff, 0x01, 0x00, 0x00, 0x00, 0xec, 0xf5, 0xff, 0xff, 0x2a, 0x00, 0x00, 0x00,
  0x6d, 0x6f, 0x64, 0x65, 0x6c, 0x2f, 0x64, 0x65, 0x6e, 0x73, 0x65, 0x5f, 0x37,
  0x2f, 0x4d, 0x61, 0x74, 0x4d, 0x75, 0x6c, 0x3b, 0x6d, 0x6f, 0x64, 0x65, 0x6c,
  0x2f, 0x64, 0x65, 0x6e, 0x73, 0x65, 0x5f, 0x37, 0x2f, 0x42, 0x69, 0x61, 0x73,
  0x41, 0x64, 0x64, 0x00, 0x00, 0x02, 0x00, 0x00, 0x00, 0x01, 0x00, 0x00, 0x00,
  0x01, 0x00, 0x00, 0x00, 0x6a, 0xf6, 0xff, 0xff, 0x00, 0x00, 0x00, 0x01, 0x14,
  0x00, 0x00, 0x00, 0x1c, 0x00, 0x00, 0x00, 0x1c, 0x00, 0x00, 0x00, 0x1f, 0x00,
  0x00, 0x00, 0x58, 0x00, 0x00, 0x00, 0x02, 0x00, 0x00, 0x00, 0xff, 0xff, 0xff,
  0xff, 0x07, 0x00, 0x00, 0x00, 0x54, 0xf6, 0xff, 0xff, 0x3d, 0x00, 0x00, 0x00,
  0x6d, 0x6f, 0x64, 0x65, 0x6c, 0x2f, 0x64, 0x65, 0x6e, 0x73, 0x65, 0x5f, 0x36,
  0x2f, 0x4d, 0x61, 0x74, 0x4d, 0x75, 0x6c, 0x3b, 0x6d, 0x6f, 0x64, 0x65, 0x6c,
  0x2f, 0x64, 0x65, 0x6e, 0x73, 0x65, 0x5f, 0x36, 0x2f, 0x52, 0x65, 0x6c, 0x75,
  0x3b, 0x6d, 0x6f, 0x64, 0x65, 0x6c, 0x2f, 0x64, 0x65, 0x6e, 0x73, 0x65, 0x5f,
  0x36, 0x2f, 0x42, 0x69, 0x61, 0x73, 0x41, 0x64, 0x64, 0x00, 0x00, 0x00, 0x02,
  0x00, 0x00, 0x00, 0x01, 0x00, 0x00, 0x00, 0x07, 0x00, 0x00, 0x00, 0xe6, 0xf6,
  0xff, 0xff, 0x00, 0x00, 0x00, 0x01, 0x14, 0x00, 0x00, 0x00, 0x1c, 0x00, 0x00,
  0x00, 0x1c, 0x00, 0x00, 0x00, 0x1e, 0x00, 0x00, 0x00, 0x34, 0x00, 0x00, 0x00,
  0x02, 0x00, 0x00, 0x00, 0xff, 0xff, 0xff, 0xff, 0x0e, 0x00, 0x00, 0x00, 0xd0,
  0xf6, 0xff, 0xff, 0x1a, 0x00, 0x00, 0x00, 0x6d, 0x6f, 0x64, 0x65, 0x6c, 0x2f,
  0x63, 0x6f, 0x6e, 0x63, 0x61, 0x74, 0x65, 0x6e, 0x61, 0x74, 0x65, 0x5f, 0x33,
  0x2f, 0x63, 0x6f, 0x6e, 0x63, 0x61, 0x74, 0x00, 0x00, 0x02, 0x00, 0x00, 0x00,
  0x01, 0x00, 0x00, 0x00, 0x0e, 0x00, 0x00, 0x00, 0x3e, 0xf7, 0xff, 0xff, 0x00,
  0x00, 0x00, 0x01, 0x14, 0x00, 0x00, 0x00, 0x1c, 0x00, 0x00, 0x00, 0x1c, 0x00,
  0x00, 0x00, 0x1d, 0x00, 0x00, 0x00, 0x58, 0x00, 0x00, 0x00, 0x02, 0x00, 0x00,
  0x00, 0xff, 0xff, 0xff, 0xff, 0x05, 0x00, 0x00, 0x00, 0x28, 0xf7, 0xff, 0xff,
  0x3d, 0x00, 0x00, 0x00, 0x6d, 0x6f, 0x64, 0x65, 0x6c, 0x2f, 0x64, 0x65, 0x6e,
  0x73, 0x65, 0x5f, 0x31, 0x2f, 0x4d, 0x61, 0x74, 0x4d, 0x75, 0x6c, 0x3b, 0x6d,
  0x6f, 0x64, 0x65, 0x6c, 0x2f, 0x64, 0x65, 0x6e, 0x73, 0x65, 0x5f, 0x31, 0x2f,
  0x52, 0x65, 0x6c, 0x75, 0x3b, 0x6d, 0x6f, 0x64, 0x65, 0x6c, 0x2f, 0x64, 0x65,
  0x6e, 0x73, 0x65, 0x5f, 0x31, 0x2f, 0x42, 0x69, 0x61, 0x73, 0x41, 0x64, 0x64,
  0x00, 0x00, 0x00, 0x02, 0x00, 0x00, 0x00, 0x01, 0x00, 0x00, 0x00, 0x05, 0x00,
  0x00, 0x00, 0xba, 0xf7, 0xff, 0xff, 0x00, 0x00, 0x00, 0x01, 0x14, 0x00, 0x00,
  0x00, 0x1c, 0x00, 0x00, 0x00, 0x1c, 0x00, 0x00, 0x00, 0x1c, 0x00, 0x00, 0x00,
  0x50, 0x00, 0x00, 0x00, 0x02, 0x00, 0x00, 0x00, 0xff, 0xff, 0xff, 0xff, 0x0a,
  0x00, 0x00, 0x00, 0xa4, 0xf7, 0xff, 0xff, 0x37, 0x00, 0x00, 0x00, 0x6d, 0x6f,
  0x64, 0x65, 0x6c, 0x2f, 0x64, 0x65, 0x6e, 0x73, 0x65, 0x2f, 0x4d, 0x61, 0x74,
  0x4d, 0x75, 0x6c, 0x3b, 0x6d, 0x6f, 0x64, 0x65, 0x6c, 0x2f, 0x64, 0x65, 0x6e,
  0x73, 0x65, 0x2f, 0x52, 0x65, 0x6c, 0x75, 0x3b, 0x6d, 0x6f, 0x64, 0x65, 0x6c,
  0x2f, 0x64, 0x65, 0x6e, 0x73, 0x65, 0x2f, 0x42, 0x69, 0x61, 0x73, 0x41, 0x64,
  0x64, 0x00, 0x02, 0x00, 0x00, 0x00, 0x01, 0x00, 0x00, 0x00, 0x0a, 0x00, 0x00,
  0x00, 0x2e, 0xf8, 0xff, 0xff, 0x00, 0x00, 0x00, 0x01, 0x14, 0x00, 0x00, 0x00,
  0x1c, 0x00, 0x00, 0x00, 0x1c, 0x00, 0x00, 0x00, 0x1b, 0x00, 0x00, 0x00, 0x58,
  0x00, 0x00, 0x00, 0x02, 0x00, 0x00, 0x00, 0xff, 0xff, 0xff, 0xff, 0x03, 0x00,
  0x00, 0x00, 0x18, 0xf8, 0xff, 0xff, 0x3d, 0x00, 0x00, 0x00, 0x6d, 0x6f, 0x64,
  0x65, 0x6c, 0x2f, 0x64, 0x65, 0x6e, 0x73, 0x65, 0x5f, 0x35, 0x2f, 0x4d, 0x61,
  0x74, 0x4d, 0x75, 0x6c, 0x3b, 0x6d, 0x6f, 0x64, 0x65, 0x6c, 0x2f, 0x64, 0x65,
  0x6e, 0x73, 0x65, 0x5f, 0x35, 0x2f, 0x52, 0x65, 0x6c, 0x75, 0x3b, 0x6d, 0x6f,
  0x64, 0x65, 0x6c, 0x2f, 0x64, 0x65, 0x6e, 0x73, 0x65, 0x5f, 0x35, 0x2f, 0x42,
  0x69, 0x61, 0x73, 0x41, 0x64, 0x64, 0x00, 0x00, 0x00, 0x02, 0x00, 0x00, 0x00,
  0x01, 0x00, 0x00, 0x00, 0x03, 0x00, 0x00, 0x00, 0xaa, 0xf8, 0xff, 0xff, 0x00,
  0x00, 0x00, 0x01, 0x14, 0x00, 0x00, 0x00, 0x1c, 0x00, 0x00, 0x00, 0x1c, 0x00,
  0x00, 0x00, 0x1a, 0x00, 0x00, 0x00, 0x58, 0x00, 0x00, 0x00, 0x02, 0x00, 0x00,
  0x00, 0xff, 0xff, 0xff, 0xff, 0x06, 0x00, 0x00, 0x00, 0x94, 0xf8, 0xff, 0xff,
  0x3d, 0x00, 0x00, 0x00, 0x6d, 0x6f, 0x64, 0x65, 0x6c, 0x2f, 0x64, 0x65, 0x6e,
  0x73, 0x65, 0x5f, 0x34, 0x2f, 0x4d, 0x61, 0x74, 0x4d, 0x75, 0x6c, 0x3b, 0x6d,
  0x6f, 0x64, 0x65, 0x6c, 0x2f, 0x64, 0x65, 0x6e, 0x73, 0x65, 0x5f, 0x34, 0x2f,
  0x52, 0x65, 0x6c, 0x75, 0x3b, 0x6d, 0x6f, 0x64, 0x65, 0x6c, 0x2f, 0x64, 0x65,
  0x6e, 0x73, 0x65, 0x5f, 0x34, 0x2f, 0x42, 0x69, 0x61, 0x73, 0x41, 0x64, 0x64,
  0x00, 0x00, 0x00, 0x02, 0x00, 0x00, 0x00, 0x01, 0x00, 0x00, 0x00, 0x06, 0x00,
  0x00, 0x00, 0x26, 0xf9, 0xff, 0xff, 0x00, 0x00, 0x00, 0x01, 0x14, 0x00, 0x00,
  0x00, 0x1c, 0x00, 0x00, 0x00, 0x1c, 0x00, 0x00, 0x00, 0x19, 0x00, 0x00, 0x00,
  0x58, 0x00, 0x00, 0x00, 0x02, 0x00, 0x00, 0x00, 0xff, 0xff, 0xff, 0xff, 0x03,
  0x00, 0x00, 0x00, 0x10, 0xf9, 0xff, 0xff, 0x3d, 0x00, 0x00, 0x00, 0x6d, 0x6f,
  0x64, 0x65, 0x6c, 0x2f, 0x64, 0x65, 0x6e, 0x73, 0x65, 0x5f, 0x33, 0x2f, 0x4d,
  0x61, 0x74, 0x4d, 0x75, 0x6c, 0x3b, 0x6d, 0x6f, 0x64, 0x65, 0x6c, 0x2f, 0x64,
  0x65, 0x6e, 0x73, 0x65, 0x5f, 0x33, 0x2f, 0x52, 0x65, 0x6c, 0x75, 0x3b, 0x6d,
  0x6f, 0x64, 0x65, 0x6c, 0x2f, 0x64, 0x65, 0x6e, 0x73, 0x65, 0x5f, 0x33, 0x2f,
  0x42, 0x69, 0x61, 0x73, 0x41, 0x64, 0x64, 0x00, 0x00, 0x00, 0x02, 0x00, 0x00,
  0x00, 0x01, 0x00, 0x00, 0x00, 0x03, 0x00, 0x00, 0x00, 0xa2, 0xf9, 0xff, 0xff,
  0x00, 0x00, 0x00, 0x01, 0x14, 0x00, 0x00, 0x00, 0x1c, 0x00, 0x00, 0x00, 0x1c,
  0x00, 0x00, 0x00, 0x18, 0x00, 0x00, 0x00, 0x58, 0x00, 0x00, 0x00, 0x02, 0x00,
  0x00, 0x00, 0xff, 0xff, 0xff, 0xff, 0x06, 0x00, 0x00, 0x00, 0x8c, 0xf9, 0xff,
  0xff, 0x3d, 0x00, 0x00, 0x00, 0x6d, 0x6f, 0x64, 0x65, 0x6c, 0x2f, 0x64, 0x65,
  0x6e, 0x73, 0x65, 0x5f, 0x32, 0x2f, 0x4d, 0x61, 0x74, 0x4d, 0x75, 0x6c, 0x3b,
  0x6d, 0x6f, 0x64, 0x65, 0x6c, 0x2f, 0x64, 0x65, 0x6e, 0x73, 0x65, 0x5f, 0x32,
  0x2f, 0x52, 0x65, 0x6c, 0x75, 0x3b, 0x6d, 0x6f, 0x64, 0x65, 0x6c, 0x2f, 0x64,
  0x65, 0x6e, 0x73, 0x65, 0x5f, 0x32, 0x2f, 0x42, 0x69, 0x61, 0x73, 0x41, 0x64,
  0x64, 0x00, 0x00, 0x00, 0x02, 0x00, 0x00, 0x00, 0x01, 0x00, 0x00, 0x00, 0x06,
  0x00, 0x00, 0x00, 0x1e, 0xfa, 0xff, 0xff, 0x00, 0x00, 0x00, 0x01, 0x14, 0x00,
  0x00, 0x00, 0x1c, 0x00, 0x00, 0x00, 0x1c, 0x00, 0x00, 0x00, 0x17, 0x00, 0x00,
  0x00, 0x34, 0x00, 0x00, 0x00, 0x02, 0x00, 0x00, 0x00, 0xff, 0xff, 0xff, 0xff,
  0x0f, 0x00, 0x00, 0x00, 0x08, 0xfa, 0xff, 0xff, 0x1a, 0x00, 0x00, 0x00, 0x6d,
  0x6f, 0x64, 0x65, 0x6c, 0x2f, 0x63, 0x6f, 0x6e, 0x63, 0x61, 0x74, 0x65, 0x6e,
  0x61, 0x74, 0x65, 0x5f, 0x32, 0x2f, 0x63, 0x6f, 0x6e, 0x63, 0x61, 0x74, 0x00,
  0x00, 0x02, 0x00, 0x00, 0x00, 0x01, 0x00, 0x00, 0x00, 0x0f, 0x00, 0x00, 0x00,
  0x76, 0xfa, 0xff, 0xff, 0x00, 0x00, 0x00, 0x01, 0x14, 0x00, 0x00, 0x00, 0x1c,
  0x00, 0x00, 0x00, 0x1c, 0x00, 0x00, 0x00, 0x16, 0x00, 0x00, 0x00, 0x34, 0x00,
  0x00, 0x00, 0x02, 0x00, 0x00, 0x00, 0xff, 0xff, 0xff, 0xff, 0x0f, 0x00, 0x00,
  0x00, 0x60, 0xfa, 0xff, 0xff, 0x1a, 0x00, 0x00, 0x00, 0x6d, 0x6f, 0x64, 0x65,
  0x6c, 0x2f, 0x63, 0x6f, 0x6e, 0x63, 0x61, 0x74, 0x65, 0x6e, 0x61, 0x74, 0x65,
  0x5f, 0x31, 0x2f, 0x63, 0x6f, 0x6e, 0x63, 0x61, 0x74, 0x00, 0x00, 0x02, 0x00,
  0x00, 0x00, 0x01, 0x00, 0x00, 0x00, 0x0f, 0x00, 0x00, 0x00, 0xce, 0xfa, 0xff,
  0xff, 0x00, 0x00, 0x00, 0x01, 0x14, 0x00, 0x00, 0x00, 0x1c, 0x00, 0x00, 0x00,
  0x1c, 0x00, 0x00, 0x00, 0x15, 0x00, 0x00, 0x00, 0x34, 0x00, 0x00, 0x00, 0x02,
  0x00, 0x00, 0x00, 0xff, 0xff, 0xff, 0xff, 0x17, 0x00, 0x00, 0x00, 0xb8, 0xfa,
  0xff, 0xff, 0x18, 0x00, 0x00, 0x00, 0x6d, 0x6f, 0x64, 0x65, 0x6c, 0x2f, 0x63,
  0x6f, 0x6e, 0x63, 0x61, 0x74, 0x65, 0x6e, 0x61, 0x74, 0x65, 0x2f, 0x63, 0x6f,
  0x6e, 0x63, 0x61, 0x74, 0x00, 0x00, 0x00, 0x00, 0x02, 0x00, 0x00, 0x00, 0x01,
  0x00, 0x00, 0x00, 0x17, 0x00, 0x00, 0x00, 0x82, 0xfc, 0xff, 0xff, 0x00, 0x00,
  0x00, 0x01, 0x10, 0x00, 0x00, 0x00, 0x10, 0x00, 0x00, 0x00, 0x14, 0x00, 0x00,
  0x00, 0x20, 0x00, 0x00, 0x00, 0x00, 0xfb, 0xff, 0xff, 0x10, 0x00, 0x00, 0x00,
  0x61, 0x72, 0x69, 0x74, 0x68, 0x2e, 0x63, 0x6f, 0x6e, 0x73, 0x74, 0x61, 0x6e,
  0x74, 0x31, 0x35, 0x00, 0x00, 0x00, 0x00, 0x01, 0x00, 0x00, 0x00, 0x05, 0x00,
  0x00, 0x00, 0xbe, 0xfc, 0xff, 0xff, 0x00, 0x00, 0x00, 0x01, 0x10, 0x00, 0x00,
  0x00, 0x10, 0x00, 0x00, 0x00, 0x13, 0x00, 0x00, 0x00, 0x20, 0x00, 0x00, 0x00,
  0x3c, 0xfb, 0xff, 0xff, 0x10, 0x00, 0x00, 0x00, 0x61, 0x72, 0x69, 0x74, 0x68,
  0x2e, 0x63, 0x6f, 0x6e, 0x73, 0x74, 0x61, 0x6e, 0x74, 0x31, 0x34, 0x00, 0x00,
  0x00, 0x00, 0x01, 0x00, 0x00, 0x00, 0x06, 0x00, 0x00, 0x00, 0xfa, 0xfc, 0xff,
  0xff, 0x00, 0x00, 0x00, 0x01, 0x10, 0x00, 0x00, 0x00, 0x10, 0x00, 0x00, 0x00,
  0x12, 0x00, 0x00, 0x00, 0x20, 0x00, 0x00, 0x00, 0x78, 0xfb, 0xff, 0xff, 0x10,
  0x00, 0x00, 0x00, 0x61, 0x72, 0x69, 0x74, 0x68, 0x2e, 0x63, 0x6f, 0x6e, 0x73,
  0x74, 0x61, 0x6e, 0x74, 0x31, 0x33, 0x00, 0x00, 0x00, 0x00, 0x01, 0x00, 0x00,
  0x00, 0x03, 0x00, 0x00, 0x00, 0x36, 0xfd, 0xff, 0xff, 0x00, 0x00, 0x00, 0x01,
  0x10, 0x00, 0x00, 0x00, 0x10, 0x00, 0x00, 0x00, 0x11, 0x00, 0x00, 0x00, 0x20,
  0x00, 0x00, 0x00, 0xb4, 0xfb, 0xff, 0xff, 0x10, 0x00, 0x00, 0x00, 0x61, 0x72,
  0x69, 0x74, 0x68, 0x2e, 0x63, 0x6f, 0x6e, 0x73, 0x74, 0x61, 0x6e, 0x74, 0x31,
  0x32, 0x00, 0x00, 0x00, 0x00, 0x01, 0x00, 0x00, 0x00, 0x06, 0x00, 0x00, 0x00,
  0x72, 0xfd, 0xff, 0xff, 0x00, 0x00, 0x00, 0x01, 0x10, 0x00, 0x00, 0x00, 0x10,
  0x00, 0x00, 0x00, 0x10, 0x00, 0x00, 0x00, 0x20, 0x00, 0x00, 0x00, 0xf0, 0xfb,
  0xff, 0xff, 0x10, 0x00, 0x00, 0x00, 0x61, 0x72, 0x69, 0x74, 0x68, 0x2e, 0x63,
  0x6f, 0x6e, 0x73, 0x74, 0x61, 0x6e, 0x74, 0x31, 0x31, 0x00, 0x00, 0x00, 0x00,
  0x01, 0x00, 0x00, 0x00, 0x03, 0x00, 0x00, 0x00, 0xae, 0xfd, 0xff, 0xff, 0x00,
  0x00, 0x00, 0x01, 0x10, 0x00, 0x00, 0x00, 0x10, 0x00, 0x00, 0x00, 0x0f, 0x00,
  0x00, 0x00, 0x20, 0x00, 0x00, 0x00, 0x2c, 0xfc, 0xff, 0xff, 0x10, 0x00, 0x00,
  0x00, 0x61, 0x72, 0x69, 0x74, 0x68, 0x2e, 0x63, 0x6f, 0x6e, 0x73, 0x74, 0x61,
  0x6e, 0x74, 0x31, 0x30, 0x00, 0x00, 0x00, 0x00, 0x01, 0x00, 0x00, 0x00, 0x07,
  0x00, 0x00, 0x00, 0xea, 0xfd, 0xff, 0xff, 0x00, 0x00, 0x00, 0x01, 0x10, 0x00,
  0x00, 0x00, 0x10, 0x00, 0x00, 0x00, 0x0e, 0x00, 0x00, 0x00, 0x1c, 0x00, 0x00,
  0x00, 0x68, 0xfc, 0xff, 0xff, 0x0f, 0x00, 0x00, 0x00, 0x61, 0x72, 0x69, 0x74,
  0x68, 0x2e, 0x63, 0x6f, 0x6e, 0x73, 0x74, 0x61, 0x6e, 0x74, 0x39, 0x00, 0x01,
  0x00, 0x00, 0x00, 0x01, 0x00, 0x00, 0x00, 0x22, 0xfe, 0xff, 0xff, 0x00, 0x00,
  0x00, 0x01, 0x10, 0x00, 0x00, 0x00, 0x10, 0x00, 0x00, 0x00, 0x0d, 0x00, 0x00,
  0x00, 0x1c, 0x00, 0x00, 0x00, 0xa0, 0xfc, 0xff, 0xff, 0x0f, 0x00, 0x00, 0x00,
  0x61, 0x72, 0x69, 0x74, 0x68, 0x2e, 0x63, 0x6f, 0x6e, 0x73, 0x74, 0x61, 0x6e,
  0x74, 0x38, 0x00, 0x01, 0x00, 0x00, 0x00, 0x0a, 0x00, 0x00, 0x00, 0x5a, 0xfe,
  0xff, 0xff, 0x00, 0x00, 0x00, 0x01, 0x10, 0x00, 0x00, 0x00, 0x10, 0x00, 0x00,
  0x00, 0x0c, 0x00, 0x00, 0x00, 0x1c, 0x00, 0x00, 0x00, 0xd8, 0xfc, 0xff, 0xff,
  0x0f, 0x00, 0x00, 0x00, 0x61, 0x72, 0x69, 0x74, 0x68, 0x2e, 0x63, 0x6f, 0x6e,
  0x73, 0x74, 0x61, 0x6e, 0x74, 0x37, 0x00, 0x02, 0x00, 0x00, 0x00, 0x06, 0x00,
  0x00, 0x00, 0x0f, 0x00, 0x00, 0x00, 0x96, 0xfe, 0xff, 0xff, 0x00, 0x00, 0x00,
  0x01, 0x10, 0x00, 0x00, 0x00, 0x10, 0x00, 0x00, 0x00, 0x0b, 0x00, 0x00, 0x00,
  0x1c, 0x00, 0x00, 0x00, 0x14, 0xfd, 0xff, 0xff, 0x0f, 0x00, 0x00, 0x00, 0x61,
  0x72, 0x69, 0x74, 0x68, 0x2e, 0x63, 0x6f, 0x6e, 0x73, 0x74, 0x61, 0x6e, 0x74,
  0x36, 0x00, 0x02, 0x00, 0x00, 0x00, 0x03, 0x00, 0x00, 0x00, 0x06, 0x00, 0x00,
  0x00, 0xd2, 0xfe, 0xff, 0xff, 0x00, 0x00, 0x00, 0x01, 0x10, 0x00, 0x00, 0x00,
  0x10, 0x00, 0x00, 0x00, 0x0a, 0x00, 0x00, 0x00, 0x1c, 0x00, 0x00, 0x00, 0x50,
  0xfd, 0xff, 0xff, 0x0f, 0x00, 0x00, 0x00, 0x61, 0x72, 0x69, 0x74, 0x68, 0x2e,
  0x63, 0x6f, 0x6e, 0x73, 0x74, 0x61, 0x6e, 0x74, 0x35, 0x00, 0x02, 0x00, 0x00,
  0x00, 0x06, 0x00, 0x00, 0x00, 0x0f, 0x00, 0x00, 0x00, 0x0e, 0xff, 0xff, 0xff,
  0x00, 0x00, 0x00, 0x01, 0x10, 0x00, 0x00, 0x00, 0x10, 0x00, 0x00, 0x00, 0x09,
  0x00, 0x00, 0x00, 0x1c, 0x00, 0x00, 0x00, 0x8c, 0xfd, 0xff, 0xff, 0x0f, 0x00,
  0x00, 0x00, 0x61, 0x72, 0x69, 0x74, 0x68, 0x2e, 0x63, 0x6f, 0x6e, 0x73, 0x74,
  0x61, 0x6e, 0x74, 0x34, 0x00, 0x02, 0x00, 0x00, 0x00, 0x03, 0x00, 0x00, 0x00,
  0x06, 0x00, 0x00, 0x00, 0x4a, 0xff, 0xff, 0xff, 0x00, 0x00, 0x00, 0x01, 0x10,
  0x00, 0x00, 0x00, 0x10, 0x00, 0x00, 0x00, 0x08, 0x00, 0x00, 0x00, 0x1c, 0x00,
  0x00, 0x00, 0xc8, 0xfd, 0xff, 0xff, 0x0f, 0x00, 0x00, 0x00, 0x61, 0x72, 0x69,
  0x74, 0x68, 0x2e, 0x63, 0x6f, 0x6e, 0x73, 0x74, 0x61, 0x6e, 0x74, 0x33, 0x00,
  0x02, 0x00, 0x00, 0x00, 0x0a, 0x00, 0x00, 0x00, 0x17, 0x00, 0x00, 0x00, 0x86,
  0xff, 0xff, 0xff, 0x00, 0x00, 0x00, 0x01, 0x10, 0x00, 0x00, 0x00, 0x10, 0x00,
  0x00, 0x00, 0x07, 0x00, 0x00, 0x00, 0x1c, 0x00, 0x00, 0x00, 0x04, 0xfe, 0xff,
  0xff, 0x0f, 0x00, 0x00, 0x00, 0x61, 0x72, 0x69, 0x74, 0x68, 0x2e, 0x63, 0x6f,
  0x6e, 0x73, 0x74, 0x61, 0x6e, 0x74, 0x32, 0x00, 0x02, 0x00, 0x00, 0x00, 0x05,
  0x00, 0x00, 0x00, 0x0a, 0x00, 0x00, 0x00, 0xc2, 0xff, 0xff, 0xff, 0x00, 0x00,
  0x00, 0x01, 0x10, 0x00, 0x00, 0x00, 0x10, 0x00, 0x00, 0x00, 0x06, 0x00, 0x00,
  0x00, 0x1c, 0x00, 0x00, 0x00, 0x40, 0xfe, 0xff, 0xff, 0x0f, 0x00, 0x00, 0x00,
  0x61, 0x72, 0x69, 0x74, 0x68, 0x2e, 0x63, 0x6f, 0x6e, 0x73, 0x74, 0x61, 0x6e,
  0x74, 0x31, 0x00, 0x02, 0x00, 0x00, 0x00, 0x07, 0x00, 0x00, 0x00, 0x0e, 0x00,
  0x00, 0x00, 0x00, 0x00, 0x16, 0x00, 0x18, 0x00, 0x14, 0x00, 0x00, 0x00, 0x10,
  0x00, 0x0c, 0x00, 0x08, 0x00, 0x00, 0x00, 0x00, 0x00, 0x00, 0x00, 0x07, 0x00,
  0x16, 0x00, 0x00, 0x00, 0x00, 0x00, 0x00, 0x01, 0x10, 0x00, 0x00, 0x00, 0x10,
  0x00, 0x00, 0x00, 0x05, 0x00, 0x00, 0x00, 0x1c, 0x00, 0x00, 0x00, 0x94, 0xfe,
  0xff, 0xff, 0x0e, 0x00, 0x00, 0x00, 0x61, 0x72, 0x69, 0x74, 0x68, 0x2e, 0x63,
  0x6f, 0x6e, 0x73, 0x74, 0x61, 0x6e, 0x74, 0x00, 0x00, 0x02, 0x00, 0x00, 0x00,
  0x01, 0x00, 0x00, 0x00, 0x07, 0x00, 0x00, 0x00, 0xf6, 0xfe, 0xff, 0xff, 0x00,
  0x00, 0x00, 0x01, 0x14, 0x00, 0x00, 0x00, 0x1c, 0x00, 0x00, 0x00, 0x1c, 0x00,
  0x00, 0x00, 0x04, 0x00, 0x00, 0x00, 0x34, 0x00, 0x00, 0x00, 0x02, 0x00, 0x00,
  0x00, 0xff, 0xff, 0xff, 0xff, 0x14, 0x00, 0x00, 0x00, 0xe0, 0xfe, 0xff, 0xff,
  0x19, 0x00, 0x00, 0x00, 0x73, 0x65, 0x72, 0x76, 0x69, 0x6e, 0x67, 0x5f, 0x64,
  0x65, 0x66, 0x61, 0x75, 0x6c, 0x74, 0x5f, 0x69, 0x6e, 0x70, 0x75, 0x74, 0x5f,
  0x32, 0x3a, 0x30, 0x00, 0x00, 0x00, 0x02, 0x00, 0x00, 0x00, 0x01, 0x00, 0x00,
  0x00, 0x14, 0x00, 0x00, 0x00, 0x4e, 0xff, 0xff, 0xff, 0x00, 0x00, 0x00, 0x01,
  0x14, 0x00, 0x00, 0x00, 0x1c, 0x00, 0x00, 0x00, 0x1c, 0x00, 0x00, 0x00, 0x03,
  0x00, 0x00, 0x00, 0x34, 0x00, 0x00, 0x00, 0x02, 0x00, 0x00, 0x00, 0xff, 0xff,
  0xff, 0xff, 0x0c, 0x00, 0x00, 0x00, 0x38, 0xff, 0xff, 0xff, 0x19, 0x00, 0x00,
  0x00, 0x73, 0x65, 0x72, 0x76, 0x69, 0x6e, 0x67, 0x5f, 0x64, 0x65, 0x66, 0x61,
  0x75, 0x6c, 0x74, 0x5f, 0x69, 0x6e, 0x70, 0x75, 0x74, 0x5f, 0x33, 0x3a, 0x30,
  0x00, 0x00, 0x00, 0x02, 0x00, 0x00, 0x00, 0x01, 0x00, 0x00, 0x00, 0x0c, 0x00,
  0x00, 0x00, 0xa6, 0xff, 0xff, 0xff, 0x00, 0x00, 0x00, 0x01, 0x14, 0x00, 0x00,
  0x00, 0x1c, 0x00, 0x00, 0x00, 0x1c, 0x00, 0x00, 0x00, 0x02, 0x00, 0x00, 0x00,
  0x34, 0x00, 0x00, 0x00, 0x02, 0x00, 0x00, 0x00, 0xff, 0xff, 0xff, 0xff, 0x0c,
  0x00, 0x00, 0x00, 0x90, 0xff, 0xff, 0xff, 0x19, 0x00, 0x00, 0x00, 0x73, 0x65,
  0x72, 0x76, 0x69, 0x6e, 0x67, 0x5f, 0x64, 0x65, 0x66, 0x61, 0x75, 0x6c, 0x74,
  0x5f, 0x69, 0x6e, 0x70, 0x75, 0x74, 0x5f, 0x34, 0x3a, 0x30, 0x00, 0x00, 0x00,
  0x02, 0x00, 0x00, 0x00, 0x01, 0x00, 0x00, 0x00, 0x0c, 0x00, 0x00, 0x00, 0x00,
  0x00, 0x16, 0x00, 0x1c, 0x00, 0x18, 0x00, 0x00, 0x00, 0x14, 0x00, 0x10, 0x00,
  0x0c, 0x00, 0x00, 0x00, 0x00, 0x00, 0x08, 0x00, 0x07, 0x00, 0x16, 0x00, 0x00,
  0x00, 0x00, 0x00, 0x00, 0x01, 0x14, 0x00, 0x00, 0x00, 0x20, 0x00, 0x00, 0x00,
  0x20, 0x00, 0x00, 0x00, 0x01, 0x00, 0x00, 0x00, 0x38, 0x00, 0x00, 0x00, 0x02,
  0x00, 0x00, 0x00, 0xff, 0xff, 0xff, 0xff, 0x03, 0x00, 0x00, 0x00, 0x04, 0x00,
  0x04, 0x00, 0x04, 0x00, 0x00, 0x00, 0x19, 0x00, 0x00, 0x00, 0x73, 0x65, 0x72,
  0x76, 0x69, 0x6e, 0x67, 0x5f, 0x64, 0x65, 0x66, 0x61, 0x75, 0x6c, 0x74, 0x5f,
  0x69, 0x6e, 0x70, 0x75, 0x74, 0x5f, 0x31, 0x3a, 0x30, 0x00, 0x00, 0x00, 0x02,
  0x00, 0x00, 0x00, 0x01, 0x00, 0x00, 0x00, 0x03, 0x00, 0x00, 0x00, 0x03, 0x00,
  0x00, 0x00, 0x30, 0x00, 0x00, 0x00, 0x14, 0x00, 0x00, 0x00, 0x04, 0x00, 0x00,
  0x00, 0xe8, 0xff, 0xff, 0xff, 0x0e, 0x00, 0x00, 0x00, 0x00, 0x00, 0x00, 0x0e,
  0xf4, 0xff, 0xff, 0xff, 0x09, 0x00, 0x00, 0x00, 0x00, 0x00, 0x00, 0x09, 0x0c,
  0x00, 0x0c, 0x00, 0x0b, 0x00, 0x00, 0x00, 0x00, 0x00, 0x04, 0x00, 0x0c, 0x00,
  0x00, 0x00, 0x02, 0x00, 0x00, 0x00, 0x00, 0x00, 0x00, 0x02
};

double sms_part_none_prune_tflite_model_bs5_110_mean[] = {
  1.02799593e+01,  -7.81705329e+00, 4.65173774e-03,  1.77773947e-01,
  -7.35223834e+00, 2.71595113e-03,  3.74828070e-02,  -7.36760577e+00,
  2.72184223e-03,  3.74892752e-02,  -7.34832535e+00, 2.71640586e-03,
  3.74704562e-02,  -7.36369105e+00, 2.72413867e-03,  3.74559108e-02,
  5.08781186e+00,  -8.35035659e-02, 4.36519388e+00,  -7.12083338e-02,
  4.36754001e+00,  -7.19128925e-02, 4.36137594e+00,  -7.00292028e-02,
  4.36388220e+00,  -7.03649822e-02, 2.85481244e+00,  1.51421783e+00,
  1.51605192e+00,  1.51442773e+00,  1.51602899e+00,  9.69945496e+00,
  8.16177069e+00,  8.16458753e+00,  8.16110890e+00,  8.16373301e+00,
  -7.71208199e+00, 3.29424012e-03,  8.49032314e-02,  4.93024650e+00,
  -7.75870817e-02, 2.13816674e+00,  8.93983090e+00,  -7.70760695e+00,
  3.30142181e-03,  8.48353871e-02,  4.92818527e+00,  -7.82450411e-02,
  2.13764567e+00,  8.93881267e+00,  -7.52292746e+00, 3.29952416e-03,
  8.14410682e-02,  4.87153532e+00,  -7.37424139e-02, 2.09018272e+00,
  8.89984085e+00,  -7.53727531e+00, 3.30549029e-03,  8.14471367e-02,
  4.87470998e+00,  -7.43886319e-02, 2.09263499e+00,  8.90255906e+00,
  1.47554414e-02,  2.23312752e-01
};

double sms_part_none_prune_tflite_model_bs5_110_std[] = {
  0.04624208, 2.24993085, 0.0087012,  0.11353687, 2.85666357, 0.00602353,
  0.03232434, 2.79923389, 0.00604053, 0.0323335,  2.86421508, 0.0060209,
  0.03230319, 2.8104687,  0.0060438,  0.03228785, 1.4195805,  0.73921452,
  1.62476536, 0.79212913, 1.62565493, 0.79477423, 1.62614897, 0.79209167,
  1.62680374, 0.79476941, 1.01661382, 0.89264437, 0.89293647, 0.89227936,
  0.89223931, 0.57420835, 0.63981708, 0.63234854, 0.64142711, 0.63418911,
  2.48142147, 0.00654892, 0.06131108, 1.45037821, 0.76076226, 0.96839883,
  0.59751094, 2.48944705, 0.00657633, 0.06124507, 1.45188391, 0.76067956,
  0.9678423,  0.59969398, 2.62529749, 0.00675271, 0.06117342, 1.47878373,
  0.75781773, 0.97994946, 0.61722367, 2.56663386, 0.00676579, 0.0611765,
  1.47879552, 0.76058389, 0.97972351, 0.60938845, 0.11208799, 0.35271319,
};

double sms_part_none_prune_tflite_model_bs5_110_std_inv[] = {
  2.162532e+01, 4.444581e-01, 1.149267e+02, 8.807712e+00, 3.500587e-01,
  1.660156e+02, 3.093644e+01, 3.572406e-01, 1.655484e+02, 3.092768e+01,
  3.491358e-01, 1.660881e+02, 3.095669e+01, 3.558125e-01, 1.654588e+02,
  3.097140e+01, 7.044335e-01, 1.352787e+00, 6.154735e-01, 1.262420e+00,
  6.151367e-01, 1.258219e+00, 6.149498e-01, 1.262480e+00, 6.147023e-01,
  1.258227e+00, 9.836577e-01, 1.120267e+00, 1.119901e+00, 1.120725e+00,
  1.120776e+00, 1.741528e+00, 1.562947e+00, 1.581406e+00, 1.559024e+00,
  1.576817e+00, 4.029948e-01, 1.526969e+02, 1.631027e+01, 6.894753e-01,
  1.314471e+00, 1.032632e+00, 1.673610e+00, 4.016956e-01, 1.520605e+02,
